{"version":"1.0","truncation":null,"padding":null,"added_tokens":[{"id":0,"special":true,"content":"[BOS]","single_word":false,"lstrip":false,"rstrip":false,"normalized":false},{"id":1,"special":true,"content":"[EOS]","single_word":false,"lstrip":false,"rstrip":false,"normalized":false},{"id":2,"special":true,"content":"[UNK]","single_word":false,"lstrip":false,"rstrip":false,"normalized":false},{"id":3,"special":true,"content":"[CLS]","single_word":false,"lstrip":false,"rstrip":false,"normalized":false},{"id":4,"special":true,"content":"[SEP]","single_word":false,"lstrip":false,"rstrip":false,"normalized":false},{"id":5,"special":true,"content":"[PAD]","single_word":false,"lstrip":false,"rstrip":false,"normalized":false},{"id":6,"special":true,"content":"[MASK]","single_word":false,"lstrip":false,"rstrip":false,"normalized":false}],"normalizer":{"type":"Lowercase"},"pre_tokenizer":{"type":"Sequence","pretokenizers":[{"type":"Whitespace"},{"type":"Digits","individual_digits":false}]},"post_processor":null,"decoder":null,"model":{"type":"BPE","dropout":null,"unk_token":"[UNK]","continuing_subword_prefix":null,"end_of_word_suffix":null,"fuse_unk":false,"vocab":{"[BOS]":0,"[EOS]":1,"[UNK]":2,"[CLS]":3,"[SEP]":4,"[PAD]":5,"[MASK]":6,"!":7,"\"":8,"%":9,"(":10,")":11,"*":12,"+":13,",":14,"-":15,".":16,"/":17,"0":18,"1":19,"2":20,"3":21,"4":22,"5":23,"6":24,"7":25,"8":26,"9":27,":":28,";":29,"<":30,"=":31,">":32,"[":33,"]":34,"_":35,"a":36,"b":37,"c":38,"d":39,"e":40,"f":41,"g":42,"h":43,"i":44,"j":45,"k":46,"l":47,"m":48,"n":49,"o":50,"p":51,"q":52,"r":53,"s":54,"t":55,"u":56,"v":57,"w":58,"x":59,"y":60,"z":61,"|":62,"§":63,"«":64,"­":65,"°":66,"±":67,"²":68,"³":69,"º":70,"»":71,"¾":72,"×":73,"÷":74,"ƒ":75,"ơ":76,"˚":77,"̶":78,";":79,"δ":80,"π":81,"σ":82,"υ":83,"φ":84,"а":85,"б":86,"в":87,"г":88,"д":89,"е":90,"ж":91,"з":92,"и":93,"й":94,"к":95,"л":96,"м":97,"н":98,"о":99,"п":100,"р":101,"с":102,"т":103,"у":104,"ф":105,"х":106,"ц":107,"ч":108,"ш":109,"щ":110,"ъ":111,"ы":112,"ь":113,"э":114,"ю":115,"я":116,"ё":117,"ᶯ":118,"‒":119,"–":120,"—":121,"’":122,"…":123,"№":124,"∆":125,"−":126,"≈":127,"≤":128,"≥":129,"─":130,"▫":131,"":132,"":133,"":134,"":135,"":136,"ни":137,"ст":138,"ов":139,"но":140,"пр":141,"ны":142,"на":143,"ра":144,"ния":145,"по":146,"ре":147,"че":148,"го":149,"ме":150,"те":151,"ле":152,"ко":153,"ова":154,"об":155,"ки":156,"не":157,"од":158,"ка":159,"та":160,"за":161,"ль":162,"ли":163,"от":164,"ру":165,"ци":166,"де":167,"ти":168,"ма":169,"чес":170,"до":171,"ств":172,"при":173,"ля":174,"ние":175,"ро":176,"со":177,"ть":178,"из":179,"сти":180,"то":181,"ве":182,"ования":183,"щи":184,"про":185,"ных":186,"па":187,"ми":188,"ста":189,"чески":190,"ла":191,"тре":192,"ные":193,"сп":194,"да":195,"мо":196,"си":197,"ва":198,"же":199,"треб":200,"ло":201,"ной":202,"ри":203,"ного":204,"мен":205,"обо":206,"ции":207,"ус":208,"тех":209,"для":210,"зо":211,"тов":212,"дол":213,"ности":214,"во":215,"бо":216,"требования":217,"лов":218,"вы":219,"ем":220,"ры":221,"кон":222,"гост":223,"ся":224,"пре":225,"тель":226,"ще":227,"вод":228,"бе":229,"ний":230,"спо":231,"ек":232,"долж":233,"мет":234,"ви":235,"техни":236,"пе":237,"ку":238,"рова":239,"пас":240,"чи":241,"сто":242,"зна":243,"га":244,"ты":245,"оди":246,"раз":247,"нов":248,"20":249,"ческие":250,"жа":251,"значе":252,"сть":253,"се":254,"ная":255,"кт":256,"ен":257,"ча":258,"услов":259,"ров":260,"руд":261,"оборуд":262,"отве":263,"ди":264,"тств":265,"зопас":266,"стру":267,"ления":268,"сист":269,"каза":270,"пра":271,"безопас":272,"ный":273,"ответств":274,"нии":275,"стро":276,"лу":277,"ги":278,"эле":279,"бы":280,"проек":281,"ческо":282,"тся":283,"соответств":284,"ция":285,"ческих":286,"ос":287,"готов":288,"ду":289,"са":290,"указа":291,"должны":292,"мы":293,"струк":294,"нию":295,"ное":296,"ющи":297,"це":298,"ран":299,"защи":300,"йств":301,"безопасности":302,"под":303,"рас":304,"раб":305,"мати":306,"доку":307,"докумен":308,"изготов":309,"емы":310,"тери":311,"лен":312,"ор":313,"ком":314,"спе":315,"ту":316,"ин":317,"вер":318,"пол":319,"ным":320,"воз":321,"став":322,"тации":323,"лю":324,"ность":325,"оборудования":326,"методи":327,"ема":328,"или":329,"пред":330,"конструк":331,"ке":332,"обе":333,"быть":334,"ков":335,"уста":336,"ия":337,"эк":338,"бли":339,"зи":340,"нения":341,"элект":342,"10":343,"технические":344,"стоя":345,"обозначе":346,"тру":347,"нием":348,"пров":349,"табли":350,"фи":351,"жи":352,"испо":353,"пожа":354,"ства":355,"ер":356,"пере":357,"проекти":358,"ха":359,"еди":360,"пов":361,"работ":362,"ну":363,"итель":364,"произ":365,"су":366,"жде":367,"производ":368,"сре":369,"преде":370,"ется":371,"201":372,"кла":373,"спор":374,"гру":375,"щие":376,"обеспе":377,"лей":378,"выпол":379,"объ":380,"том":381,"установ":382,"он":383,"ше":384,"пожар":385,"фе":386,"матери":387,"материа":388,"клю":389,"ии":390,"жения":391,"рован":392,"прави":393,"тран":394,"ствен":395,"эксп":396,"сред":397,"ав":398,"ща":399,"луа":400,"эксплуа":401,"рабо":402,"ном":403,"фор":404,"кор":405,"сле":406,"сы":407,"пи":408,"система":409,"раль":410,"ши":411,"ться":412,"пле":413,"жен":414,"настоя":415,"юще":416,"неф":417,"логи":418,"электро":419,"пара":420,"твер":421,"общие":422,"200":423,"соответствии":424,"провод":425,"феде":426,"нор":427,"ня":428,"должна":429,"опреде":430,"ца":431,"испол":432,"насо":433,"мон":434,"емо":435,"пус":436,"ход":437,"мене":438,"дар":439,"ходи":440,"гла":441,"тив":442,"условия":443,"объек":444,"гра":445,"указания":446,"стан":447,"строитель":448,"транспор":449,"сте":450,"меще":451,"ными":452,"авто":453,"федераль":454,"дели":455,"тро":456,"промы":457,"спы":458,"прав":459,"испы":460,"действ":461,"постав":462,"ок":463,"проектирова":464,"испыта":465,"издели":466,"шлен":467,"твержде":468,"промышлен":469,"щих":470,"15":471,"ба":472,"цион":473,"правила":474,"необ":475,"компле":476,"кры":477,"контро":478,"завод":479,"сов":480,"необходи":481,"эксплуатации":482,"автомати":483,"устро":484,"утвержде":485,"устройств":486,"оду":487,"льные":488,"обозначения":489,"рования":490,"ческого":491,"изготовле":492,"защиты":493,"нные":494,"документации":495,"кабе":496,"ование":497,"ой":498,"ческой":499,"бло":500,"техно":501,"пера":502,"кли":503,"технологи":504,"соеди":505,"ите":506,"мот":507,"му":508,"стой":509,"основ":510,"возду":511,"методических":512,"таблица":513,").":514,"монта":515,"хра":516,"пу":517,"ющих":518,"пожарной":519,"зирован":520,"нение":521,"предус":522,"пор":523,"зов":524,"зации":525,"рак":526,"проду":527,"чения":528,"указаний":529,"тер":530,"тор":531,"льных":532,"ций":533,"00":534,"ак":535,"стандар":536,"рез":537,"меня":538,"парамет":539,"изме":540,"фика":541,"должен":542,"продук":543,"лки":544,"харак":545,"над":546,"системы":547,"назначе":548,"12":549,"овать":550,"ссы":551,"условного":552,"управ":553,"кой":554,"».":555,"сх":556,"нных":557,"тем":558,"йс":559,"трубо":560,"ет":561,"фз":562,"веде":563,"транспорти":564,"настоящих":565,"ых":566,"зда":567,"вать":568,"нали":569,"трубопровод":570,"слу":571,"разме":572,"обозначение":573,"опас":574,"элемен":575,"методические":576,"мм":577,"требованиям":578,"документа":579,"соб":580,"прот":581,"перату":582,"климати":583,"температу":584,"гре":585,"расче":586,"ссылки":587,"кту":588,"таблице":589,"пря":590,"обеспечи":591,"производствен":592,"ис":593,"точ":594,"помеще":595,"тт":596,"кото":597,"ющие":598,"проект":599,"приведе":600,"ческим":601,"управления":602,"поло":603,"так":604,"щая":605,"ые":606,"наль":607,"»,":608,"вания":609,"должно":610,"тр":611,"форма":612,"изготовите":613,"),":614,"клад":615,"мотре":616,"ются":617,"ление":618,"оборудование":619,"сейс":620,"пло":621,"ство":622,"теристи":623,"материалов":624,"льз":625,"характеристи":626,"необходимо":627,"ческий":628,"соответствовать":629,"нер":630,"предусмотре":631,"дав":632,"приме":633,"фу":634,"гу":635,"кв":636,"нти":637,"вли":638,"зем":639,"проектированию":640,"проти":641,"зора":642,"исполнения":643,"изготовлению":644,"али":645,"вз":646,"ключа":647,"следу":648,"кре":649,"использ":650,"сва":651,"зом":652,"ную":653,"гор":654,"ований":655,"лее":656,"прика":657,"сту":658,"изделия":659,"ющей":660,"условное":661,"поставке":662,"их":663,"чных":664,"стойко":665,"взры":666,"более":667,"метод":668,"сни":669,"пуска":670,"маль":671,"раба":672,"мент":673,"тя":674,"надзора":675,"ими":676,"требований":677,"среды":678,"ввод":679,"мак":680,"согла":681,"рабаты":682,"напря":683,"лы":684,"орга":685,"мета":686,"цию":687,"уче":688,"25":689,"пла":690,"18":691,"фа":692,"вре":693,"ществ":694,"соглас":695,"выполне":696,"объектов":697,"также":698,"транспортирова":699,"би":700,"приказом":701,"требованиями":702,"менее":703,"емых":704,"рабоче":705,"метал":706,"жение":707,"вне":708,"зированная":709,"чение":710,"конструкции":711,"ющего":712,"сиг":713,"шения":714,"ого":715,"испытания":716,"состав":717,"сси":718,"дру":719,"часть":720,"применя":721,"тора":722,"13":723,"закон":724,"промышленной":725,"каз":726,"рки":727,"воздуха":728,"действия":729,"типов":730,"вну":731,"нитель":732,"ружа":733,"регла":734,"ней":735,"технических":736,"цен":737,"опасных":738,"взрыво":739,"измере":740,"обла":741,"ом":742,"способ":743,"име":744,"органи":745,"прибо":746,"кая":747,"определя":748,"три":749,"труда":750,"окружа":751,"размеры":752,"работа":753,"ар":754,"рай":755,"комплек":756,"16":757,"все":758,"нк":759,"ору":760,"номи":761,"утвержденные":762,"14":763,"установки":764,"предусмотреть":765,"влива":766,"систем":767,"противо":768,"осу":769,"24":770,"газов":771,"ровка":772,"лот":773,"федеральный":774,"03":775,"уз":776,"ками":777,"снип":778,"согласно":779,"ша":780,"после":781,"ей":782,"льно":783,"учетом":784,"ух":785,"работы":786,"одер":787,"дак":788,"хране":789,"19":790,"акту":791,"защит":792,"определения":793,"методы":794,"осуществ":795,"сер":796,"документация":797,"рози":798,"емые":799,"строительства":800,"ализированная":801,"теля":802,"каче":803,"типа":804,"разработ":805,"регламент":806,"актуализированная":807,"редак":808,"проклад":809,"рф":810,"сейсмо":811,"ге":812,"нару":813,"стандартов":814,"редакция":815,"потреб":816,"мож":817,"нефте":818,"технический":819,"ческое":820,"коррози":821,"сейсмостойко":822,"соору":823,"щения":824,"груз":825,"ий":826,"содер":827,"части":828,"изо":829,"содержа":830,"други":831,"испытаний":832,"параметры":833,"режи":834,"дета":835,"возмож":836,"комплект":837,"ап":838,"цио":839,"положения":840,"30":841,"основные":842,"райо":843,"выполня":844,"фици":845,"нормы":846,"тия":847,"лан":848,"которы":849,"нить":850,"зави":851,"схема":852,"нного":853,"оп":854,"ск":855,"энер":856,"отде":857,"трен":858,"изготовителя":859,"исполнение":860,"род":861,"ют":862,"завода":863,"характеристики":864,"разде":865,"емой":866,"пора":867,"сторо":868,"внутрен":869,"обеспечения":870,"23":871,"осн":872,"изделий":873,"нормати":874,"2013":875,"устройства":876,"области":877,"меж":878,"прием":879,"деж":880,"грузо":881,"терми":882,"жений":883,"насоса":884,"станов":885,"конструкций":886,"вид":887,"уров":888,"льного":889,"проектирования":890,"хран":891,"газа":892,"номиналь":893,"повер":894,"дв":895,"пита":896,"тра":897,"диа":898,"плот":899,"информа":900,"телей":901,"нь":902,"кона":903,"пане":904,"вя":905,"регу":906,"85":907,"инструк":908,"устана":909,"кра":910,"нд":911,"сбо":912,"зазем":913,"примене":914,"объекта":915,");":916,"50":917,"ников":918,"продукции":919,"производственных":920,"марки":921,"зависи":922,"электри":923,"допуска":924,"иметь":925,"регули":926,"проце":927,"лением":928,"тип":929,"защита":930,"ному":931,"контроля":932,"зданий":933,"надеж":934,"огра":935,"тных":936,"заказ":937,"прило":938,"свар":939,"цией":940,"насос":941,"флан":942,"соответству":943,"распо":944,"вход":945,"соединения":946,"вл":947,"специ":948,"производства":949,"изоля":950,"приведены":951,"металли":952,"верси":953,"промышленности":954,"внеш":955,"торов":956,"ках":957,"термины":958,"гори":959,"условий":960,"элементов":961,"эксплуата":962,"шиф":963,"помещения":964,"носи":965,"чные":966,"ром":967,"наи":968,"процес":969,"росте":970,"конструкция":971,"меха":972,"проектной":973,"ростех":974,"яв":975,"низ":976,"наб":977,"покры":978,"рабочей":979,"параметров":980,"ющий":981,"норматив":982,"устанавлива":983,"них":984,"размеще":985,"стов":986,"предназначе":987,"мату":988,"венти":989,"ростехнадзора":990,"ких":991,"жением":992,"сн":993,"без":994,"установлен":995,"агре":996,"образ":997,"макси":998,"нное":999,"сро":1000,"температуры":1001,"труб":1002,"показа":1003,"технического":1004,"служи":1005,"жных":1006,"мас":1007,"армату":1008,"корпус":1009,"вентиля":1010,"опо":1011,"хо":1012,"необходимы":1013,"].":1014,"лем":1015,"тий":1016,"аппара":1017,"ат":1018,"реко":1019,"включа":1020,"ско":1021,"выполнить":1022,"рекомен":1023,"60":1024,"нефтя":1025,"нци":1026,"мощ":1027,"безопасность":1028,"его":1029,"тегори":1030,"категори":1031,"воздействия":1032,"льной":1033,"ческая":1034,"поверх":1035,"жда":1036,"вари":1037,"корпора":1038,"корпоратив":1039,"ника":1040,"тепло":1041,"выде":1042,"ря":1043,"кл":1044,"тока":1045,"проч":1046,"конструктив":1047,"рабатыва":1048,"хими":1049,"150":1050,"ющая":1051,"мости":1052,"функ":1053,"измерений":1054,"пли":1055,"сли":1056,"уплот":1057,"обслужи":1058,"материалы":1059,"пп":1060,"максималь":1061,"матри":1062,"откры":1063,"случа":1064,"обеспечивать":1065,"района":1066,"35":1067,"эф":1068,"нима":1069,"програ":1070,"федерального":1071,"чного":1072,"закона":1073,"тные":1074,"емого":1075,"насосов":1076,"22":1077,"коррозион":1078,"упа":1079,"част":1080,"грузов":1081,"тс":1082,"высо":1083,"зация":1084,"ток":1085,"между":1086,"чно":1087,"ыва":1088,"клас":1089,"выбо":1090,"устройство":1091,"шин":1092,"84":1093,"пер":1094,"2011":1095,"располо":1096,"нс":1097,"торс":1098,"значения":1099,"кд":1100,"досту":1101,"расшиф":1102,"конструкторс":1103,"транспортировании":1104,"расшифровка":1105,"агрега":1106,"98":1107,"нным":1108,"ресу":1109,"средств":1110,"грева":1111,"явля":1112,"ресур":1113,"контроль":1114,"окружающего":1115,"аб":1116,"ды":1117,"зада":1118,"приня":1119,"представ":1120,"упаков":1121,"фак":1122,"отклю":1123,"2015":1124,"климатических":1125,"мер":1126,"резер":1127,"него":1128,"сигнали":1129,"мя":1130,"прия":1131,"принима":1132,"ему":1133,"обеспече":1134,"обеспечива":1135,"мини":1136,"виде":1137,"постанов":1138,"стальные":1139,"вига":1140,"нефти":1141,"грузки":1142,"допускается":1143,"ниц":1144,"трубопроводов":1145,"сооружений":1146,"дли":1147,"овании":1148,"автоматизирован":1149,"разработки":1150,"соста":1151,"методическим":1152,"80":1153,"куп":1154,"изготовления":1155,"необходимые":1156,"уд":1157,"нера":1158,"одно":1159,"тельности":1160,"указаниям":1161,"ерме":1162,"использу":1163,"герме":1164,"фикация":1165,"здания":1166,"хранении":1167,"гермети":1168,"26":1169,"срабаты":1170,"101":1171,"хода":1172,"монтаже":1173,"срабатывания":1174,"решения":1175,"89":1176,"напряжения":1177,"кз":1178,"ностью":1179,"расс":1180,"жид":1181,"чень":1182,"перечень":1183,"нефтех":1184,"шту":1185,"присоеди":1186,"100":1187,"предусматри":1188,"коли":1189,"наимен":1190,"34":1191,"96":1192,"воды":1193,"установок":1194,"ие":1195,"рам":1196,"площа":1197,"эксплуатацион":1198,"нефтехими":1199,"расчета":1200,"проектировании":1201,"определяется":1202,"тп":1203,"стра":1204,"пери":1205,"транс":1206,"расчет":1207,"случае":1208,"хранения":1209,"качества":1210,"ить":1211,"нала":1212,"тели":1213,"пуэ":1214,"макро":1215,"наруж":1216,"нный":1217,"тол":1218,"газовой":1219,"деталей":1220,"нефтяной":1221,"чки":1222,"ровании":1223,"рабочи":1224,"помещений":1225,"ждения":1226,"применение":1227,"заказчи":1228,"мени":1229,"вой":1230,"монтаж":1231,"сейсмостойкости":1232,"силов":1233,"машин":1234,"газо":1235,"пусти":1236,"фикации":1237,"чить":1238,"разработа":1239,"форму":1240,"ттт":1241,"нса":1242,"следует":1243,"лены":1244,"габа":1245,"2012":1246,"класси":1247,"2003":1248,"габари":1249,"бу":1250,"тар":1251,"дачи":1252,"документы":1253,"действу":1254,"осуществля":1255,"40":1256,"щей":1257,"рование":1258,"оборудова":1259,"поря":1260,"где":1261,"нг":1262,"см":1263,"изготовитель":1264,"прове":1265,"зависимости":1266,"фланце":1267,"реше":1268,"блок":1269,"актив":1270,"рой":1271,"ющим":1272,"ms":1273,"общая":1274,"or":1275,"через":1276,"поставки":1277,"назначения":1278,"генера":1279,"ющ":1280,"средства":1281,"функцио":1282,"распор":1283,"ющими":1284,"размещения":1285,"нной":1286,"снаб":1287,"ремон":1288,"тельные":1289,"составе":1290,"15150":1291,"штуце":1292,"давление":1293,"ухл":1294,"версия":1295,"трансформа":1296,"йки":1297,"примеча":1298,"81":1299,"све":1300,"места":1301,"обра":1302,"материально":1303,"87":1304,"возможность":1305,"механи":1306,"17":1307,"тельства":1308,"стей":1309,"одного":1310,"перерабатыва":1311,"жидко":1312,"ее":1313,"госу":1314,"маши":1315,"государ":1316,"зж":1317,"нений":1318,"давления":1319,"защище":1320,"женного":1321,"зы":1322,"уни":1323,"овая":1324,"мос":1325,"жет":1326,"гаран":1327,"элементы":1328,"время":1329,"69":1330,"право":1331,"воздух":1332,"сейсми":1333,"ремонта":1334,"уль":1335,"льный":1336,"проведе":1337,"распоря":1338,"яза":1339,"обяза":1340,"линии":1341,"щим":1342,"сети":1343,"осве":1344,"креп":1345,"рекоменду":1346,"91":1347,"опера":1348,"стве":1349,"опор":1350,"коэф":1351,"обы":1352,"предо":1353,"проектиру":1354,"типового":1355,"количе":1356,"ним":1357,"лению":1358,"оболо":1359,"окружающей":1360,"надежности":1361,"государствен":1362,"вра":1363,"может":1364,"вода":1365,"110":1366,"вклю":1367,"ческими":1368,"выше":1369,"электрод":1370,"времени":1371,"транспортирование":1372,"объем":1373,"правил":1374,"строительных":1375,"фициен":1376,"диамет":1377,"атмос":1378,"коэффициен":1379,"33":1380,"ii":1381,"wor":1382,"уг":1383,"льная":1384,"паспор":1385,"назначение":1386,"выдер":1387,"примечание":1388,"охран":1389,"льным":1390,"допусти":1391,"применения":1392,"гов":1393,"форми":1394,"опоры":1395,"word":1396,"сво":1397,"свя":1398,"фек":1399,"оту":1400,"пове":1401,"вели":1402,"тельных":1403,"сово":1404,"плани":1405,"закры":1406,"панели":1407,"распреде":1408,"центр":1409,"приборы":1410,"основании":1411,"двух":1412,"включая":1413,"обслуживания":1414,"01":1415,"еме":1416,"рка":1417,"тного":1418,"нагрузки":1419,"рис":1420,"газ":1421,"ческом":1422,"подготов":1423,"емая":1424,"2014":1425,"приведена":1426,"составля":1427,"противопожарной":1428,"объектах":1429,"ип":1430,"тчи":1431,"жении":1432,"фаз":1433,"организации":1434,"потребите":1435,"совокуп":1436,"нная":1437,"док":1438,"росси":1439,"измене":1440,"сани":1441,"программ":1442,"пс":1443,"цве":1444,"состоя":1445,"ступе":1446,"приборов":1447,"формуле":1448,"27":1449,"гс":1450,"дова":1451,"юза":1452,"лез":1453,"тамо":1454,"выход":1455,"повы":1456,"норм":1457,"кабельных":1458,"которые":1459,"таможенного":1460,"союза":1461,"соответствия":1462,"подразде":1463,"вводные":1464,"нефтеперерабатыва":1465,"резерв":1466,"санитар":1467,"вп":1468,"ящи":1469,"мест":1470,"несу":1471,"серти":1472,"рные":1473,"кабелей":1474,"резуль":1475,"другие":1476,"гне":1477,"климатического":1478,"результа":1479,"рд":1480,"реси":1481,"ваку":1482,"документов":1483,"90":1484,"бов":1485,"пы":1486,"чер":1487,"коле":1488,"ото":1489,"требованиях":1490,"рованного":1491,"шип":1492,"информацион":1493,"минималь":1494,"электродвига":1495,"подшип":1496,"единая":1497,"инструкции":1498,"обязатель":1499,"рации":1500,"поли":1501,"линий":1502,"стальных":1503,"значение":1504,"79":1505,"тной":1506,"принци":1507,"консер":1508,"повре":1509,"строительные":1510,"измерения":1511,"глу":1512,"функциональ":1513,"посред":1514,"сохран":1515,"наличи":1516,"ник":1517,"тами":1518,"электрооборудование":1519,"других":1520,"сигнализации":1521,"консерва":1522,"54":1523,"требу":1524,"сигна":1525,"прокладки":1526,"помещениях":1527,"прочность":1528,"наименование":1529,"руков":1530,"допол":1531,"сор":1532,"вых":1533,"технической":1534,"установка":1535,"пление":1536,"применять":1537,"которых":1538,"11":1539,"лью":1540,"техническим":1541,"проектирование":1542,"площад":1543,"ресиве":1544,"зт":1545,"отк":1546,"транспортирования":1547,"поверхности":1548,"мэк":1549,"чу":1550,"шка":1551,"лом":1552,"чита":1553,"числе":1554,"воздейств":1555,"2002":1556,"охране":1557,"ски":1558,"настоящим":1559,"графи":1560,"теп":1561,"клапа":1562,"блока":1563,"хол":1564,"29":1565,"опове":1566,"эти":1567,"женер":1568,"стандарты":1569,"трубопровода":1570,"нане":1571,"инженер":1572,"доступ":1573,"факторов":1574,"75":1575,"сутств":1576,"бира":1577,"организация":1578,"сооружения":1579,"маркировка":1580,"распоряжением":1581,"лага":1582,"превы":1583,"вич":1584,"76":1585,"мтр":1586,"спис":1587,"противопожар":1588,"питания":1589,"герметич":1590,"йного":1591,"реле":1592,"целью":1593,"работки":1594,"обеспечение":1595,"бро":1596,"нося":1597,"мин":1598,"тельная":1599,"расстоя":1600,"режим":1601,"нными":1602,"сточ":1603,"обеспечить":1604,"толщи":1605,"сом":1606,"выбира":1607,"водо":1608,"энерго":1609,"нп":1610,"токов":1611,"материала":1612,"клима":1613,"изготовителем":1614,"давлением":1615,"дея":1616,"люде":1617,"источ":1618,"направ":1619,"рав":1620,"изменя":1621,"степе":1622,"утвержденных":1623,"дов":1624,"ую":1625,"2009":1626,"заводом":1627,"измери":1628,"информации":1629,"величи":1630,"гни":1631,"тика":1632,"исклю":1633,"горю":1634,"инструкция":1635,"превыша":1636,"эваку":1637,"каж":1638,"датчи":1639,"лока":1640,"ровать":1641,"деятельности":1642,"лле":1643,"стен":1644,"трех":1645,"желез":1646,"подклю":1647,"проводи":1648,"правительства":1649,"кабельные":1650,"покрытия":1651,"эвакуа":1652,"ввода":1653,"энерги":1654,"показателей":1655,"приятий":1656,"руковод":1657,"зе":1658,"сло":1659,"цов":1660,"тей":1661,"лест":1662,"обще":1663,"магни":1664,"производи":1665,"потребления":1666,"крепления":1667,"кров":1668,"продукция":1669,"нн":1670,"сэ":1671,"разли":1672,"ющее":1673,"воздуш":1674,"асн":1675,"месте":1676,"отсутств":1677,"единиц":1678,"коррозии":1679,"предусматривать":1680,"вла":1681,"обмот":1682,"кам":1683,"обогрева":1684,"технологического":1685,"монтажа":1686,"принять":1687,"потребителей":1688,"авари":1689,"кле":1690,"природ":1691,"техническом":1692,"климатическое":1693,"184":1694,"корпуса":1695,"эд":1696,"технологических":1697,"основания":1698,"заземления":1699,"корпоративного":1700,"зтсх":1701,"ниже":1702,"нанесе":1703,"если":1704,"приемо":1705,"прес":1706,"тельно":1707,"провер":1708,"федеральные":1709,"изменения":1710,"коэффициент":1711,"жд":1712,"иде":1713,"кп":1714,"эко":1715,"гота":1716,"изи":1717,"того":1718,"моза":1719,"тые":1720,"арматуры":1721,"рекомендуется":1722,"кро":1723,"собо":1724,"справо":1725,"чной":1726,"ъем":1727,"оде":1728,"патруб":1729,"перемен":1730,"изготовление":1731,"циони":1732,"маркиров":1733,"категории":1734,"конструкторской":1735,"санитарно":1736,"иденти":1737,"21":1738,"цы":1739,"этом":1740,"вого":1741,"частот":1742,"угле":1743,"дополнитель":1744,"ec":1745,"изгота":1746,"знаки":1747,"верх":1748,"2007":1749,"изготовлением":1750,"характер":1751,"узлов":1752,"центробе":1753,"мпа":1754,"запас":1755,"вести":1756,"гало":1757,"соответствие":1758,"федеральных":1759,"муф":1760,"регулировании":1761,"абз":1762,"две":1763,"там":1764,"автоматизации":1765,"акти":1766,"123":1767,"носится":1768,"рассчита":1769,"разработаны":1770,"анти":1771,"вза":1772,"выполняться":1773,"сварные":1774,"нства":1775,"рованием":1776,"99":1777,"кг":1778,"нах":1779,"рами":1780,"тори":1781,"напряжение":1782,"типовые":1783,"персо":1784,"нда":1785,"релей":1786,"чек":1787,"струи":1788,"экра":1789,"единства":1790,"пример":1791,"ящих":1792,"конструи":1793,"пиа":1794,"ресурсы":1795,"взаи":1796,"сь":1797,"тек":1798,"оби":1799,"бол":1800,"защиту":1801,"центра":1802,"95":1803,"специа":1804,"600":1805,"бм":1806,"непосред":1807,"изве":1808,"емый":1809,"инстру":1810,"взрывозащище":1811,"срок":1812,"нциа":1813,"непосредствен":1814,"асу":1815,"уте":1816,"цнс":1817,"тельного":1818,"графу":1819,"детали":1820,"вносится":1821,"уго":1822,"теле":1823,"тельной":1824,"всех":1825,"приемки":1826,"изоляции":1827,"97":1828,"иных":1829,"ох":1830,"структу":1831,"стройки":1832,"ленных":1833,"ждений":1834,"основных":1835,"применяться":1836,"выполнять":1837,"списков":1838,"изготавлива":1839,"кф":1840,"много":1841,"св":1842,"тз":1843,"поз":1844,"кат":1845,"бора":1846,"компрес":1847,"пожароту":1848,"электроснаб":1849,"продуктов":1850,"прямо":1851,"фунда":1852,"против":1853,"версий":1854,"оболоч":1855,"подготовки":1856,"шен":1857,"ях":1858,"сты":1859,"гид":1860,"предостав":1861,"рь":1862,"меры":1863,"сосу":1864,"изда":1865,"избы":1866,"кую":1867,"значений":1868,"комму":1869,"химической":1870,"энергии":1871,"кфк":1872,"моду":1873,"физи":1874,"гие":1875,"комплекс":1876,"уровня":1877,"панелей":1878,"исо":1879,"тво":1880,"отоп":1881,"даточ":1882,"обезопас":1883,"температур":1884,"сборо":1885,"нефтехимической":1886,"рабочих":1887,"ан":1888,"бнг":1889,"режима":1890,"номер":1891,"относи":1892,"паке":1893,"данных":1894,"риф":1895,"свойств":1896,"совокупности":1897,"охла":1898,"мов":1899,"сек":1900,"устой":1901,"гос":1902,"разгрузо":1903,"процесса":1904,"постановлением":1905,"устойчи":1906,"огне":1907,"боль":1908,"2016":1909,"трубопроводы":1910,"служ":1911,"взрывоопасных":1912,"последова":1913,"режиме":1914,"отдель":1915,"металлические":1916,"корпоративный":1917,"местах":1918,"справоч":1919,"iec":1920,"моде":1921,"выключа":1922,"гигие":1923,"передачи":1924,"выполнения":1925,"блоки":1926,"конструктивные":1927,"количество":1928,"нефтеперерабатывающей":1929,"вс":1930,"погрузо":1931,"отхода":1932,"тических":1933,"привод":1934,"проекта":1935,"условиях":1936,"температуре":1937,"содержанию":1938,"приложения":1939,"изоляцией":1940,"инструмен":1941,"обмен":1942,"ответствен":1943,"ндвич":1944,"агрегата":1945,"удг":1946,"российс":1947,"каждо":1948,"сэндвич":1949,"53":1950,"65":1951,"оз":1952,"одо":1953,"стали":1954,"данные":1955,"настоящей":1956,"атмосфе":1957,"текстов":1958,"погрузочно":1959,"384":1960,"77":1961,"вн":1962,"ргс":1963,"торы":1964,"предприятий":1965,"сейсмостойкость":1966,"заказной":1967,"конструкторская":1968,"связи":1969,"консервации":1970,"носят":1971,"извеща":1972,"нические":1973,"год":1974,"течение":1975,"сопротив":1976,"читы":1977,"выполнение":1978,"огражда":1979,"насосного":1980,"машины":1981,"проведения":1982,"избыточ":1983,"опи":1984,"технадзора":1985,"распро":1986,"гортехнадзора":1987,"вяз":1988,"порядок":1989,"госгортехнадзора":1990,"полу":1991,"запол":1992,"ограни":1993,"превышать":1994,"сме":1995,"эта":1996,"автоматика":1997,"резь":1998,"осуществлению":1999,"внешней":2000,"вентиляции":2001,"221":2002,"гигиенические":2003,"70":2004,"кру":2005,"спла":2006,"стропов":2007,"филь":2008,"автом":2009,"поставля":2010,"ционной":2011,"арматура":2012,"гаранти":2013,"конструированием":2014,"сой":2015,"той":2016,"ваться":2017,"щего":2018,"соединитель":2019,"механиз":2020,"активных":2021,"распредели":2022,"жные":2023,"ию":2024,"ники":2025,"стран":2026,"мере":2027,"изон":2028,"разбо":2029,"трубы":2030,"груп":2031,"федерации":2032,"кабеля":2033,"горизон":2034,"приложение":2035,"покрыти":2036,"фланцев":2037,"ящики":2038,"российской":2039,"автомоби":2040,"46":2041,"ое":2042,"лах":2043,"бытов":2044,"компо":2045,"использова":2046,"фай":2047,"комплектации":2048,"мощности":2049,"эксплуатационных":2050,"3325":2051,"издание":2052,"службы":2053,"отходах":2054,"дре":2055,"доро":2056,"щение":2057,"ень":2058,"санп":2059,"экспе":2060,"исполне":2061,"соединений":2062,"уровень":2063,"открытом":2064,"подшипников":2065,"влаж":2066,"пожаротушения":2067,"санпин":2068,"добы":2069,"участ":2070,"ять":2071,"лько":2072,"мол":2073,"рису":2074,"пуск":2075,"выполнена":2076,"заказчиком":2077,"изменений":2078,"крас":2079,"ован":2080,"дости":2081,"настоящие":2082,"крепе":2083,"внесе":2084,"качестве":2085,"массой":2086,"постоя":2087,"щик":2088,"емко":2089,"водос":2090,"производство":2091,"проектных":2092,"рабочее":2093,"металло":2094,"сторон":2095,"обеспечению":2096,"принципы":2097,"персонала":2098,"ip":2099,"сдаточ":2100,"ым":2101,"мыка":2102,"нормативная":2103,"классификация":2104,"людей":2105,"водоснаб":2106,"010":2107,"кк":2108,"ска":2109,"пода":2110,"реали":2111,"листа":2112,"вание":2113,"конди":2114,"виду":2115,"пожаро":2116,"условиям":2117,"организа":2118,"прочности":2119,"антикоррозион":2120,"горизонта":2121,"нц":2122,"напор":2123,"запор":2124,"льное":2125,"руч":2126,"вировать":2127,"вертика":2128,"габаритные":2129,"решений":2130,"вращения":2131,"оповещения":2132,"отопления":2133,"вств":2134,"продо":2135,"нами":2136,"челов":2137,"капита":2138,"приспособ":2139,"лами":2140,"упаковка":2141,"чувств":2142,"теплов":2143,"(«":2144,"бпи":2145,"щий":2146,"вые":2147,"электроустановок":2148,"собствен":2149,"ющиеся":2150,"внутри":2151,"выбор":2152,"период":2153,"проектируемых":2154,"чувствитель":2155,"гло":2156,"ур":2157,"рения":2158,"независи":2159,"лиц":2160,"дер":2161,"водор":2162,"форме":2163,"которо":2164,"нефтепродуктов":2165,"типы":2166,"представля":2167,"жидкости":2168,"ннвп":2169,"собой":2170,"озз":2171,"оспособ":2172,"уда":2173,"никами":2174,"месторо":2175,"как":2176,"листов":2177,"доста":2178,"системе":2179,"работоспособ":2180,"теплообмен":2181,"програм":2182,"автоматизированные":2183,"ресиверов":2184,"горючи":2185,"компрессор":2186,"описа":2187,"ву":2188,"шриф":2189,"яче":2190,"нам":2191,"либо":2192,"мость":2193,"тых":2194,"ционные":2195,"опасности":2196,"факе":2197,"казыва":2198,"комплекта":2199,"воздухе":2200,"нцдв":2201,"*.":2202,"88":2203,"анали":2204,"ских":2205,"кипиа":2206,"выпуска":2207,"техническая":2208,"возможности":2209,"видов":2210,"номинальное":2211,"постановки":2212,"поряд":2213,"непосредственно":2214,"электроснабжения":2215,"шрифтом":2216,"500":2217,"78":2218,"мых":2219,"тур":2220,"пожарная":2221,"твержда":2222,"кондициони":2223,"эс":2224,"лении":2225,"зам":2226,"короб":2227,"емости":2228,"следующие":2229,"энерге":2230,"электродвигателя":2231,"ью":2232,"зоне":2233,"чис":2234,"конструктора":2235,"провода":2236,"использования":2237,"номинальный":2238,"макросов":2239,"диаметр":2240,"выдерж":2241,"галочек":2242,"активировать":2243,"файл":2244,"добычи":2245,"аво":2246,"устав":2247,"умере":2248,"место":2249,"дах":2250,"конкре":2251,"тельный":2252,"метри":2253,"жил":2254,"ционных":2255,"комплекту":2256,"856":2257,"лестниц":2258,"04":2259,"цв":2260,"эцв":2261,"ческую":2262,"зоны":2263,"нужд":2264,"объеди":2265,"насосы":2266,"контрольно":2267,"технологической":2268,"необходимости":2269,"внутренней":2270,"регулиру":2271,"доступа":2272,"классифика":2273,"116":2274,"очи":2275,"ким":2276,"одной":2277,"ката":2278,"только":2279,"ково":2280,"пожаре":2281,"электромагни":2282,"защитного":2283,"мозаменя":2284,"взаимозаменя":2285,"300":2286,"пт":2287,"шу":2288,"пада":2289,"чива":2290,"едини":2291,"рованные":2292,"продукцию":2293,"стойкости":2294,"кращения":2295,"приятия":2296,"ющему":2297,"штуцер":2298,"унифици":2299,"отсутствии":2300,"аварий":2301,"фундамен":2302,"взаимозаменяемости":2303,"is":2304,"мтз":2305,"плю":2306,"могу":2307,"частей":2308,"схемы":2309,"производственной":2310,"представлены":2311,"сертифика":2312,"экологи":2313,"сборочных":2314,"могут":2315,"отвер":2316,"электротехнические":2317,"производственно":2318,"грузок":2319,"отключение":2320,"гарантий":2321,"рти":2322,"фер":2323,"замыка":2324,"дефек":2325,"материал":2326,"уплотнения":2327,"выдержи":2328,"различных":2329,"углеводор":2330,"взрывозащищенное":2331,"око":2332,"рных":2333,"поте":2334,"телем":2335,"карка":2336,"сокращения":2337,"топли":2338,"сери":2339,"зип":2340,"стандарти":2341,"стороны":2342,"срока":2343,"класса":2344,"классу":2345,"ющую":2346,"освещения":2347,"рассчитаны":2348,"входи":2349,"выс":2350,"инвести":2351,"ждение":2352,"групп":2353,"ходя":2354,"иск":2355,"разработке":2356,"виды":2357,"соответствует":2358,"установленных":2359,"эффек":2360,"присоединитель":2361,"генератора":2362,"отверсти":2363,"учиты":2364,"чё":2365,"меро":2366,"рово":2367,"перека":2368,"промышленных":2369,"устройству":2370,"коррозионно":2371,"двери":2372,"им":2373,"кого":2374,"прокат":2375,"интер":2376,"проводников":2377,"проектная":2378,"аппараты":2379,"вариан":2380,"повышения":2381,"производиться":2382,"коммуника":2383,"энергети":2384,"плюс":2385,"мера":2386,"фик":2387,"2004":2388,"горяче":2389,"химических":2390,"расположен":2391,"являются":2392,"цвета":2393,"пожароопасных":2394,"стандартизации":2395,"указыва":2396,"стер":2397,"линия":2398,"сечения":2399,"подбора":2400,"систему":2401,"узла":2402,"сейсмостойкое":2403,"приемка":2404,"требуется":2405,"последовательности":2406,"достаточ":2407,"330":2408,"иб":2409,"тная":2410,"ниж":2411,"обнару":2412,"заглу":2413,"виж":2414,"станция":2415,"технологические":2416,"использовать":2417,"сроки":2418,"клемм":2419,"выдерживать":2420,"рото":2421,"ый":2422,"канали":2423,"вить":2424,"техническое":2425,"работниками":2426,"производств":2427,"тивности":2428,"транспортных":2429,"блочно":2430,"которой":2431,"внутренние":2432,"60079":2433,"утепли":2434,"pn":2435,"ана":2436,"сного":2437,"лежа":2438,"нее":2439,"линд":2440,"цилинд":2441,"ленной":2442,"шири":2443,"базе":2444,"автоматизированная":2445,"следующих":2446,"выполнены":2447,"газовых":2448,"032":2449,"сбора":2450,"присоединя":2451,"паспорт":2452,"подключения":2453,"потенциа":2454,"ген":2455,"сса":2456,"мести":2457,"зако":2458,"лях":2459,"вен":2460,"паров":2461,"подтвержда":2462,"норма":2463,"основной":2464,"климатические":2465,"опти":2466,"металлических":2467,"решениям":2468,"унификации":2469,"информационная":2470,"молние":2471,"приспособления":2472,"классификатор":2473,"74":2474,"опро":2475,"уа":2476,"пола":2477,"лек":2478,"нем":2479,"тах":2480,"цикла":2481,"марка":2482,"виб":2483,"строен":2484,"рованных":2485,"блоков":2486,"фикацию":2487,"налива":2488,"сква":2489,"отдел":2490,"используемая":2491,"оборудованию":2492,"отопление":2493,"величина":2494,"глосса":2495,"работоспособность":2496,"очист":2497,"глоссари":2498,"67":2499,"94":2500,"мп":2501,"рах":2502,"услу":2503,"сам":2504,"подъем":2505,"инди":2506,"проектиров":2507,"объекты":2508,"крепление":2509,"определяют":2510,"атте":2511,"шкаф":2512,"iso":2513,"ибп":2514,".),":2515,"55":2516,"зу":2517,"тэ":2518,"данного":2519,"тельное":2520,"таблич":2521,"транспорта":2522,"трубопроводная":2523,"13330":2524,"образова":2525,"заказчика":2526,"07":2527,"32":2528,"64":2529,"ад":2530,"чным":2531,"проб":2532,"нагрузок":2533,"профи":2534,"осна":2535,"утвержденным":2536,"положение":2537,"взрывопожароопасных":2538,"фланцы":2539,"нормативные":2540,"рекоменда":2541,"осуществляться":2542,"инженерно":2543,"степени":2544,"измерительные":2545,"глоссария":2546,"нтов":2547,"това":2548,"ят":2549,"кот":2550,"конце":2551,"разре":2552,"таблички":2553,"установить":2554,"2008":2555,"строительного":2556,"ством":2557,"осуществления":2558,"надежность":2559,"внешних":2560,"отключения":2561,"атмосфер":2562,"состояния":2563,"уэ":2564,"ём":2565,"настро":2566,"привода":2567,"соуэ":2568,"термо":2569,"напряжением":2570,"прокладка":2571,"конапор":2572,"принимать":2573,"оборудованием":2574,"механических":2575,"наличие":2576,"наличии":2577,"площадки":2578,"капитального":2579,"внов":2580,"вобезопас":2581,"двига":2582,"вида":2583,"защите":2584,"102":2585,"труба":2586,"станций":2587,"помещении":2588,"узл":2589,"прокладке":2590,"районов":2591,"применением":2592,"устанавливают":2593,"показатели":2594,"автоматизированных":2595,"силового":2596,"впн":2597,"природного":2598,"водоснабжения":2599,"порядке":2600,"вновь":2601,"02":2602,"05":2603,"31":2604,"315":2605,"шки":2606,"кип":2607,"пригод":2608,"енно":2609,"емое":2610,"основе":2611,"характеристика":2612,"времен":2613,"узе":2614,"заземля":2615,"воздействии":2616,"степень":2617,"относительная":2618,"дних":2619,"погру":2620,"меся":2621,"вается":2622,"мень":2623,"указаниях":2624,"исключа":2625,"точности":2626,"регулирования":2627,"скоро":2628,"допустимо":2629,"ступени":2630,"колеба":2631,"герметичность":2632,"сдаточные":2633,"человек":2634,"жности":2635,"чр":2636,"поста":2637,"тили":2638,"рологи":2639,"вос":2640,"конде":2641,"транспортом":2642,"автоматические":2643,"расчеты":2644,"взрывобезопас":2645,"мощность":2646,"кровли":2647,"релейная":2648,"болтов":2649,"прямоуго":2650,"33259":2651,"чувствительности":2652,"зя":2653,"кло":2654,"ской":2655,"догов":2656,"метрологи":2657,"предот":2658,"шение":2659,"эксплуатацию":2660,"уплотнитель":2661,"трансформатора":2662,"фазного":2663,"несущая":2664,"сохранность":2665,"использованием":2666,"рисун":2667,"конденса":2668,"41":2669,"уточ":2670,"чными":2671,"подачи":2672,"цинк":2673,"знак":2674,"сей":2675,"сау":2676,"производить":2677,"2017":2678,"нормаль":2679,"сваро":2680,"130":2681,"вентиляция":2682,"сигнальные":2683,"оцен":2684,"утили":2685,"помощ":2686,"чением":2687,"несейсмостойкое":2688,"инте":2689,"переработки":2690,"заводе":2691,"технология":2692,"хранение":2693,"элемент":2694,"выполнением":2695,"электрической":2696,"сварных":2697,"спецификация":2698,"аппаратов":2699,"является":2700,"составляет":2701,"стенки":2702,"разгрузочных":2703,"ответственность":2704,"внтп":2705,"влажность":2706,"помощью":2707,"вов":2708,"окон":2709,"рт":2710,"нагрева":2711,"кана":2712,"стака":2713,"стати":2714,"ритори":2715,"защища":2716,"территори":2717,"изготовителе":2718,"изоли":2719,"располага":2720,"хозя":2721,"охранной":2722,"результатов":2723,"противопожарного":2724,"избыточным":2725,"распростран":2726,"коволь":2727,"сауиз":2728,"хозяйств":2729,"распространя":2730,"36":2731,"асп":2732,"рези":2733,"горе":2734,"сетей":2735,"подлежа":2736,"емом":2737,"утверждении":2738,"стойки":2739,"город":2740,"выполненная":2741,"отдельных":2742,"дву":2743,"заземление":2744,"электрических":2745,"категория":2746,"формирования":2747,"климата":2748,"изготавливающая":2749,"гидра":2750,"предоставления":2751,"инвестиционной":2752,"альные":2753,"встроен":2754,"ик":2755,"охра":2756,"рку":2757,"ыми":2758,"созда":2759,"тье":2760,"само":2761,"компе":2762,"работу":2763,"192":2764,"спецификацию":2765,"россии":2766,"датчиков":2767,"месторождений":2768,"вки":2769,"вных":2770,"ения":2771,"пв":2772,"ради":2773,"мел":2774,"дом":2775,"изы":2776,"вым":2777,"перекры":2778,"единые":2779,"рованной":2780,"совмести":2781,"автоматики":2782,"технологическая":2783,"следующему":2784,"250":2785,"область":2786,"24856":2787,"сколь":2788,"обеспечении":2789,"сохранять":2790,"муфты":2791,"огнестойкости":2792,"больше":2793,"справочника":2794,"достига":2795,"опросного":2796,"аген":2797,"трас":2798,"ывать":2799,"эстака":2800,"коп":2801,"козы":2802,"лако":2803,"ровых":2804,"средах":2805,"широ":2806,"1297":2807,"взрывоопас":2808,"1425":2809,"районах":2810,"ресурсам":2811,"сигнализация":2812,"операций":2813,"повышен":2814,"сертификации":2815,"ские":2816,"графические":2817,"изменяемые":2818,"кпг":2819,"частоты":2820,"текстовые":2821,"красным":2822,"изыска":2823,"12971":2824,"кс":2825,"ост":2826,"чт":2827,"ница":2828,"нес":2829,"относят":2830,"ству":2831,"ваются":2832,"метра":2833,"разви":2834,"целей":2835,"поддер":2836,"подклассу":2837,"переда":2838,"нуле":2839,"пожарный":2840,"ственное":2841,"ционный":2842,"применяемые":2843,"комплектность":2844,"ского":2845,"безопасностью":2846,"поверхно":2847,"отключить":2848,"составлять":2849,"переменные":2850,"эксперти":2851,"31565":2852,"нт":2853,"ср":2854,"сбро":2855,"щему":2856,"ятся":2857,"льников":2858,"тон":2859,"вес":2860,"указаны":2861,"предпо":2862,"авр":2863,"определение":2864,"крепле":2865,"3024":2866,"процессов":2867,"проверка":2868,"поздних":2869,"постоянного":2870,"описания":2871,"кондиционирование":2872,"подтверждаться":2873,"93":2874,"dn":2875,"устра":2876,"нагруз":2877,"льными":2878,"линей":2879,"проход":2880,"пар":2881,"жены":2882,"куму":2883,"условию":2884,"цепи":2885,"1000":2886,"перед":2887,"установку":2888,"фере":2889,"электроэнергии":2890,"строительство":2891,"технологическим":2892,"сбор":2893,"силовых":2894,"повреждения":2895,"характерных":2896,"группы":2897,"ротора":2898,"очистки":2899,"мелко":2900,"гну":2901,"ква":2902,"ологи":2903,"сма":2904,"чем":2905,"гоф":2906,"призна":2907,"техники":2908,"стои":2909,"емыми":2910,"перевоз":2911,"среде":2912,"технологическими":2913,"защитные":2914,"красо":2915,"класс":2916,"агрегатов":2917,"макроклиматического":2918,"освещение":2919,"нефтеперерабатывающих":2920,"черте":2921,"охлаждения":2922,"дрена":2923,"организаций":2924,"независимо":2925,"экологической":2926,"серийного":2927,"догово":2928,"14254":2929,"чтобы":2930,"»;":2931,"эм":2932,"нок":2933,"преры":2934,"пожара":2935,"производитель":2936,"формы":2937,"аккуму":2938,"учета":2939,"содержат":2940,"нормативы":2941,"ряд":2942,"государственная":2943,"расстояние":2944,"сопротивление":2945,"группе":2946,"единичного":2947,"лакокрасо":2948,"мелкосерийного":2949,"28":2950,"39":2951,"ас":2952,"жного":2953,"тки":2954,"тков":2955,"коль":2956,"отно":2957,"маги":2958,"рых":2959,"преду":2960,"указанием":2961,"подтвержде":2962,"питье":2963,"изделие":2964,"управление":2965,"проектным":2966,"пласти":2967,"испытаниям":2968,"регламен":2969,"1650":2970,"телями":2971,"диапа":2972,"низковоль":2973,"формировании":2974,"исключить":2975,"железобе":2976,"устойчиво":2977,"отдельности":2978,"ограждающих":2979,"интерфе":2980,"двер":2981,"км":2982,"тным":2983,"напо":2984,"отстройки":2985,"даты":2986,"ческому":2987,"кому":2988,"ших":2989,"проводов":2990,"определенных":2991,"контрольные":2992,"контролле":2993,"кабели":2994,"торце":2995,"рабочего":2996,"процессе":2997,"включать":2998,"категорией":2999,"высоте":3000,"расположение":3001,"длительного":3002,"нефтехимических":3003,"периоди":3004,"наружного":3005,"холод":3006,"минус":3007,"автомобильным":3008,"энергетической":3009,"аттеста":3010,"колебания":3011,"виз":3012,"вспо":3013,"жин":3014,"иные":3015,"они":3016,"шпи":3017,"стре":3018,"нода":3019,"нагне":3020,"ребо":3021,"мед":3022,"каса":3023,"цистер":3024,"топригод":3025,"миру":3026,"мога":3027,"беспе":3028,"разру":3029,"153":3030,"ционного":3031,"заводской":3032,"автоматического":3033,"кабельной":3034,"блочного":3035,"стороне":3036,"внутреннего":3037,"приложений":3038,"ремонтопригод":3039,"государственные":3040,"позво":3041,"гидро":3042,"сосуды":3043,"законода":3044,"аккумуля":3045,"вспомога":3046,"нагнета":3047,"бесперебо":3048,"рной":3049,"свыше":3050,"швы":3051,"пози":3052,"негорючи":3053,"вол":3054,"преобразова":3055,"компри":3056,"электропередачи":3057,"окра":3058,"протоко":3059,"таблицей":3060,"транспортированию":3061,"аппарат":3062,"генератор":3063,"оболочки":3064,"планирово":3065,"цветов":3066,"функциональный":3067,"холодного":3068,"покрытием":3069,"ованности":3070,"лестницы":3071,"унифицированного":3072,"дефектов":3073,"индивиду":3074,"взрывобезопасности":3075,"достигать":3076,"позволя":3077,"45":3078,"56":3079,"есте":3080,"траль":3081,"нача":3082,"лена":3083,"зажи":3084,"ровые":3085,"переход":3086,"настоящего":3087,"балан":3088,"монтажных":3089,"пунк":3090,"температура":3091,"котором":3092,"тяже":3093,"апс":3094,"231":3095,"обществен":3096,"своб":3097,"гарантии":3098,"соединительных":3099,"разборные":3100,"аналитических":3101,"развития":3102,"ачр":3103,"др":3104,"уси":3105,"присоединения":3106,"жению":3107,"вычи":3108,"сетя":3109,"указанных":3110,"перегород":3111,"средство":3112,"базов":3113,"утвержденное":3114,"надё":3115,"свай":3116,"разработку":3117,"номинальной":3118,"номинальная":3119,"соответствующих":3120,"слива":3121,"удоб":3122,"расчетами":3123,"сейсмических":3124,"планирования":3125,"эвакуацией":3126,"канализации":3127,"комприми":3128,"вычисли":3129,"012":3130,"рания":3131,"обработки":3132,"таких":3133,"закуп":3134,"загаз":3135,"льном":3136,"лям":3137,"один":3138,"сырь":3139,"поставщик":3140,"характеристик":3141,"узлы":3142,"эксплуатационные":3143,"выбирается":3144,"атмосферы":3145,"выпускаемой":3146,"уставки":3147,"гарантийный":3148,"молниезащиты":3149,"котл":3150,"охраны":3151,"касающиеся":3152,"индивидуа":3153,"жной":3154,"офици":3155,"рот":3156,"чности":3157,"чное":3158,"реги":3159,"заме":3160,"старения":3161,"жест":3162,"зон":3163,"ровки":3164,"цев":3165,"корот":3166,"электрооборудования":3167,"документацией":3168,"типовой":3169,"устанавливающие":3170,"предназначены":3171,"выборе":3172,"штуцеров":3173,"трансформатор":3174,"доступные":3175,"производится":3176,"кругу":3177,"исполнению":3178,"высот":3179,"совместимость":3180,"широкому":3181,"загазованности":3182,"официальные":3183,")-":3184,"бя":3185,"гран":3186,"дни":3187,"рэ":3188,"овле":3189,"погруз":3190,"лений":3191,"неразборные":3192,"заклю":3193,"дере":3194,"тие":3195,"себя":3196,"дистан":3197,"полы":3198,"ковой":3199,"пись":3200,"стены":3201,"расчетом":3202,"напряжений":3203,"внутренних":3204,"краны":3205,"обслужива":3206,"удовле":3207,"используется":3208,"рабочие":3209,"программное":3210,"оповеща":3211,"патрубки":3212,"предупре":3213,"бесперебойного":3214,"надёжности":3215,"сырья":3216,"удовлетво":3217,"зова":3218,"склад":3219,"свиде":3220,"чная":3221,"чном":3222,"ями":3223,"лет":3224,"непреры":3225,"роз":3226,"тором":3227,"вая":3228,"контей":3229,"метка":3230,"чительно":3231,"сеть":3232,"подвод":3233,"подвер":3234,"производственное":3235,"нальная":3236,"характеристикам":3237,"вред":3238,"защитных":3239,"телям":3240,"агресси":3241,"уплотнений":3242,"повреждений":3243,"откло":3244,"обогревателей":3245,"идентификация":3246,"ручную":3247,"умеренного":3248,"учитывать":3249,"мероприятия":3250,"перекачива":3251,"прямоугольные":3252,"компенса":3253,"агентов":3254,"железобето":3255,".).":3256,"390":3257,"зву":3258,"ником":3259,"потол":3260,"током":3261,"вок":3262,"отвеча":3263,"расход":3264,"женных":3265,"емому":3266,"соединение":3267,"здание":3268,"вливать":3269,"типовых":3270,"160":3271,"насосных":3272,"расположения":3273,"заданное":3274,"наружной":3275,"совокупность":3276,"центробежных":3277,"реализации":3278,"искус":3279,"утеплителя":3280,"узел":3281,"рисунке":3282,"деревя":3283,"дня":3284,"кри":3285,"край":3286,"кнс":3287,"что":3288,"кож":3289,"зацию":3290,"отвод":3291,"данным":3292,"вала":3293,"диф":3294,"цеп":3295,"емым":3296,"комби":3297,"обозначении":3298,"помещение":3299,"снижения":3300,"другим":3301,"выполняется":3302,"входной":3303,"процессом":3304,"обслуживание":3305,"включительно":3306,"запасные":3307,"релейной":3308,"всем":3309,"атмосфере":3310,"компоне":3311,"углеводородного":3312,"атмосферного":3313,"смаз":3314,"вто":3315,"гр":3316,"шитель":3317,"это":3318,"чей":3319,"гайки":3320,"условном":3321,"осмот":3322,"2000":3323,"окна":3324,"бал":3325,"элемента":3326,"работающих":3327,"арх":3328,"апв":3329,"размещение":3330,"корпусе":3331,"нефтяных":3332,"ряда":3333,"принимается":3334,"рассматри":3335,"347":3336,"34347":3337,"экономи":3338,"модулей":3339,"фильт":3340,"территории":3341,"предполага":3342,"23118":3343,"вручную":3344,"ием":3345,"оцинк":3346,"тное":3347,"фо":3348,"хро":3349,"затво":3350,"руемых":3351,"проф":3352,"риди":3353,"менные":3354,"документ":3355,"живания":3356,"щается":3357,"паралле":3358,"2001":3359,"строительная":3360,"путем":3361,"сигнальная":3362,"14192":3363,"236":3364,"аппарату":3365,"выделены":3366,"максимальной":3367,"нефтехимии":3368,"равни":3369,"воздушных":3370,"оболочками":3371,"инструменты":3372,"козырь":3373,"договора":3374,"интерфей":3375,"ремонтопригодности":3376,"оцинкова":3377,"on":3378,"гности":3379,"йка":3380,"шлей":3381,"юриди":3382,"страль":3383,"обвяз":3384,"приточ":3385,"веще":3386,"разметка":3387,"селек":3388,"чая":3389,"груза":3390,"шей":3391,"форм":3392,"монти":3393,"тивно":3394,"станции":3395,"правилами":3396,"порш":3397,"торцов":3398,"размеров":3399,"арм":3400,"содержание":3401,"фланца":3402,"мощностью":3403,"высота":3404,"резерви":3405,"монтажу":3406,"осуществляется":3407,"решение":3408,"активной":3409,"предохра":3410,"допустимых":3411,"планирование":3412,"клапан":3413,"проводить":3414,"емкост":3415,"конкретного":3416,"электромагнитная":3417,"присоединительные":3418,"анало":3419,"магистраль":3420,"визуа":3421,"удовлетворя":3422,"326":3423,"скла":3424,"тный":3425,"удар":3426,"нодоро":3427,"тологи":3428,"ваго":3429,"контак":3430,"ответных":3431,"самоза":3432,"ленные":3433,"ленты":3434,"прово":3435,"жить":3436,"пределах":3437,"автоном":3438,"размер":3439,"наружных":3440,"электрические":3441,"эксплуатационная":3442,"свети":3443,"выбираются":3444,"климатологи":3445,"железнодоро":3446,"единицы":3447,"свойства":3448,"разгрузочные":3449,"компонов":3450,"которого":3451,"комплектующих":3452,"каркаса":3453,"фикси":3454,"трубах":3455,"восстанов":3456,"23660":3457,".)":3458,"400":3459,"92":3460,"нности":3461,"пн":3462,"утра":3463,"чет":3464,"лег":3465,"оваться":3466,"прива":3467,"сталь":3468,"старых":3469,"сим":3470,"обок":3471,"выз":3472,"конта":3473,"подзем":3474,"кабель":3475,"точке":3476,"районы":3477,"диагности":3478,"образования":3479,"рамках":3480,"охранно":3481,"ступень":3482,"болты":3483,"физическое":3484,"процессами":3485,"входит":3486,"проектировщик":3487,"пвх":3488,"09":3489,"52":3490,"бин":3491,"доб":3492,"нном":3493,"робезопас":3494,"тм":3495,"эпи":3496,"рей":3497,"код":3498,"кори":3499,"кость":3500,"нераль":3501,"деми":3502,"стальной":3503,"лок":3504,"подъ":3505,"полностью":3506,"уставок":3507,"грун":3508,"пуль":3509,"198":3510,"раздела":3511,"устанавливается":3512,"осуществлять":3513,"расстоянии":3514,"патрубков":3515,"модели":3516,"распростра":3517,"вибрации":3518,"разрешитель":3519,"конапорных":3520,"поддержа":3521,"отноше":3522,"аттестации":3523,"диффере":3524,"контакт":3525,"эпидеми":3526,"эпидемиологи":3527,"61":3528,"at":3529,"вт":3530,"гц":3531,"гда":3532,"моди":3533,"пд":3534,"уется":3535,"ремен":3536,"нему":3537,"запре":3538,"лить":3539,"мар":3540,"приём":3541,"сопроводи":3542,"проте":3543,"ваемые":3544,"обосн":3545,"выб":3546,"новой":3547,"ленность":3548,"104":3549,"установлены":3550,"работе":3551,"методом":3552,"пластов":3553,"комплекте":3554,"предназначенное":3555,"ываться":3556,"ремонте":3557,"распределения":3558,"глуби":3559,"функциональным":3560,"воздействию":3561,"кроме":3562,"справочник":3563,"каждого":3564,"заполне":3565,"спламеня":3566,"строповки":3567,"бытовых":3568,"продол":3569,"лицо":3570,"замыкания":3571,"коммуникаций":3572,"потенциалов":3573,"устойчивость":3574,"позиций":3575,"климатология":3576,"нки":3577,"нча":3578,"пя":3579,"этого":3580,"например":3581,"пони":3582,"погре":3583,"чере":3584,"одном":3585,"табе":3586,"циф":3587,"дочные":3588,"веществ":3589,"ваемой":3590,"мента":3591,"предвари":3592,"10198":3593,"материальное":3594,"промышленная":3595,"технологический":3596,"шабло":3597,"комплектности":3598,"обеспечивающие":3599,"действующий":3600,"подразделения":3601,"политика":3602,"толщина":3603,"обмоток":3604,"заполнение":3605,"которое":3606,"жилых":3607,"эффективности":3608,"цилиндри":3609,"предотвращения":3610,"изыскатель":3611,"профили":3612,"поршне":3613,"дифференциа":3614,"погреш":3615,"вг":3616,"кгс":3617,"нси":3618,"осе":3619,"оформ":3620,"стя":3621,"поса":3622,"нев":3623,"закрепле":3624,"зонах":3625,"технико":3626,"рованы":3627,"чик":3628,"тым":3629,"дительные":3630,"контрольных":3631,"температурой":3632,"предусмотрены":3633,"горлов":3634,"серви":3635,"приемку":3636,"максимальное":3637,"токовая":3638,"выбора":3639,"обеспечиваемые":3640,"площадок":3641,"обязательными":3642,"полиэти":3643,"шкафа":3644,"сосудов":3645,"выключателя":3646,"подача":3647,"нулевой":3648,"деревянные":3649,"предохранитель":3650,"мно":3651,"сжи":3652,"сня":3653,"утвер":3654,"учё":3655,"штам":3656,"язы":3657,"настройки":3658,"летов":3659,"ованию":3660,"камеры":3661,"проживания":3662,"тельность":3663,"часто":3664,"системой":3665,"пожарные":3666,"рованный":3667,"2005":3668,"няя":3669,"указаниями":3670,"ционная":3671,"совмест":3672,"основного":3673,"ведения":3674,"влия":3675,"сваи":3676,"ступа":3677,"изделиям":3678,"друго":3679,"применяемых":3680,"качество":3681,"завися":3682,"опн":3683,"сварка":3684,"специали":3685,"металлической":3686,"внешнего":3687,"масля":3688,"605":3689,"автоматизированной":3690,"средствами":3691,"включе":3692,"допустимы":3693,"свое":3694,"никнов":3695,"герметичности":3696,"слой":3697,"ждё":3698,"структурные":3699,"извещатель":3700,"сопротивления":3701,"объединя":3702,"птк":3703,"профиля":3704,"гидравли":3705,"юридическое":3706,"вещества":3707,"утверждё":3708,"83":3709,"вклад":3710,"емати":3711,"пл":3712,"сс":3713,"радиа":3714,"подо":3715,"кол":3716,"рок":3717,"метры":3718,"сете":3719,"ционное":3720,"схеме":3721,"размерам":3722,"исходя":3723,"следующим":3724,"наиболее":3725,"масса":3726,"случаях":3727,"коррозионной":3728,"выбором":3729,"одножи":3730,"силовые":3731,"воздухом":3732,"объемно":3733,"закрыты":3734,"несущие":3735,"обязательны":3736,"посредством":3737,"клапана":3738,"инженерных":3739,"нанесена":3740,"смеси":3741,"смесей":3742,"катаный":3743,"%.":3744,")/":3745,"in":3746,"жки":3747,"ловая":3748,"опора":3749,"чный":3750,"назем":3751,"обли":3752,"общему":3753,"несколь":3754,"вера":3755,"син":3756,"способо":3757,"роваться":3758,"новые":3759,"диспе":3760,"сальников":3761,"рабочая":3762,"действие":3763,"контроле":3764,"изготовлении":3765,"зированный":3766,"соблюде":3767,"расчетов":3768,"исправ":3769,"приказ":3770,"работающего":3771,"199":3772,"разделов":3773,"поверки":3774,"внешние":3775,"установленным":3776,"установленными":3777,"образцов":3778,"фактора":3779,"рамного":3780,"машинам":3781,"воздуху":3782,"сейсмичности":3783,"сорта":3784,"2991":3785,"толщиной":3786,"источник":3787,"горюче":3788,"руководство":3789,"основаниях":3790,"переменного":3791,"изготавливаться":3792,"исполнении":3793,"численность":3794,"скважи":3795,"статического":3796,"весных":3797,"осмотра":3798,"облицов":3799,"способом":3800,"318":3801,"82":3802,"два":3803,"нвг":3804,"снару":3805,"фра":3806,"зад":3807,"заправо":3808,"отвода":3809,"даль":3810,"севера":3811,"системати":3812,"целях":3813,"подвиж":3814,"раска":3815,"ждением":3816,"системами":3817,"пусков":3818,"объекту":3819,"действий":3820,"иссле":3821,"вводы":3822,"согласования":3823,"149":3824,"противоре":3825,"устройствами":3826,"устанавливать":3827,"ющийся":3828,"поверхность":3829,"конструктивных":3830,"периметра":3831,"генераторов":3832,"сейсмического":3833,"паспорте":3834,"сигнал":3835,"локальные":3836,"подключе":3837,"обмотки":3838,"разборки":3839,"запорной":3840,"объединение":3841,"ширина":3842,"скважин":3843,"утилизации":3844,"взрывоопасной":3845,"поверхностей":3846,"сброса":3847,"общественных":3848,"крайнего":3849,"предполагает":3850,"модифика":3851,"протека":3852,"множе":3853,"диспет":3854,"снаружи":3855,"325":3856,"вной":3857,"ипр":3858,"мвт":3859,"очере":3860,"фия":3861,"колле":3862,"отправ":3863,"промеж":3864,"мок":3865,"зона":3866,"час":3867,"готовности":3868,"любы":3869,"методика":3870,"предпринима":3871,"блиогра":3872,"перево":3873,"повтор":3874,"1584":3875,"утвержденный":3876,"технологии":3877,"использование":3878,"библиогра":3879,"облада":3880,"прибор":3881,"приборам":3882,"работающее":3883,"комплектное":3884,"сборки":3885,"изоляция":3886,"максимальная":3887,"упаковки":3888,"действующих":3889,"действующим":3890,"жидкость":3891,"диаметра":3892,"фазных":3893,"изменению":3894,"электродвигатель":3895,"полимер":3896,"эвакуации":3897,"сложных":3898,"маркирово":3899,"идентификации":3900,"экранов":3901,"инструментов":3902,"ограждающие":3903,"крепежных":3904,"программиру":3905,"углеводород":3906,"входить":3907,"админи":3908,"тонколи":3909,"признаку":3910,"равнивания":3911,"удовлетворять":3912,"коридо":3913,"объединяемых":3914,"сортамент":3915,"систематизированный":3916,"множество":3917,"коллек":3918,"библиография":3919,"020":3920,"514":3921,"86":3922,"ar":3923,"»].":3924,"кну":3925,"укло":3926,"чества":3927,"кости":3928,"неиз":3929,"канала":3930,"отмет":3931,"стить":3932,"выхода":3933,"бес":3934,"технике":3935,"указание":3936,"любо":3937,"2006":3938,"схем":3939,"необходимость":3940,"земле":3941,"сигнала":3942,"шай":3943,"содержащих":3944,"становятся":3945,"электричества":3946,"приложении":3947,"соответствующего":3948,"наибольше":3949,"устанавливающий":3950,"предназначена":3951,"функции":3952,"агрегат":3953,"ресурс":3954,"фланцевых":3955,"трансформаторов":3956,"образом":3957,"количества":3958,"враща":3959,"расстояния":3960,"материалами":3961,"изменяются":3962,"руководящих":3963,"воздушного":3964,"кпд":3965,"каждой":3966,"тепловой":3967,"замкну":3968,"падающих":3969,"фикса":3970,"линиях":3971,"месяцев":3972,"перекрытия":3973,"гофрами":3974,"перевозки":3975,"баланса":3976,"индивидуальный":3977,"второй":3978,"разрешительная":3979,"запрещается":3980,"приёмку":3981,"администра":3982,"51474":3983,"595":3984,"an":3985,"»:":3986,"евид":3987,"жным":3988,"ол":3989,"смет":3990,"лика":3991,"руемого":3992,"циа":3993,"циевид":3994,"щика":3995,"зок":3996,"ловых":3997,"выпадающих":3998,"конту":3999,"концентра":4000,"пециевид":4001,"часов":4002,"ленным":4003,"инвен":4004,"полной":4005,"условиями":4006,"испытание":4007,"управля":4008,"приведен":4009,"сварки":4010,"способное":4011,"шаровые":4012,"содержащий":4013,"трапециевид":4014,"внешним":4015,"предназначенных":4016,"показателям":4017,"факторы":4018,"длина":4019,"бук":4020,"свету":4021,"освеще":4022,"включить":4023,"результаты":4024,"обязательном":4025,"экрана":4026,"поставляться":4027,"собственных":4028,"представляющий":4029,"топлива":4030,"рекомендательный":4031,"производительность":4032,"волс":4033,"усили":4034,"закупке":4035,"32603":4036,"изыскательские":4037,"60529":4038,"предприниматель":4039,"15846":4040,"220":4041,"71":4042,"вного":4043,"шва":4044,"голов":4045,"коло":4046,"кален":4047,"зазора":4048,"лист":4049,"ман":4050,"ствоваться":4051,"токо":4052,"проло":4053,"микро":4054,"минераль":4055,"спи":4056,"вации":4057,"бок":4058,"гаек":4059,"разрабатыва":4060,"возникнов":4061,"предъ":4062,"обеча":4063,"сум":4064,"сух":4065,"шего":4066,"размеща":4067,"плом":4068,"законных":4069,"качествен":4070,"приемно":4071,"входа":4072,"входя":4073,"выделя":4074,"максимального":4075,"ремонт":4076,"графических":4077,"тепловая":4078,"толщины":4079,"руководствоваться":4080,"центробежные":4081,"специального":4082,"предоставля":4083,"секции":4084,"резьбы":4085,"рисунок":4086,"факельных":4087,"фундаментов":4088,"поставить":4089,"встроенных":4090,"повышенной":4091,"16504":4092,"сетях":4093,"кожух":4094,"распространения":4095,"14918":4096,"противоречить":4097,"32569":4098,"календар":4099,"):":4100,"06":4101,"53325":4102,"es":4103,"ал":4104,"зш":4105,"ню":4106,"увели":4107,"шками":4108,"нау":4109,"равне":4110,"реконструкции":4111,"года":4112,"отсе":4113,"отказ":4114,"мая":4115,"приема":4116,"лями":4117,"изло":4118,"силами":4119,"вывод":4120,"вин":4121,"условии":4122,"указанные":4123,"коробок":4124,"электроустановки":4125,"автоматическое":4126,"блочных":4127,"земли":4128,"выполненными":4129,"нейтраль":4130,"взрывозащиты":4131,"определяются":4132,"1998":4133,"защитное":4134,"гео":4135,"циона":4136,"который":4137,"электрическим":4138,"устанавливаются":4139,"установленной":4140,"необходимых":4141,"конструктивным":4142,"агрегаты":4143,"являющийся":4144,"принятых":4145,"распорядительные":4146,"принципиа":4147,"аварийного":4148,"фундамент":4149,"оболочкой":4150,"резьба":4151,"крепежные":4152,"внесения":4153,"собственными":4154,"комплектацию":4155,"коробки":4156,"шум":4157,"тэр":4158,"скорости":4159,"холодный":4160,"отклонение":4161,"интерфейса":4162,"отношению":4163,"сервис":4164,"зависящие":4165,"плк":4166,"факторам":4167,"промежуточ":4168,"5959":4169,"..":4170,"44":4171,"лсу":4172,"оши":4173,"пб":4174,"съем":4175,"эп":4176,"пру":4177,"коде":4178,"непро":4179,"одор":4180,"таким":4181,"зака":4182,"запи":4183,"цирку":4184,"мано":4185,"спэ":4186,"ваемых":4187,"тового":4188,"бор":4189,"винтов":4190,"новых":4191,"дук":4192,"перегрузки":4193,"шинах":4194,"20000":4195,"основой":4196,"пути":4197,"125":4198,"уровне":4199,"покрытий":4200,"корпусов":4201,"химически":4202,"заданных":4203,"упаковку":4204,"емую":4205,"предусматривается":4206,"разработанной":4207,"сейсмическую":4208,"проектируемому":4209,"отур":4210,"ипт":4211,"подшипники":4212,"исключения":4213,"датчика":4214,"трехфазного":4215,"маркировки":4216,"отдельному":4217,"текстовых":4218,"механизмы":4219,"мероприятий":4220,"присоединяемого":4221,"хозяйственно":4222,"кольца":4223,"цистерны":4224,"регистра":4225,"шаблон":4226,"нескольких":4227,"синхро":4228,"19903":4229,"бкнс":4230,"вру":4231,"тка":4232,"шс":4233,"попере":4234,"неса":4235,"рука":4236,"мисси":4237,"мой":4238,"выпуск":4239,"2020":4240,"указано":4241,"указанного":4242,"ленная":4243,"работка":4244,"классы":4245,"эксплика":4246,"шим":4247,"действием":4248,"элементами":4249,"плоско":4250,"нкциони":4251,"комплектных":4252,"соответствующей":4253,"входе":4254,"низкая":4255,"являться":4256,"жидкостей":4257,"проектируемого":4258,"закрыть":4259,"газотур":4260,"выходе":4261,"сигналов":4262,"воздействий":4263,"климат":4264,"источников":4265,"лестни":4266,"переменных":4267,"маркировку":4268,"поставляемого":4269,"кондиционирования":4270,"отверстий":4271,"достаточные":4272,"аналоги":4273,"оснаще":4274,"настройка":4275,"подлежащие":4276,"визуальной":4277,"учётом":4278,"специализирован":4279,"пломби":4280,"алгори":4281,"несанкциони":4282,"газотурбин":4283,"ion":4284,"ro":4285,"вности":4286,"двой":4287,"оказа":4288,"рный":4289,"умень":4290,"попада":4291,"гом":4292,"горания":4293,"мех":4294,"независящие":4295,"прилага":4296,"присвое":4297,"вах":4298,"жей":4299,"серов":4300,"дис":4301,"безопасной":4302,"сасы":4303,"туа":4304,"методическими":4305,"перемеще":4306,"шести":4307,"системам":4308,"женные":4309,"определен":4310,"предусмотрена":4311,"выполнено":4312,"131":4313,"разработчик":4314,"возможностью":4315,"3054":4316,"опции":4317,"рода":4318,"насосные":4319,"входящих":4320,"предназначенный":4321,"предназначенная":4322,"установленном":4323,"конструктивному":4324,"ппкоп":4325,"открыть":4326,"высокого":4327,"выбору":4328,"длине":4329,"монтажные":4330,"бума":4331,"ющем":4332,"связ":4333,"ипд":4334,"местности":4335,"черным":4336,"минимальным":4337,"ресивера":4338,"списка":4339,"брони":4340,"энергоснаб":4341,"источника":4342,"изменяемых":4343,"исключением":4344,"маркировке":4345,"дверей":4346,"пакеты":4347,"ограничение":4348,"механизмов":4349,"внесении":4350,"метрическая":4351,"отверстия":4352,"настроить":4353,"заземляющие":4354,"уплотнительной":4355,"конденсата":4356,"оценки":4357,"стойкими":4358,"стоимости":4359,"шпиль":4360,"высотой":4361,"шлейф":4362,"фиксированного":4363,"пнр":4364,"неизменные":4365,"непроница":4366,"экспликация":4367,"сероводор":4368,"en":4369,"авить":4370,"втори":4371,"всасы":4372,"дэс":4373,"жный":4374,"сче":4375,"срабатыва":4376,"шов":4377,"…».":4378,"полез":4379,"реа":4380,"когда":4381,"нением":4382,"небаланса":4383,"запусти":4384,"рующие":4385,"деактивировать":4386,"ляемая":4387,"щиком":4388,"стациона":4389,"сипт":4390,"тельным":4391,"пей":4392,"2010":4393,"цепей":4394,"ленту":4395,"комфор":4396,"конструкцию":4397,"жило":4398,"ерять":4399,"перезапусти":4400,"производстве":4401,"корре":4402,"объектной":4403,"транспорт":4404,"контроли":4405,"тормо":4406,"стандартных":4407,"продукта":4408,"землю":4409,"следующей":4410,"потребуется":4411,"выполняющая":4412,"опцию":4413,"грузоподъем":4414,"панель":4415,"ограждения":4416,"шифра":4417,"образу":4418,"рекомендова":4419,"токам":4420,"максимальный":4421,"состава":4422,"расчетного":4423,"макрос":4424,"макросы":4425,"действующими":4426,"штуцеры":4427,"170":4428,"резервуа":4429,"носятся":4430,"источником":4431,"доверять":4432,"активации":4433,"покрытие":4434,"удаления":4435,"компрессорного":4436,"3000":4437,"сертификат":4438,"нормами":4439,"интенси":4440,"аспсипт":4441,"естественное":4442,"отвечать":4443,"искусственное":4444,"компоновка":4445,"добавить":4446,"полиэтиле":4447,"масляной":4448,"вкладка":4449,"трапециевидными":4450,"присвоением":4451,"шпильки":4452,"перезапустить":4453,"120":4454,"42":4455,"говая":4456,"жиз":4457,"клей":4458,"тча":4459,"уклад":4460,"эпр":4461,"кое":4462,"ода":4463,"заклад":4464,"затра":4465,"льную":4466,"лизова":4467,"доща":4468,"ведо":4469,"стального":4470,"ситуа":4471,"пено":4472,"знава":4473,"ответ":4474,"особ":4475,"возбу":4476,"возвра":4477,"тивного":4478,"грани":4479,"транспортные":4480,"поставщика":4481,"кабельная":4482,"производственные":4483,"квт":4484,"пламени":4485,"способа":4486,"способы":4487,"всего":4488,"внутренний":4489,"дежур":4490,"эксплуатация":4491,"предназначен":4492,"вентилятора":4493,"опознава":4494,"601":4495,"ппкп":4496,"задания":4497,"рабочим":4498,"обратной":4499,"государственных":4500,"повреждение":4501,"клапаны":4502,"общего":4503,"физико":4504,"распределительных":4505,"металлоконструкции":4506,"сдаточных":4507,"антикоррозионная":4508,"компрессорных":4509,"умеренный":4510,"вибра":4511,"услуги":4512,"оконные":4513,"двумя":4514,"экспертизы":4515,"диапазоне":4516,"перекачиваемой":4517,"баллах":4518,"поддержания":4519,"скважины":4520,"научно":4521,"счетчи":4522,"дощатые":4523,"526":4524,"гл":4525,"лых":4526,"ог":4527,"она":4528,"сне":4529,"тн":4530,"швов":4531,"чен":4532,"неисправ":4533,"отли":4534,"рующих":4535,"ручной":4536,"мальные":4537,"марок":4538,"изги":4539,"простран":4540,"стади":4541,"статора":4542,"вом":4543,"тельств":4544,"сечение":4545,"подключа":4546,"расши":4547,"возника":4548,"суб":4549,"среду":4550,"рованными":4551,"федеральными":4552,"автоматический":4553,"итекту":4554,"опасность":4555,"производственного":4556,"составу":4557,"работах":4558,"возможно":4559,"отдельные":4560,"питание":4561,"5046":4562,"конструкциях":4563,"функций":4564,"плит":4565,"уплотнение":4566,"высоконапорных":4567,"нской":4568,"обеспечивающих":4569,"заказчику":4570,"функциони":4571,"машина":4572,"защищены":4573,"включения":4574,"дователь":4575,"этих":4576,"сооружениях":4577,"сэв":4578,"природный":4579,"извещатели":4580,"705":4581,"горизонтальных":4582,"около":4583,"лакокрасочные":4584,"низковольтные":4585,"короткого":4586,"непрерывных":4587,"потолков":4588,"архитекту":4589,"горлови":4590,"исследователь":4591,"диспетчер":4592,"геометри":4593,"шестигран":4594,"50462":4595,"er":4596,"кпа":4597,"мкм":4598,"пм":4599,"счита":4600,"сгорания":4601,"ум":4602,"ними":4603,"помо":4604,"лесо":4605,"ована":4606,"таре":4607,"прокла":4608,"мом":4609,"вают":4610,"выми":4611,"вытя":4612,"техническими":4613,"тый":4614,"дуговая":4615,"расхода":4616,"жилами":4617,"установке":4618,"шее":4619,"шены":4620,"определить":4621,"объект":4622,"окраска":4623,"блочное":4624,"стандарт":4625,"1312":4626,"13130":4627,"опций":4628,"скс":4629,"235":4630,"ремонтных":4631,"трансформаторы":4632,"программного":4633,"2777":4634,"выходы":4635,"минимальной":4636,"выбираться":4637,"нанесены":4638,"приемочном":4639,"проверке":4640,"этапе":4641,"антикоррозионного":4642,"челове":4643,"независимы":4644,"листовой":4645,"турби":4646,"дефекты":4647,"проектировщиком":4648,"распространяются":4649,"эстакады":4650,"30244":4651,"заключения":4652,"розет":4653,"грк":4654,"заполнении":4655,"задвиж":4656,"предъявля":4657,"нейтралью":4658,"циркуля":4659,"30546":4660,"интенсивности":4661,"помощи":4662,"27772":4663,"335":4664,"»);":4665,"вная":4666,"гп":4667,"гря":4668,"жур":4669,"очной":4670,"смонти":4671,"фон":4672,"номен":4673,"номера":4674,"пото":4675,"реза":4676,"чении":4677,"лено":4678,"общих":4679,"зазо":4680,"русс":4681,"рос":4682,"розо":4683,"щит":4684,"товой":4685,"воспламеня":4686,"вывода":4687,"видом":4688,"витков":4689,"столов":4690,"динами":4691,"расчё":4692,"ковых":4693,"перенапряжений":4694,"среда":4695,"пожарного":4696,"авт":4697,"исполнитель":4698,"строительстве":4699,"федеральным":4700,"пун":4701,"трубопроводной":4702,"температуру":4703,"стойкость":4704,"2404":4705,"нефтегазовых":4706,"деталям":4707,"электрическая":4708,"шифр":4709,"конструкциям":4710,"установленные":4711,"рядов":4712,"максимальным":4713,"перви":4714,"силовой":4715,"ступенча":4716,"272":4717,"подразделе":4718,"колеса":4719,"обязательной":4720,"противопожарных":4721,"направление":4722,"эвакуационные":4723,"галочки":4724,"относительно":4725,"выключатели":4726,"кабелями":4727,"внесение":4728,"емкость":4729,"выдержкой":4730,"узлам":4731,"услуг":4732,"табличка":4733,"скорость":4734,"гнутые":4735,"питьевого":4736,"окраши":4737,"обвязки":4738,"склади":4739,"симметри":4740,"языке":4741,"подогрева":4742,"дальней":4743,"обладать":4744,"опознавательная":4745,"номенкла":4746,"русском":4747,"24045":4748,"%;":4749,".,":4750,"ex":4751,"пг":4752,"рза":4753,"сведения":4754,"чность":4755,"отра":4756,"рует":4757,"руются":4758,"дения":4759,"изно":4760,"излу":4761,"ваемого":4762,"выдачи":4763,"прекра":4764,"бере":4765,"разъ":4766,"безопасным":4767,"проектом":4768,"целесо":4769,"люми":4770,"ительских":4771,"объема":4772,"заводских":4773,"устройством":4774,"основным":4775,"выполнении":4776,"центри":4777,"имеющих":4778,"комплектов":4779,"номина":4780,"потребительских":4781,"нефтегазо":4782,"другими":4783,"циональ":4784,"внутренняя":4785,"уровни":4786,"насосный":4787,"нормативным":4788,"упаковке":4789,"длины":4790,"активности":4791,"обращения":4792,"включение":4793,"подразделение":4794,"сохранности":4795,"консервация":4796,"проводиться":4797,"центробежного":4798,"компрессо":4799,"избыточное":4800,"турбо":4801,"выдержки":4802,"горячего":4803,"клеммных":4804,"присоединяемых":4805,"горение":4806,"двусторон":4807,"законодательства":4808,"комбини":4809,"компонен":4810,"фильтров":4811,"селективности":4812,"магистральных":4813,"утраты":4814,"эпидемиологические":4815,"цифровых":4816,"наибольшее":4817,"5264":4818,"3359":4819,")»":4820,"48":4821,"бри":4822,"вд":4823,"мф":4824,"нку":4825,"останов":4826,"ппу":4827,"смеж":4828,"ъек":4829,"находи":4830,"поля":4831,"польз":4832,"кие":4833,"одним":4834,"зану":4835,"закреп":4836,"застройки":4837,"загря":4838,"отри":4839,"ститу":4840,"ваты":4841,"римента":4842,"конфи":4843,"вива":4844,"202":4845,"осад":4846,"самов":4847,"защитой":4848,"расцепи":4849,"институ":4850,"люда":4851,"ковым":4852,"предельно":4853,"ющихся":4854,"трубок":4855,"точки":4856,"полости":4857,"180":4858,"ществу":4859,"применяются":4860,"определяться":4861,"хранению":4862,"объектам":4863,"соответствующим":4864,"входят":4865,"трубной":4866,"масла":4867,"категорий":4868,"обеспечением":4869,"наименования":4870,"проведении":4871,"опорной":4872,"подраздела":4873,"клапанов":4874,"измерительных":4875,"21130":4876,"верхней":4877,"муфт":4878,"специальных":4879,"резьбов":4880,"эксперимента":4881,"теплообменный":4882,"шума":4883,"импуль":4884,"варианта":4885,"указывается":4886,"обнаружении":4887,"месяца":4888,"медными":4889,"аккумулятор":4890,"цветовое":4891,"562":4892,"зажимы":4893,"пункта":4894,"писью":4895,"смазки":4896,"грузами":4897,"светиль":4898,"восстановления":4899,"вызва":4900,"допустимые":4901,"изложить":4902,"субъек":4903,"человека":4904,"задвижки":4905,"загряз":4906,"отрица":4907,"47":4908,"603":4909,"kc":4910,"нную":4911,"оси":4912,"рсу":4913,"упор":4914,"ям":4915,"стовая":4916,"ност":4917,"полов":4918,"потока":4919,"теку":4920,"обру":4921,"кими":4922,"кар":4923,"замене":4924,"листы":4925,"отда":4926,"демонтажа":4927,"манев":4928,"приравне":4929,"розе":4930,"паз":4931,"мирования":4932,"вал":4933,"жена":4934,"лори":4935,"препя":4936,"тельную":4937,"водным":4938,"техника":4939,"число":4940,"стого":4941,"зная":4942,"одина":4943,"сели":4944,"строя":4945,"подбо":4946,"ковые":4947,"эквива":4948,"стенам":4949,"утвержденными":4950,"изготовлены":4951,"мотор":4952,"стойке":4953,"воздухо":4954,"004":4955,"разместить":4956,"соблюда":4957,"протя":4958,"приведено":4959,"положении":4960,"вводе":4961,"вводов":4962,"напряжению":4963,"металла":4964,"взрывопожарной":4965,"сервер":4966,"отдельно":4967,"насосами":4968,"уровней":4969,"номинальным":4970,"входных":4971,"арматуру":4972,"первой":4973,"заданию":4974,"рассчиты":4975,"предусматриваться":4976,"наружные":4977,"буре":4978,"паспорта":4979,"связа":4980,"несущих":4981,"локальным":4982,"крове":4983,"дополнительные":4984,"специальные":4985,"устойчивой":4986,"строповые":4987,"соединительные":4988,"группа":4989,"использоваться":4990,"вертикальных":4991,"представляют":4992,"расположенных":4993,"заглушками":4994,"самостоя":4995,"трассы":4996,"шпилек":4997,"компримированного":4998,"котлован":4999,"подверга":5000,"железобетонных":5001,"козырька":5002,"железнодорожным":5003,"сопроводительной":5004,"выбран":5005,"снятия":5006,"колод":5007,"отправляемая":5008,"art":5009,"алгорит":5010,"несанкционированного":5011,"гпэс":5012,"приравненные":5013,"препятств":5014,"эквивален":5015,"ed":5016,"ls":5017,"бку":5018,"дж":5019,"дно":5020,"дви":5021,"лэп":5022,"нно":5023,"нсп":5024,"роди":5025,"сжа":5026,"шт":5027,"низа":5028,"наноси":5029,"потер":5030,"менения":5031,"ованных":5032,"обществ":5033,"кид":5034,"нец":5035,"тая":5036,"отпа":5037,"дочных":5038,"дочер":5039,"силу":5040,"разгруз":5041,"сепара":5042,"строения":5043,"электробезопас":5044,"обозначений":5045,"работников":5046,"сып":5047,"системах":5048,"электропровод":5049,"электроприем":5050,"тивных":5051,"кабелем":5052,"соедине":5053,"характе":5054,"схемой":5055,"документацию":5056,"расчете":5057,"примеры":5058,"применить":5059,"тяго":5060,"применяется":5061,"торами":5062,"нейтра":5063,"240":5064,"1997":5065,"раздел":5066,"поверке":5067,"надежно":5068,"соответствующие":5069,"аппарата":5070,"дымов":5071,"используемых":5072,"зданиях":5073,"габариты":5074,"механическим":5075,"охранная":5076,"программно":5077,"544":5078,"ресиверы":5079,"ский":5080,"минэнерго":5081,"величины":5082,"локальная":5083,"углерода":5084,"коммута":5085,"секций":5086,"извещателей":5087,"спламенения":5088,"распределительные":5089,"распределительное":5090,"участков":5091,"водоснабжение":5092,"месторождения":5093,"описание":5094,"факельная":5095,"замыканий":5096,"горячекатаный":5097,"указывающая":5098,"поверхност":5099,"устранить":5100,"парн":5101,"преобразователь":5102,"естествен":5103,"базовые":5104,"заменить":5105,"продолжи":5106,"31839":5107,"перевозок":5108,"административно":5109,"контуру":5110,"зазорам":5111,"плоскости":5112,"воспламеняющим":5113,"целесообраз":5114,"зануление":5115,"экспериментальным":5116,"вызванных":5117,"обществе":5118,"дочернем":5119,"21650":5120,"513":5121,"66":5122,"9544":5123,"алюми":5124,"биз":5125,"вш":5126,"зпд":5127,"оста":5128,"оспламенения":5129,"рно":5130,"рвс":5131,"убо":5132,"уравнивания":5133,"стри":5134,"поро":5135,"реак":5136,"ренных":5137,"чего":5138,"обустройства":5139,"некачествен":5140,"камер":5141,"дет":5142,"допус":5143,"ромеры":5144,"току":5145,"пром":5146,"проема":5147,"патрубок":5148,"чивания":5149,"чисты":5150,"оборудовании":5151,"дительных":5152,"соответственно":5153,"подписью":5154,"документом":5155,"инги":5156,"предприятия":5157,"шие":5158,"проводники":5159,"гражда":5160,"утверждения":5161,"000":5162,"надзем":5163,"собран":5164,"предусмотрено":5165,"всей":5166,"14202":5167,"24705":5168,"нефтепродук":5169,"поражения":5170,"надежную":5171,"соединениям":5172,"производствах":5173,"нормативных":5174,"стовой":5175,"массов":5176,"ждающие":5177,"первич":5178,"контрольный":5179,"заданной":5180,"представлена":5181,"упаково":5182,"обеспечены":5183,"обеспечивающими":5184,"односторон":5185,"будет":5186,"закрытых":5187,"сертифици":5188,"минимальный":5189,"5480":5190,"равной":5191,"кромок":5192,"идентифика":5193,"запаса":5194,"ящихся":5195,"централизова":5196,"бмк":5197,"телемехани":5198,"охлаждением":5199,"приводом":5200,"строповка":5201,"тепловых":5202,"числа":5203,"проводами":5204,"выдержка":5205,"уставка":5206,"сертификаты":5207,"утилиза":5208,"создании":5209,"чертежа":5210,"регламенти":5211,"напоромеры":5212,"нагнетания":5213,"вредные":5214,"подъема":5215,"штамп":5216,"шайбы":5217,"фиксации":5218,"минеральной":5219,"спираль":5220,"попадания":5221,"столовой":5222,"самовоспламенения":5223,"нейтрали":5224,"бизнес":5225,"некачественным":5226,"допуски":5227,"630":5228,"et":5229,"вк":5230,"вные":5231,"дрос":5232,"мэ":5233,"нпс":5234,"плен":5235,"смеще":5236,"уде":5237,"чка":5238,"нил":5239,"накоп":5240,"рекло":5241,"мебе":5242,"ляют":5243,"создания":5244,"вании":5245,"лост":5246,"гам":5247,"циях":5248,"ленного":5249,"ленный":5250,"верто":5251,"полно":5252,"существу":5253,"объеме":5254,"шед":5255,"пожарных":5256,"насосом":5257,"пуско":5258,"промыс":5259,"поставка":5260,"крышки":5261,"утвержденной":5262,"блоках":5263,"путя":5264,"плати":5265,"рабочему":5266,"работающие":5267,"комплекса":5268,"газового":5269,"защитный":5270,"качеству":5271,"комплектно":5272,"выполняются":5273,"зависит":5274,"масс":5275,"поверхностью":5276,"теплоизоля":5277,"теплоноси":5278,"теплоизоляции":5279,"конструктивного":5280,"максимально":5281,"22235":5282,"грузовые":5283,"высоко":5284,"резерва":5285,"постановление":5286,"герметизи":5287,"расчетное":5288,"msk":5289,"снабжения":5290,"свет":5291,"оператора":5292,"диаметром":5293,"ступеней":5294,"выходных":5295,"подшипника":5296,"функционально":5297,"холодно":5298,"водопровод":5299,"материалам":5300,"направлении":5301,"датчик":5302,"кровле":5303,"отсутству":5304,"дополнительно":5305,"дополнительных":5306,"взрывозащищенного":5307,"прямой":5308,"стык":5309,"анке":5310,"участках":5311,"емкости":5312,"рекомендации":5313,"товарный":5314,"нормальном":5315,"располагаться":5316,"аккумуляторов":5317,"начала":5318,"вычислительной":5319,"ротор":5320,"днищ":5321,"обслуживающего":5322,"вредных":5323,"комбина":5324,"аппаратура":5325,"контакта":5326,"самозапуска":5327,"грунта":5328,"отметки":5329,"промежуточных":5330,"шовные":5331,"умметры":5332,"маневровых":5333,"ингиби":5334,"дроссели":5335,"460":5336,"72":5337,"it":5338,"бф":5339,"бпп":5340,"вших":5341,"гк":5342,"дзт":5343,"кром":5344,"мву":5345,"нш":5346,"сд":5347,"труд":5348,"хлори":5349,"растя":5350,"чений":5351,"обши":5352,"обустройство":5353,"неагресси":5354,"льному":5355,"лик":5356,"прошед":5357,"воло":5358,"выра":5359,"жалю":5360,"ктп":5361,"ктпо":5362,"освиде":5363,"сану":5364,"указанным":5365,"целом":5366,"предпроектной":5367,"рованным":5368,"шины":5369,"электростанций":5370,"пуске":5371,"поставку":5372,"промышленного":5373,"автоматической":5374,"клиновые":5375,"технологическое":5376,"предусмотрен":5377,"изделиями":5378,"выполненные":5379,"казывать":5380,"определяющих":5381,"окружающую":5382,"прокладыва":5383,"содержащие":5384,"инструкцией":5385,"50460":5386,"электрического":5387,"насосная":5388,"входного":5389,"металлический":5390,"металлическими":5391,"нормативно":5392,"нормативного":5393,"конструктивное":5394,"присоединение":5395,"расчетной":5396,"фланцевые":5397,"механические":5398,"177":5399,"проведены":5400,"количестве":5401,"коэффициента":5402,"подготовку":5403,"состояние":5404,"результате":5405,"минимальном":5406,"электродвигателей":5407,"поливи":5408,"поврежде":5409,"площадке":5410,"трубопроводами":5411,"трехжи":5412,"обогреватели":5413,"кронш":5414,"структуры":5415,"режимах":5416,"выключателей":5417,"ограничи":5418,"бытовые":5419,"древесных":5420,"молнии":5421,"металлоконструкций":5422,"урсн":5423,"листовых":5424,"короба":5425,"конкретных":5426,"единица":5427,"вариант":5428,"обнаруженные":5429,"венно":5430,"оптималь":5431,"шкафов":5432,"уточня":5433,"передаче":5434,"позволять":5435,"тяжести":5436,"котлована":5437,"свидетель":5438,"свидетельства":5439,"затворов":5440,"оцинкованная":5441,"четко":5442,"наземного":5443,"фраг":5444,"очеред":5445,"тонколистовая":5446,"буквенно":5447,"колон":5448,"сухой":5449,"энергоснабжение":5450,"полезного":5451,"комфортабе":5452,"возбуждения":5453,"стадии":5454,"брига":5455,"электробезопасность":5456,"телемеханики":5457,"реклоузе":5458,"комбинация":5459,"бппг":5460,"жалюзи":5461,"освидетельств":5462,"сануз":5463,"кронштей":5464,"38":5465,"49":5466,"bu":5467,"rs":5468,"дки":5469,"кти":5470,"лё":5471,"ори":5472,"сб":5473,"сных":5474,"сверх":5475,"уар":5476,"фрак":5477,"стм":5478,"находя":5479,"пом":5480,"месту":5481,"тези":5482,"тепла":5483,"ованием":5484,"обуслов":5485,"одному":5486,"тапли":5487,"сои":5488,"тообразования":5489,"щитки":5490,"сталей":5491,"лопа":5492,"выда":5493,"гированной":5494,"подпи":5495,"полный":5496,"стоящей":5497,"таблицы":5498,"предел":5499,"шении":5500,"рованная":5501,"проводника":5502,"кабельный":5503,"назначению":5504,"транспортиру":5505,"исход":5506,"артези":5507,"прокладку":5508,"содержать":5509,"плотность":5510,"крат":5511,"применению":5512,"входом":5513,"установленного":5514,"корпоративная":5515,"длиной":5516,"жидких":5517,"штучных":5518,"наладочные":5519,"осуществляет":5520,"оборудованы":5521,"свето":5522,"173":5523,"жидкост":5524,"сейсмической":5525,"говой":5526,"состоящий":5527,"резервной":5528,"резервного":5529,"резервуар":5530,"результатам":5531,"информационно":5532,"548":5533,"направления":5534,"кажды":5535,"трехслой":5536,"клеи":5537,"нанесения":5538,"проверки":5539,"верхним":5540,"взаимоде":5541,"уголь":5542,"пакет":5543,"пакета":5544,"инструмента":5545,"ограничива":5546,"фильтра":5547,"механизма":5548,"фундаменты":5549,"экологически":5550,"топливо":5551,"законом":5552,"нормам":5553,"тэг":5554,"погружения":5555,"допустимое":5556,"интег":5557,"гидратообразования":5558,"трассе":5559,"устранения":5560,"сборке":5561,"производительности":5562,"подтверждения":5563,"окрашены":5564,"планировочным":5565,"замены":5566,"погрузчи":5567,"резервирования":5568,"утверждённые":5569,"маркировочные":5570,"каналах":5571,"and":5572,"миссии":5573,"жилой":5574,"полиэтиленовой":5575,"розетки":5576,"излучения":5577,"мфнс":5578,"конфигу":5579,"осадков":5580,"гпэсб":5581,"нспв":5582,"электроприемников":5583,"мэгк":5584,"нилхлори":5585,"ингибитора":5586,"поливинилхлори":5587,"бригады":5588,"реклоузеров":5589,"взаимодейств":5590,"380":5591,"аэ":5592,"бвк":5593,"вся":5594,"вкс":5595,"дств":5596,"жды":5597,"зра":5598,"ипп":5599,"лла":5600,"остальных":5601,"отапли":5602,"скрепления":5603,"упп":5604,"штабе":5605,"этой":5606,"пок":5607,"чены":5608,"рующего":5609,"рующая":5610,"солю":5611,"вающий":5612,"тельными":5613,"водя":5614,"новремен":5615,"жаве":5616,"гиб":5617,"верса":5618,"стоянки":5619,"перехода":5620,"произвести":5621,"шений":5622,"правильной":5623,"авг":5624,"стелла":5625,"ционно":5626,"кабельным":5627,"надпись":5628,"проточной":5629,"нержаве":5630,"противополо":5631,"противоаварий":5632,"246":5633,"1975":5634,"1978":5635,"прокладывать":5636,"информацию":5637,"допускаемые":5638,"плиты":5639,"уплотнением":5640,"максимальном":5641,"классом":5642,"абсолю":5643,"используются":5644,"наимень":5645,"газопоршне":5646,"действующей":5647,"штуцера":5648,"обратные":5649,"перерабатывающих":5650,"объемов":5651,"паспорту":5652,"результатом":5653,"функционального":5654,"консервацию":5655,"выбирать":5656,"направлению":5657,"измерительный":5658,"подключение":5659,"воздушной":5660,"верхнего":5661,"отопитель":5662,"больш":5663,"получения":5664,"покрытию":5665,"металлорука":5666,"подачей":5667,"ручная":5668,"анализа":5669,"фундамента":5670,"искробезопас":5671,"перекачки":5672,"нижнего":5673,"индика":5674,"пробками":5675,"атмосферных":5676,"сварочных":5677,"каналов":5678,"свободного":5679,"предупреждающие":5680,"контейне":5681,"компенсации":5682,"фильтры":5683,"светильников":5684,"погрешности":5685,"закреплены":5686,"ипдл":5687,"ведомость":5688,"автот":5689,"60364":5690,"полномо":5691,"73":5692,"ac":5693,"al":5694,"вту":5695,"жная":5696,"йных":5697,"кр":5698,"лли":5699,"пления":5700,"рного":5701,"уча":5702,"чда":5703,"низации":5704,"нос":5705,"наработки":5706,"рая":5707,"поступа":5708,"чече":5709,"ованы":5710,"нены":5711,"одну":5712,"одновремен":5713,"заби":5714,"мальных":5715,"доров":5716,"приклад":5717,"роли":5718,"рочного":5719,"щими":5720,"прохо":5721,"лабора":5722,"момент":5723,"ванию":5724,"вое":5725,"выяв":5726,"щее":5727,"водой":5728,"чистого":5729,"стоек":5730,"жай":5731,"циями":5732,"изготовленной":5733,"воздействующим":5734,"ближай":5735,"зим":5736,"щиеся":5737,"пожарную":5738,"шими":5739,"тверд":5740,"объекте":5741,"автоматическая":5742,"технологий":5743,"стойких":5744,"001":5745,"расчету":5746,"расчетные":5747,"которая":5748,"необходимого":5749,"давлению":5750,"свари":5751,"бическим":5752,"металлов":5753,"применяемый":5754,"централь":5755,"способность":5756,"шагом":5757,"содержащая":5758,"которым":5759,"приемке":5760,"заземли":5761,"ромбическим":5762,"процесс":5763,"нормативными":5764,"604":5765,"расположением":5766,"ресурсов":5767,"автоматизированное":5768,"используемые":5769,"герметизации":5770,"фланцевым":5771,"универса":5772,"государственной":5773,"состоянии":5774,"резервных":5775,"ящий":5776,"дополнение":5777,"нанести":5778,"вичным":5779,"водонепроница":5780,"углероди":5781,"телекоммуника":5782,"рифлением":5783,"последовательность":5784,"ответственности":5785,"каждом":5786,"достижении":5787,"реализацию":5788,"горизонтальный":5789,"8568":5790,"импор":5791,"заглушки":5792,"утеплителем":5793,"аттест":5794,"шкафы":5795,"тэо":5796,"32601":5797,"пробное":5798,"степенью":5799,"поставо":5800,"предотвра":5801,"цинкования":5802,"оценка":5803,"30246":5804,"проходы":5805,"регламентов":5806,"искусствен":5807,"приточной":5808,"емкостного":5809,"горючесть":5810,"коридорах":5811,"коллектора":5812,"токопровод":5813,"возникнове":5814,"оснащены":5815,"исследовательский":5816,"нефтегазоперерабатывающих":5817,"институт":5818,"серверной":5819,"чистым":5820,"путях":5821,"ликвида":5822,"артезиа":5823,"автотран":5824,"чечевичным":5825,"08":5826,"37":5827,"533":5828,"63":5829,"613":5830,"ic":5831,"альных":5832,"вно":5833,"гту":5834,"ини":5835,"ится":5836,"йти":5837,"нне":5838,"нже":5839,"ппо":5840,"плу":5841,"тными":5842,"улов":5843,"нагре":5844,"наработка":5845,"кора":5846,"неоргани":5847,"льности":5848,"отработа":5849,"отобра":5850,"рую":5851,"ручные":5852,"декора":5853,"сопрово":5854,"вет":5855,"падения":5856,"трево":5857,"спт":5858,"валу":5859,"бой":5860,"вывер":5861,"выступа":5862,"метр":5863,"гания":5864,"раздаточ":5865,"жать":5866,"условные":5867,"ответные":5868,"строящихся":5869,"целост":5870,"подве":5871,"подобра":5872,"подряд":5873,"тунне":5874,"экран":5875,"трубе":5876,"жива":5877,"пересечения":5878,"пределы":5879,"твердо":5880,"трос":5881,"крыш":5882,"крыши":5883,"контролю":5884,"необходимая":5885,"автоматически":5886,"параметрами":5887,"надпи":5888,"проектный":5889,"положи":5890,"вводом":5891,"план":5892,"друг":5893,"измерение":5894,"способности":5895,"определять":5896,"комплексы":5897,"лотках":5898,"шая":5899,"прокладками":5900,"прокладываться":5901,"содержащей":5902,"комплектные":5903,"опы":5904,"отделки":5905,"разделе":5906,"сторону":5907,"основание":5908,"уровню":5909,"трав":5910,"сборе":5911,"устанавливаемых":5912,"показана":5913,"токси":5914,"расчетным":5915,"тарно":5916,"действующие":5917,"генерации":5918,"870":5919,"рекомендуемые":5920,"оператор":5921,"санитарные":5922,"информационных":5923,"информационные":5924,"требуемой":5925,"руководи":5926,"шкафу":5927,"297":5928,"трубопроводах":5929,"водопровода":5930,"трехфаз":5931,"лестница":5932,"различными":5933,"центробежный":5934,"многогран":5935,"тзнп":5936,"пакетах":5937,"вязкость":5938,"гарантировать":5939,"гарантирует":5940,"дорог":5941,"крепеж":5942,"ударов":5943,"программа":5944,"замки":5945,"обнаружения":5946,"559":5947,"нормальной":5948,"изолированной":5949,"несмы":5950,"квад":5951,"контроллеры":5952,"негорючий":5953,"складских":5954,"железобетонные":5955,"компонентов":5956,"аналогов":5957,"понижа":5958,"осевого":5959,"частоте":5960,"одножильных":5961,"горючести":5962,"заправочных":5963,"пружин":5964,"бумагу":5965,"тормоз":5966,"возврата":5967,"отлича":5968,"архитектурные":5969,"считать":5970,"центрифу":5971,"светильники":5972,"вертолетов":5973,"bus":5974,"каждый":5975,"трехслойные":5976,"поливинилхлорид":5977,"плунже":5978,".;":5979,"584":5980,"620":5981,"ad":5982,"st":5983,"uном":5984,"вносятся":5985,"диз":5986,"здоров":5987,"кн":5988,"угла":5989,"утеп":5990,"чков":5991,"шта":5992,"ья":5993,"эр":5994,"стек":5995,"наве":5996,"насе":5997,"рамы":5998,"потери":5999,"реконструи":6000,"гора":6001,"обме":6002,"нери":6003,"неметаллические":6004,"завер":6005,"отстро":6006,"руется":6007,"дефици":6008,"типу":6009,"массы":6010,"изну":6011,"пропи":6012,"стаби":6013,"лам":6014,"трещи":6015,"дату":6016,"мони":6017,"чий":6018,"разрешение":6019,"безопасного":6020,"сами":6021,"подвесных":6022,"расыва":6023,"методики":6024,"методике":6025,"электрощи":6026,"нормиру":6027,"тивное":6028,"град":6029,"правов":6030,"совмеще":6031,"кабельного":6032,"стойким":6033,"акз":6034,"актом":6035,"которую":6036,"положением":6037,"необходимое":6038,"лый":6039,"плав":6040,"плат":6041,"пласт":6042,"испытаниях":6043,"1603":6044,"генери":6045,"нефтегаз":6046,"видном":6047,"крана":6048,"допускаются":6049,"приложением":6050,"сварного":6051,"соответствующее":6052,"металлического":6053,"металлическая":6054,"низко":6055,"размещении":6056,"корпусы":6057,"опомех":6058,"ряды":6059,"открываться":6060,"высокой":6061,"расположены":6062,"дымо":6063,"дыха":6064,"принимаемый":6065,"обеспечена":6066,"страи":6067,"светов":6068,"174":6069,"формирование":6070,"двухфазного":6071,"составляющей":6072,"цвет":6073,"2700":6074,"информационной":6075,"ским":6076,"толщину":6077,"нпб":6078,"датчики":6079,"железных":6080,"обмотке":6081,"верхнее":6082,"персона":6083,"экрани":6084,"структури":6085,"этаж":6086,"круп":6087,"бытовой":6088,"бытового":6089,"участка":6090,"краской":6091,"запорную":6092,"уртэг":6093,"работоспособности":6094,"регулирующего":6095,"регулирующий":6096,"отделке":6097,"товарной":6098,"каналы":6099,"хозяйства":6100,"аспт":6101,"19281":6102,"радиопомех":6103,"перевозке":6104,"подтвержденных":6105,"низковольтного":6106,"контроллер":6107,"разруша":6108,"вспомогательные":6109,"удобство":6110,"контейнер":6111,"архи":6112,"утратив":6113,"вызыва":6114,"выбра":6115,"календарных":6116,"кодек":6117,"регистрация":6118,"оказать":6119,"связь":6120,"ситуаций":6121,"шестигранные":6122,"прокладок":6123,"независимый":6124,"турбины":6125,"подбором":6126,"алюминие":6127,"промысловых":6128,"уппв":6129,"несмываемой":6130,"дизе":6131,"изнутри":6132,"16037":6133,"%,":6134,"113":6135,"485":6136,"68":6137,"dbus":6138,"ei":6139,"tu":6140,"дх":6141,"ином":6142,"нм":6143,"нга":6144,"оре":6145,"оружа":6146,"опломби":6147,"пск":6148,"пгс":6149,"трак":6150,"тками":6151,"умом":6152,"увш":6153,"эски":6154,"поле":6155,"посту":6156,"редук":6157,"ченных":6158,"лебе":6159,"таря":6160,"запа":6161,"закрепление":6162,"лицен":6163,"отка":6164,"отказа":6165,"деформа":6166,"типо":6167,"дожде":6168,"сол":6169,"сооружа":6170,"проемы":6171,"пройти":6172,"спек":6173,"требование":6174,"выкид":6175,"сями":6176,"бето":6177,"чих":6178,"стоков":6179,"значи":6180,"раздели":6181,"сетча":6182,"оборудовать":6183,"дустри":6184,"ранних":6185,"подвода":6186,"подстанция":6187,"индустри":6188,"пересе":6189,"повор":6190,"эксплуати":6191,"настоящий":6192,"тивные":6193,"строительно":6194,"ционным":6195,"утвержденного":6196,"мую":6197,"ссылок":6198,"точках":6199,"использовании":6200,"1999":6201,"защитным":6202,"осуществить":6203,"комплектная":6204,"разделом":6205,"номинального":6206,"питанием":6207,"диафраг":6208,"регулирование":6209,"сварным":6210,"внешнему":6211,"образование":6212,"упак":6213,"мерз":6214,"наименований":6215,"ремонтного":6216,"защищенности":6217,"диаметры":6218,"выходов":6219,"чугу":6220,"противопожарными":6221,"режимов":6222,"толщине":6223,"влаги":6224,"патрубками":6225,"запасов":6226,"муфта":6227,"рассчитан":6228,"прямого":6229,"пакетов":6230,"фильтр":6231,"напорного":6232,"листовые":6233,"факел":6234,"высоту":6235,"достаточным":6236,"профилей":6237,"разрешен":6238,"временная":6239,"исключать":6240,"сварочные":6241,"сварочного":6242,"горело":6243,"стойкие":6244,"радио":6245,"скольжения":6246,"изысканий":6247,"экспертизе":6248,"нагрузкой":6249,"питьевая":6250,"протокол":6251,"перегородки":6252,"фоне":6253,"аппаратуры":6254,"оцинкованный":6255,"контактные":6256,"61131":6257,"совместно":6258,"другой":6259,"программируемые":6260,"бесшовные":6261,"инвентаря":6262,"освещенности":6263,"усилия":6264,"головкой":6265,"бокса":6266,"выделяться":6267,"ошинов":6268,"уровнемера":6269,"клеймо":6270,"затрат":6271,"изгиба":6272,"пункт":6273,"самостоятельное":6274,"наносить":6275,"17769":6276,"освидетельствования":6277,"сбрасыва":6278,"интегри":6279,"участву":6280,"квадра":6281,"реконструируемых":6282,"дхш":6283,"()":6284,"750":6285,"779":6286,"hart":6287,"ез":6288,"зм":6289,"иму":6290,"инер":6291,"кно":6292,"пля":6293,"сбере":6294,"упо":6295,"уха":6296,"утвержда":6297,"фла":6298,"хв":6299,"щем":6300,"щую":6301,"ящей":6302,"ренного":6303,"гономи":6304,"телю":6305,"засып":6306,"льва":6307,"отход":6308,"отключа":6309,"отдыха":6310,"дози":6311,"ляется":6312,"токи":6313,"ведом":6314,"пропа":6315,"сптп":6316,"оборо":6317,"боло":6318,"консо":6319,"щена":6320,"техническому":6321,"гальва":6322,"разры":6323,"сечением":6324,"ктной":6325,"ровке":6326,"строе":6327,"компа":6328,"индук":6329,"инфрак":6330,"полного":6331,"люк":6332,"люков":6333,"конструкцией":6334,"экзем":6335,"близи":6336,"1074":6337,"работку":6338,"ждении":6339,"грунтов":6340,"слеса":6341,"пищи":6342,"электрообогрева":6343,"проводят":6344,"цах":6345,"исполнений":6346,"емость":6347,"глад":6348,"градо":6349,"транспортной":6350,"1520":6351,"батаре":6352,"заводского":6353,"необходим":6354,"соединя":6355,"ителя":6356,"акты":6357,"параметр":6358,"измеря":6359,"назначенный":6360,"налив":6361,"трубопроводе":6362,"трубопроводом":6363,"приведенных":6364,"характеристиками":6365,"выполнен":6366,"выполнению":6367,"бир":6368,"составные":6369,"имеющие":6370,"имеющими":6371,"24297":6372,"защитными":6373,"потребля":6374,"деталями":6375,"оптических":6376,"внутреннему":6377,"кратков":6378,"соединениях":6379,"низконапор":6380,"скоб":6381,"открыто":6382,"задание":6383,"обеспечивается":6384,"миниму":6385,"длительно":6386,"261":6387,"расчетный":6388,"газоулов":6389,"габаритным":6390,"примечания":6391,"углом":6392,"подготовка":6393,"изменение":6394,"программному":6395,"колец":6396,"противопожарные":6397,"токовой":6398,"величин":6399,"локального":6400,"частотой":6401,"электроснабжение":6402,"физическим":6403,"отдельными":6404,"блокировки":6405,"дороги":6406,"подшипниковых":6407,"участке":6408,"напорной":6409,"продольными":6410,"теплового":6411,"периода":6412,"ковоспламеня":6413,"аварийных":6414,"гарантийного":6415,"серий":6416,"генераторах":6417,"клеммные":6418,"шириной":6419,"услугу":6420,"табличке":6421,"допустимой":6422,"чрп":6423,"аспс":6424,"радиус":6425,"нагрузка":6426,"вспомогательных":6427,"негорючих":6428,"оповещатели":6429,"звуков":6430,"расходо":6431,"крити":6432,"затворы":6433,"ударной":6434,"вагон":6435,"вагоны":6436,"легковоспламеня":6437,"пластового":6438,"глубина":6439,"посадочных":6440,"протекании":6441,"любым":6442,"углеводородов":6443,"тонколистовой":6444,"уклон":6445,"инвентар":6446,"возникновения":6447,"кодекс":6448,"газотурбинного":6449,"сероводорода":6450,"резервуаров":6451,"ответв":6452,"способами":6453,"горловины":6454,"предъявляемыми":6455,"пользова":6456,"моторного":6457,"движения":6458,"характера":6459,"чертежам":6460,"холоднокатаный":6461,"уточняется":6462,"лаборатори":6463,"неорганические":6464,"эргономи":6465,"лицензи":6466,"солне":6467,"дхшхв":6468,"фланец":6469,"ведомствен":6470,"гальвани":6471,"инфракрас":6472,"экземпля":6473,"кратковремен":6474,".);":6475,"1200":6476,"58":6477,"534":6478,":*":6479,"ap":6480,"fr":6481,"kv":6482,"mo":6483,"»)":6484,"»).":6485,"асинхро":6486,"бча":6487,"вв":6488,"всн":6489,"йной":6490,"мб":6491,"нному":6492,"сфере":6493,"стые":6494,"раство":6495,"рек":6496,"реактивной":6497,"чению":6498,"коне":6499,"кий":6500,"неско":6501,"невозможности":6502,"неразруша":6503,"камера":6504,"заготов":6505,"заключа":6506,"льца":6507,"лице":6508,"отру":6509,"тии":6510,"принад":6511,"присутств":6512,"избе":6513,"тообеспечения":6514,"щита":6515,"проката":6516,"проходя":6517,"паемых":6518,"треуголь":6519,"жел":6520,"вось":6521,"выбро":6522,"прегра":6523,"чиков":6524,"знаками":6525,"тыми":6526,"разряда":6527,"коммер":6528,"экстре":6529,"переме":6530,"работке":6531,"предельного":6532,"объё":6533,"объемом":6534,"установках":6535,"материалом":6536,"транше":6537,"электропитания":6538,"промывки":6539,"автоматических":6540,"автоматизация":6541,"стойкой":6542,"таблицах":6543,"продувки":6544,"надзо":6545,"собы":6546,"климатическим":6547,"производственный":6548,"точной":6549,"изготовителей":6550,"плавного":6551,"фазы":6552,"цент":6553,"приборами":6554,"определяет":6555,"противокоррозион":6556,"осушки":6557,"лотки":6558,"1995":6559,"защитной":6560,"питающих":6561,"применении":6562,"надежной":6563,"ограждение":6564,"соответствующими":6565,"спецификации":6566,"низконапорных":6567,"предназначенные":6568,"масло":6569,"массу":6570,"арматурой":6571,"опору":6572,"включающая":6573,"уплотня":6574,"министер":6575,"однотип":6576,"рассмотре":6577,"наружный":6578,"наружным":6579,"газообраз":6580,"газораздаточ":6581,"габаритами":6582,"машино":6583,"операции":6584,"паспортом":6585,"охранные":6586,"ящике":6587,"колеи":6588,"площадь":6589,"энергопринима":6590,"воздушная":6591,"6000":6592,"структур":6593,"оболочке":6594,"ответственные":6595,"текстовой":6596,"вязкости":6597,"ограничения":6598,"группов":6599,"программирования":6600,"горючих":6601,"эффектив":6602,"отверстиями":6603,"интервала":6604,"потенциально":6605,"нормальные":6606,"табличках":6607,"допустимого":6608,"восприятия":6609,"эстакад":6610,"чертежей":6611,"дренажа":6612,"асду":6613,"торцевых":6614,"планировочные":6615,"перегородок":6616,"высоты":6617,"резервирование":6618,"аналога":6619,"подземных":6620,"ation":6621,"предварительно":6622,"дифференциальная":6623,"погрешность":6624,"закреплена":6625,"полимерных":6626,"обечайки":6627,"суммар":6628,"входящая":6629,"манометры":6630,"лестничных":6631,"всасывания":6632,"срабатывании":6633,"стационарных":6634,"контролиру":6635,"рекомендованные":6636,"жизни":6637,"жизне":6638,"пенообразова":6639,"особенно":6640,"расширения":6641,"журна":6642,"потолки":6643,"номенклату":6644,"износо":6645,"продолжительность":6646,"нефтепродуктообеспечения":6647,"дросселирования":6648,"абсолютной":6649,"60446":6650,"тэои":6651,"инициа":6652,"скобках":6653,"324":6654,"322":6655,"475":6656,"800":6657,"ам":6658,"асту":6659,"адре":6660,"бд":6661,"бла":6662,"вло":6663,"вмести":6664,"гзш":6665,"дном":6666,"жц":6667,"ид":6668,"лв":6669,"модер":6670,"спаз":6671,"тках":6672,"фт":6673,"чрез":6674,"чную":6675,"шр":6676,"появ":6677,"рециркуля":6678,"леги":6679,"обработа":6680,"общей":6681,"тары":6682,"зах":6683,"зали":6684,"заку":6685,"дела":6686,"деформи":6687,"мало":6688,"рож":6689,"точен":6690,"прохода":6691,"паро":6692,"пары":6693,"мина":6694,"морозо":6695,"требованию":6696,"выча":6697,"выравнивания":6698,"бесто":6699,"метру":6700,"пес":6701,"рованию":6702,"знаком":6703,"газы":6704,"разгрузки":6705,"нове":6706,"новым":6707,"ровок":6708,"быст":6709,"быстро":6710,"циям":6711,"особо":6712,"рассе":6713,"полное":6714,"обез":6715,"ковый":6716,"106":6717,"шением":6718,"логический":6719,"проводом":6720,"нями":6721,"строительной":6722,"автоцистерны":6723,"проектироваться":6724,"1500":6725,"барь":6726,"ционному":6727,"правилам":6728,"заводов":6729,"блоке":6730,"муль":6731,"следующего":6732,"стойкого":6733,"органа":6734,"составленным":6735,"друга":6736,"информация":6737,"кранов":6738,"электрический":6739,"процеду":6740,"соответствующем":6741,"процессор":6742,"низким":6743,"устанавливаемой":6744,"максимальные":6745,"служить":6746,"вентиляционных":6747,"опорож":6748,"корпоративных":6749,"теплоизоляция":6750,"классов":6751,"кдфт":6752,"представлен":6753,"принимаются":6754,"обеспечивает":6755,"обеспечивающий":6756,"присоединений":6757,"случаев":6758,"наружу":6759,"рабочий":6760,"оборудовано":6761,"повышение":6762,"колесо":6763,"минимального":6764,"площадках":6765,"энергосбере":6766,"направля":6767,"равным":6768,"превышает":6769,"кровлю":6770,"различного":6771,"отсутствие":6772,"обмото":6773,"идентифици":6774,"непосредственным":6775,"стыков":6776,"сборочные":6777,"охлаждение":6778,"536":6779,"смесь":6780,"механизм":6781,"автомобилей":6782,"участки":6783,"достаточен":6784,"теплообменные":6785,"замком":6786,"жилые":6787,"замыкание":6788,"присоединительных":6789,"генераторами":6790,"учитывающий":6791,"расположенными":6792,"канализация":6793,"потенциала":6794,"концевых":6795,"двигателя":6796,"исключающие":6797,"метрологическое":6798,"интегра":6799,"оконча":6800,"нагревательных":6801,"хозяйствен":6802,"30245":6803,"гнутого":6804,"стоит":6805,"диапазон":6806,"торцевым":6807,"цистерн":6808,"негорючим":6809,"пунктов":6810,"свободно":6811,"сетям":6812,"днища":6813,"погрузка":6814,"оповещателей":6815,"подводом":6816,"критери":6817,"кожуха":6818,"пластовой":6819,"ing":6820,"программируемый":6821,"любого":6822,"разрабатываться":6823,"предоставлять":6824,"нюю":6825,"отсечка":6826,"винты":6827,"поперечными":6828,"сероводород":6829,"реаги":6830,"корректи":6831,"грузоподъемное":6832,"закладных":6833,"снега":6834,"неисправности":6835,"номинальные":6836,"kcu":6837,"упорные":6838,"потерь":6839,"сепарации":6840,"отсутствует":6841,"свидетельство":6842,"комфортабельная":6843,"17314":6844,"ликвидации":6845,"подобрать":6846,"центрифугированной":6847,"обмена":6848,"нефтегазод":6849,"11371":6850,"отказов":6851,"отходящих":6852,"несколько":6853,"энергопринимающих":6854,"асдуэ":6855,"астуэ":6856,"чрезвыча":6857,"426":6858,"em":6859,"tn":6860,"ау":6861,"азо":6862,"били":6863,"гли":6864,"грозо":6865,"зп":6866,"зры":6867,"зин":6868,"лова":6869,"лка":6870,"смен":6871,"смот":6872,"сдвига":6873,"тно":6874,"шну":6875,"ящие":6876,"носа":6877,"натя":6878,"напора":6879,"рациональ":6880,"рем":6881,"четы":6882,"гой":6883,"кали":6884,"заклеи":6885,"лись":6886,"отпуска":6887,"относятся":6888,"руба":6889,"рующей":6890,"депо":6891,"дой":6892,"ствер":6893,"прину":6894,"роствер":6895,"состоит":6896,"пропуск":6897,"минера":6898,"миуго":6899,"стабили":6900,"спло":6901,"жек":6902,"ускат":6903,"зону":6904,"воро":6905,"ворот":6906,"концов":6907,"техническую":6908,"знаку":6909,"гар":6910,"гами":6911,"разрядов":6912,"203":6913,"чапв":6914,"подтоварной":6915,"предпроектных":6916,"конструкционных":6917,"стоящих":6918,"суг":6919,"суль":6920,"предела":6921,"предельное":6922,"тому":6923,"установо":6924,"пусковой":6925,"троса":6926,"действовать":6927,"проектировать":6928,"основными":6929,"пуч":6930,"терм":6931,"005":6932,"актами":6933,"1294":6934,"схему":6935,"здании":6936,"размером":6937,"размерами":6938,"документально":6939,"климатическими":6940,"расчетных":6941,"производственными":6942,"проектно":6943,"характеристиках":6944,"давлении":6945,"противоды":6946,"планы":6947,"планов":6948,"выполненный":6949,"шари":6950,"шасси":6951,"газами":6952,"двускат":6953,"питающей":6954,"плотности":6955,"применены":6956,"оградительных":6957,"сварке":6958,"конструкциями":6959,"максимальных":6960,"корпусу":6961,"вентиляторов":6962,"включает":6963,"теплоснабжения":6964,"плите":6965,"высоконапор":6966,"нских":6967,"однофаз":6968,"присоедине":6969,"периметру":6970,"наружная":6971,"монтажной":6972,"классификации":6973,"решением":6974,"обращение":6975,"8724":6976,"механического":6977,"составляющая":6978,"выходной":6979,"инженерной":6980,"доступных":6981,"равномер":6982,"довод":6983,"отсутствия":6984,"обмотка":6985,"характериз":6986,"специальным":6987,"утечки":6988,"тележки":6989,"оболочка":6990,"сосуда":6991,"издания":6992,"модуля":6993,"комплексная":6994,"этажа":6995,"4640":6996,"реализу":6997,"организационной":6998,"запорно":6999,"теплообменных":7000,"горючие":7001,"электромагнитного":7002,"унифицированные":7003,"уплотнениями":7004,"коррозионностойкими":7005,"достаточной":7006,"нижний":7007,"нижнее":7008,"табличку":7009,"товаро":7010,"заземляющих":7011,"погружных":7012,"метрологические":7013,"уплотнительных":7014,"защищаемого":7015,"располагается":7016,"распространяется":7017,"резисти":7018,"подлежат":7019,"остры":7020,"лакокрасочным":7021,"периодические":7022,"гидроцилинд":7023,"планировочных":7024,"жесткость":7025,"жесткости":7026,"подвергну":7027,"перекачивающих":7028,"днях":7029,"шлейфа":7030,"фланцами":7031,"самозапуске":7032,"глубиной":7033,"пяти":7034,"цилиндрический":7035,"предохранительного":7036,"штампов":7037,"частота":7038,"другого":7039,"радиальной":7040,"опорами":7041,"облицовок":7042,"перевоору":7043,"замкнутого":7044,"проложенных":7045,"кожухотру":7046,"съемным":7047,"вахтового":7048,"перемещения":7049,"шлейфов":7050,"корректной":7051,"дежурного":7052,"функционирование":7053,"двустороннего":7054,"разгрузка":7055,"поверхностях":7056,"собранном":7057,"первичной":7058,"платиков":7059,"обшив":7060,"полномочий":7061,"твердых":7062,"целостности":7063,"руководителей":7064,"здоровья":7065,"стекло":7066,"населения":7067,"электрощитовой":7068,"персоналом":7069,"выбраны":7070,"modbus":7071,"восьмиуго":7072,"экстремальные":7073,"противокоррозионная":7074,"инициаторами":7075,"адрес":7076,"благо":7077,"лвж":7078,"рассеи":7079,"азота":7080,"принуди":7081,"сплош":7082,"противодым":7083,"кожухотрубча":7084,"восьмиугольного":7085,"115":7086,"114":7087,"4032":7088,"57":7089,"аопо":7090,"вле":7091,"вую":7092,"визи":7093,"дс":7094,"её":7095,"зме":7096,"иное":7097,"лвс":7098,"лзш":7099,"нтс":7100,"пч":7101,"плы":7102,"пнг":7103,"птво":7104,"пнев":7105,"ркой":7106,"рнт":7107,"срав":7108,"узо":7109,"урав":7110,"чте":7111,"ыде":7112,"нике":7113,"овой":7114,"нареза":7115,"растре":7116,"пос":7117,"поч":7118,"помех":7119,"чета":7120,"горения":7121,"мелки":7122,"лежи":7123,"косве":7124,"комиссии":7125,"кад":7126,"заряд":7127,"декла":7128,"типи":7129,"привяз":7130,"ляться":7131,"пами":7132,"данными":7133,"моно":7134,"морем":7135,"усов":7136,"емов":7137,"метров":7138,"виа":7139,"види":7140,"видах":7141,"стопор":7142,"разрешения":7143,"разъем":7144,"2091":7145,"жание":7146,"дуговой":7147,"расконсервацию":7148,"фио":7149,"жилы":7150,"переч":7151,"среднего":7152,"авз":7153,"щать":7154,"коробе":7155,"ционном":7156,"контролем":7157,"утвержденная":7158,"основная":7159,"основном":7160,"основную":7161,"003":7162,"стандартная":7163,"приведенным":7164,"плоские":7165,"следующими":7166,"18322":7167,"фаль":7168,"согласованию":7169,"рабочем":7170,"137":7171,"способу":7172,"имеет":7173,"нкпр":7174,"1477":7175,"2405":7176,"геологи":7177,"нефтепереработки":7178,"межпове":7179,"заземленной":7180,"5089":7181,"электрическую":7182,"сваркой":7183,"вентиляцию":7184,"конструктивной":7185,"ющаяся":7186,"открыва":7187,"ываются":7188,"приняты":7189,"принятые":7190,"упаковываться":7191,"обеспечиваться":7192,"8992":7193,"расчетная":7194,"наружное":7195,"газозаправочных":7196,"габаритов":7197,"ющимися":7198,"снабжены":7199,"состоять":7200,"состоящая":7201,"повышении":7202,"подразделом":7203,"резервный":7204,"полити":7205,"сигналы":7206,"водоподъем":7207,"энергоэффективности":7208,"локали":7209,"железные":7210,"общежи":7211,"тамбу":7212,"рассчитана":7213,"экранах":7214,"телефон":7215,"пожаротушением":7216,"модульного":7217,"большим":7218,"выключатель":7219,"всю":7220,"704":7221,"распределительной":7222,"автомобильный":7223,"файлов":7224,"эксперт":7225,"напорный":7226,"теплообменного":7227,"программе":7228,"турного":7229,"замка":7230,"катания":7231,"аварийное":7232,"каркас":7233,"искэ":7234,"присоединительным":7235,"вариантов":7236,"нижней":7237,"отделка":7238,"двигателями":7239,"прямоугольного":7240,"располагать":7241,"распространяющей":7242,"резисто":7243,"взрывоопасные":7244,"нулевого":7245,"креплением":7246,"пластинча":7247,"разрушение":7248,"преобразователи":7249,"днище":7250,"контейнера":7251,"16093":7252,"цепь":7253,"смазкой":7254,"оформляют":7255,"горловин":7256,"языки":7257,"гидравлическим":7258,"сетевой":7259,"сальниковой":7260,"подвижной":7261,"любые":7262,"уклоном":7263,"освещению":7264,"обечаек":7265,"сумма":7266,"календарная":7267,"выводах":7268,"первичные":7269,"exd":7270,"прекращена":7271,"рассчитывается":7272,"алгоритмов":7273,"электропроводки":7274,"гражданской":7275,"анкерных":7276,"противоаварийная":7277,"отработавших":7278,"твердость":7279,"тормозной":7280,"эскизы":7281,"поворот":7282,"имуще":7283,"экземпляре":7284,"избежание":7285,"выбросов":7286,"событий":7287,"особенностей":7288,"4759":7289,"свободностоящей":7290,"чрезвычайных":7291,"четыре":7292,"характеризу":7293,"товаросопроводи":7294,"противодымной":7295,"растрески":7296,"14771":7297,"51":7298,"el":7299,"tr":7300,"аосн":7301,"бра":7302,"вместо":7303,"ев":7304,"зде":7305,"нтт":7306,"рпр":7307,"сный":7308,"тному":7309,"уло":7310,"укомплект":7311,"упру":7312,"указывать":7313,"чь":7314,"нави":7315,"набор":7316,"рама":7317,"рены":7318,"чено":7319,"ченное":7320,"теплот":7321,"лета":7322,"оваку":7323,"ованным":7324,"общий":7325,"неот":7326,"одат":7327,"кажда":7328,"линию":7329,"ливне":7330,"отче":7331,"отрас":7332,"отбора":7333,"руло":7334,"приле":7335,"прикреп":7336,"сочета":7337,"токами":7338,"веро":7339,"веса":7340,"профиль":7341,"мину":7342,"мизации":7343,"ставить":7344,"ламе":7345,"трения":7346,"момента":7347,"вата":7348,"важных":7349,"ложения":7350,"боковой":7351,"концы":7352,"преимуще":7353,"щению":7354,"куэ":7355,"одино":7356,"рази":7357,"жаро":7358,"сел":7359,"ктс":7360,"указать":7361,"подстанций":7362,"раскат":7363,"ленными":7364,"полном":7365,"105":7366,"переключа":7367,"перегруз":7368,"перенапряжения":7369,"перегрузок":7370,"ждению":7371,"средой":7372,"корпу":7373,"ший":7374,"электрохими":7375,"электростанции":7376,"менем":7377,"автома":7378,"окси":7379,"база":7380,"бараба":7381,"ционными":7382,"автоматическом":7383,"кабельными":7384,"007":7385,"акп":7386,"параметрам":7387,"трубопроводу":7388,"трубопроводных":7389,"гребе":7390,"гревом":7391,"точка":7392,"проектные":7393,"полость":7394,"характеристике":7395,"крепи":7396,"прикаса":7397,"вводных":7398,"органы":7399,"учесть":7400,"выполненных":7401,"бивки":7402,"частью":7403,"прибора":7404,"лотков":7405,"защитно":7406,"содержания":7407,"деталь":7408,"возможных":7409,"районе":7410,"термина":7411,"номинальному":7412,"низкого":7413,"покрыть":7414,"устанавливаться":7415,"устанавливает":7416,"вариа":7417,"химические":7418,"мостиков":7419,"открытой":7420,"расположить":7421,"принятым":7422,"обеспечивающей":7423,"965":7424,"площади":7425,"толчков":7426,"газомоторного":7427,"габаритных":7428,"действующее":7429,"механической":7430,"диаметру":7431,"iii":7432,"говых":7433,"закрывания":7434,"программной":7435,"ящик":7436,"вакуумметры":7437,"минимально":7438,"минимальное":7439,"минимальную":7440,"функциональной":7441,"наличия":7442,"графической":7443,"графическое":7444,"трубопроводам":7445,"водоотве":7446,"эвакуационных":7447,"энергию":7448,"слоем":7449,"магнито":7450,"природной":7451,"нанесение":7452,"проверя":7453,"дополнительной":7454,"инструмент":7455,"взрывозащищенном":7456,"угол":7457,"многоступенча":7458,"секционный":7459,"модельные":7460,"приводной":7461,"избыточного":7462,"опирания":7463,"получи":7464,"получа":7465,"заполнения":7466,"дорогам":7467,"исполнением":7468,"достижения":7469,"крепежа":7470,"запорная":7471,"вертикальный":7472,"комплектующие":7473,"каркасу":7474,"заглуб":7475,"станциях":7476,"цилиндровые":7477,"ширины":7478,"оптического":7479,"555":7480,"меньше":7481,"колебаний":7482,"взрывобезопасность":7483,"создание":7484,"сброс":7485,"передви":7486,"кольц":7487,"устойчивости":7488,"дверях":7489,"протоколы":7490,"баланси":7491,"компримирования":7492,"дистанционный":7493,"параллельной":7494,"селектив":7495,"торцовых":7496,"фланцам":7497,"емкостный":7498,"проволо":7499,"симво":7500,"диагностирования":7501,"понижен":7502,"цифров":7503,"посадки":7504,"предохранительный":7505,"влияющих":7506,"гидравлических":7507,"сетевого":7508,"подключенных":7509,"модификационные":7510,"очереди":7511,"повторное":7512,"полимерным":7513,"любой":7514,"мановаку":7515,"микроклимата":7516,"специализированными":7517,"особен":7518,"вибрационная":7519,"неисправность":7520,"шестигранной":7521,"журнала":7522,"смонтированных":7523,"зазоры":7524,"исполнительный":7525,"складировании":7526,"смежных":7527,"эквивалентное":7528,"тягомеры":7529,"тягонапоромеры":7530,"54805":7531,"54806":7532,"идентификационное":7533,"спирально":7534,"накопления":7535,"мебель":7536,"теплоносителя":7537,"волокон":7538,"выражен":7539,"сверху":7540,"находящиеся":7541,"транспортируемой":7542,"автотранспор":7543,"отличаться":7544,"монитори":7545,"правовыми":7546,"структурированные":7547,"кодекса":7548,"ореб":7549,"лебед":7550,"звукового":7551,"критически":7552,"эргономические":7553,"коммерческого":7554,"машиностроения":7555,"деформированные":7556,"барьер":7557,"обмоточного":7558,"критерии":7559,"доводчи":7560,"уравнове":7561,"ыделением":7562,"межповерочного":7563,"здесь":7564,"теплоты":7565,"каждая":7566,"корпусом":7567,"216":7568,"230":7569,"43":7570,"700":7571,"839":7572,"co":7573,"con":7574,"for":7575,"iv":7576,"net":7577,"pa":7578,"sap":7579,"tro":7580,"ul":7581,"бск":7582,"вм":7583,"вблизи":7584,"дз":7585,"дней":7586,"еп":7587,"ех":7588,"еви":7589,"еду":7590,"земе":7591,"ит":7592,"имых":7593,"кран":7594,"моби":7595,"осей":7596,"тном":7597,"тэс":7598,"уве":7599,"фст":7600,"хру":7601,"шар":7602,"эла":7603,"эвм":7604,"нипу":7605,"прод":7606,"насы":7607,"наплы":7608,"разо":7609,"ранее":7610,"равен":7611,"помеха":7612,"построен":7613,"чена":7614,"меди":7615,"левых":7616,"ованные":7617,"овального":7618,"несоответств":7619,"одна":7620,"задейств":7621,"заяв":7622,"лидер":7623,"относя":7624,"рубе":7625,"ручных":7626,"тить":7627,"манипу":7628,"причи":7629,"сопря":7630,"вери":7631,"прочего":7632,"лаб":7633,"лаз":7634,"лого":7635,"ривания":7636,"уско":7637,"вый":7638,"выте":7639,"выведе":7640,"вынос":7641,"прези":7642,"тельном":7643,"рована":7644,"чист":7645,"204":7646,"сед":7647,"сения":7648,"седа":7649,"ровкой":7650,"оборудуется":7651,"диокси":7652,"саны":7653,"указанной":7654,"мым":7655,"цельно":7656,"подко":7657,"изготовленный":7658,"тую":7659,"инфра":7660,"председа":7661,"пожаров":7662,"пределом":7663,"грунт":7664,"следств":7665,"шина":7666,"настоящая":7667,"электронно":7668,"ходов":7669,"границ":7670,"транспорте":7671,"стене":7672,"стеновых":7673,"автогазозаправочных":7674,"необрабатыва":7675,"аккре":7676,"резких":7677,"управлением":7678,"опасными":7679,"элементом":7680,"документами":7681,"точного":7682,"ттэс":7683,"тря":7684,"предусмотренные":7685,"примесей":7686,"временем":7687,"металл":7688,"оголов":7689,"1370":7690,"способных":7691,"комплекты":7692,"всеми":7693,"140":7694,"245":7695,"шается":7696,"режиму":7697,"возможна":7698,"309":7699,"отдельной":7700,"23170":7701,"регуля":7702,"сборные":7703,"соответствующую":7704,"необходимый":7705,"атк":7706,"ряду":7707,"открывания":7708,"ывается":7709,"конструкторских":7710,"абрази":7711,"заданные":7712,"представления":7713,"факти":7714,"отключении":7715,"предусматривают":7716,"969":7717,"трансмисси":7718,"разработанные":7719,"решетча":7720,"проведение":7721,"опорных":7722,"количествен":7723,"оболочек":7724,"угловых":7725,"допустимая":7726,"говый":7727,"потребители":7728,"программных":7729,"ступенями":7730,"несущим":7731,"пыли":7732,"минимальная":7733,"этилен":7734,"герметичный":7735,"токоведу":7736,"материалах":7737,"величину":7738,"исключены":7739,"слоя":7740,"магнитных":7741,"магничивания":7742,"одежды":7743,"изготавливать":7744,"экраны":7745,"многолет":7746,"процессах":7747,"устойчивых":7748,"модельных":7749,"ответственных":7750,"получение":7751,"сплавы":7752,"сплавов":7753,"подачу":7754,"порядка":7755,"порядковый":7756,"классификатора":7757,"электромагнитным":7758,"расположенным":7759,"приспособлениями":7760,"оснащение":7761,"оснастить":7762,"котлов":7763,"термообработки":7764,"временное":7765,"меньшей":7766,"болтовое":7767,"статические":7768,"резиновые":7769,"повышенную":7770,"линейных":7771,"линейный":7772,"чертеж":7773,"дренажной":7774,"дренажная":7775,"интерфейс":7776,"периодичность":7777,"холода":7778,"аттестация":7779,"разрушения":7780,"законодатель":7781,"зажима":7782,"тяжелых":7783,"перегородками":7784,"вычислительная":7785,"короткое":7786,"дистанционного":7787,"оповещатель":7788,"складов":7789,"складского":7790,"отклонения":7791,"звуковой":7792,"цепях":7793,"второ":7794,"рассматрива":7795,"экономические":7796,"ударная":7797,"легко":7798,"приварку":7799,"литья":7800,"марше":7801,"10434":7802,"оформления":7803,"шкафах":7804,"сжигания":7805,"опорах":7806,"соблюдение":7807,"соблюдением":7808,"облицовка":7809,"модификационных":7810,"коридоров":7811,"концентрационный":7812,"манже":7813,"входящие":7814,"увеличение":7815,"иптл":7816,"регистрации":7817,"специализированной":7818,"уменьшения":7819,"связки":7820,"бронированные":7821,"рекомендованное":7822,"диспетчерского":7823,"геометрических":7824,"окрашиваемого":7825,"окрашиванию":7826,"компрессоров":7827,"турбогенераторов":7828,"двусторонним":7829,"компоненты":7830,"находиться":7831,"субъектов":7832,"отрицательно":7833,"kcv":7834,"розеток":7835,"бурение":7836,"массовой":7837,"одностороннего":7838,"пленкой":7839,"светоди":7840,"ition":7841,"кромки":7842,"жидкостные":7843,"погрузчики":7844,"одновременно":7845,"забив":7846,"углеродистой":7847,"поставочных":7848,"возникновении":7849,"содержащейся":7850,"прописаны":7851,"интегрируемого":7852,"потребляемой":7853,"принадле":7854,"министерства":7855,"групповой":7856,"пенообразователя":7857,"номенклатура":7858,"обезжи":7859,"термодат":7860,"штамповки":7861,"кожухотрубчатые":7862,"змееви":7863,"пневмати":7864,"типизации":7865,"фиолетов":7866,"13716":7867,"прилега":7868,"вариативности":7869,"мановакуумметры":7870,"особенности":7871,"уверенного":7872,"фстэк":7873,"хруп":7874,"шарни":7875,"разогрева":7876,"помехам":7877,"манипуля":7878,"президе":7879,"необрабатываемые":7880,"аккреди":7881,"термодатчиков":7882,"494":7883,"523":7884,"615":7885,"946":7886,"df":7887,"hf":7888,"iном":7889,"ob":7890,"rtu":7891,"σt":7892,"аии":7893,"авиа":7894,"бю":7895,"бру":7896,"вч":7897,"вдо":7898,"гси":7899,"дших":7900,"ейств":7901,"жё":7902,"жную":7903,"йпас":7904,"йке":7905,"йках":7906,"кч":7907,"мдс":7908,"оказывать":7909,"рп":7910,"рными":7911,"траз":7912,"умы":7913,"флю":7914,"хи":7915,"хов":7916,"шпу":7917,"эсте":7918,"нирования":7919,"ностей":7920,"пробок":7921,"наты":7922,"последующим":7923,"последующей":7924,"кома":7925,"ованными":7926,"обры":7927,"кис":7928,"неза":7929,"однор":7930,"качения":7931,"замок":7932,"лиде":7933,"отгрузки":7934,"дезин":7935,"створ":7936,"примыка":7937,"лять":7938,"ляются":7939,"сохранение":7940,"извле":7941,"торе":7942,"протек":7943,"проемов":7944,"минима":7945,"статических":7946,"треть":7947,"мого":7948,"валов":7949,"рительных":7950,"контур":7951,"печь":7952,"сточных":7953,"разных":7954,"значению":7955,"значением":7956,"енный":7957,"гип":7958,"проектов":7959,"указана":7960,"мые":7961,"подпор":7962,"поднима":7963,"подвес":7964,"тупы":7965,"полную":7966,"методику":7967,"переклю":7968,"переконсервации":7969,"2018":7970,"установкой":7971,"шеф":7972,"ключ":7973,"траншее":7974,"ственно":7975,"настоящему":7976,"настоящими":7977,"электротехнического":7978,"электропотребителей":7979,"электронном":7980,"тивный":7981,"граница":7982,"строительный":7983,"действии":7984,"баз":7985,"байпас":7986,"крыша":7987,"контрольного":7988,"совет":7989,"совпада":7990,"технологическому":7991,"параметрах":7992,"температурах":7993,"искро":7994,"приведения":7995,"необходимой":7996,"ступления":7997,"лыми":7998,"согласовании":7999,"бири":8000,"способностью":8001,"имеют":8002,"1696":8003,"газовый":8004,"газовыделением":8005,"разработка":8006,"генов":8007,"отдельным":8008,"родейств":8009,"233":8010,"основанием":8011,"терминала":8012,"сборка":8013,"50839":8014,"ографи":8015,"входные":8016,"специфи":8017,"низколе":8018,"наблюде":8019,"предназначенной":8020,"трубная":8021,"арматуре":8022,"вентиляцией":8023,"вентиляционного":8024,"нефтяного":8025,"слив":8026,"сливо":8027,"максимальному":8028,"открытые":8029,"доступом":8030,"принятия":8031,"сигнализа":8032,"обеспечен":8033,"обеспечивающая":8034,"обеспечивающее":8035,"используемый":8036,"решениями":8037,"предусматриваются":8038,"рамки":8039,"эксплуатационной":8040,"заказчик":8041,"разработать":8042,"формулы":8043,"буро":8044,"функциона":8045,"распорки":8046,"ультраз":8047,"освети":8048,"электроды":8049,"закрытие":8050,"газовая":8051,"изменении":8052,"подразделов":8053,"ящими":8054,"глух":8055,"глушения":8056,"площадью":8057,"противопожарный":8058,"герметичным":8059,"минпром":8060,"расстоянием":8061,"токовых":8062,"направлений":8063,"железным":8064,"проводится":8065,"покрытиям":8066,"вводами":8067,"руководящий":8068,"магнитного":8069,"воздушным":8070,"единицу":8071,"нижестоящих":8072,"справочных":8073,"идентификацию":8074,"дополнительного":8075,"антистати":8076,"утечек":8077,"физических":8078,"температурно":8079,"блокировка":8080,"количеством":8081,"приводного":8082,"каждое":8083,"53246":8084,"вязких":8085,"кругло":8086,"сплав":8087,"компози":8088,"антикоррозионной":8089,"антикоррозионное":8090,"горизонтальной":8091,"вертикальной":8092,"вертикальном":8093,"приспособлений":8094,"представляющих":8095,"казывает":8096,"коробка":8097,"энергетических":8098,"сертификата":8099,"каркасы":8100,"перекачивания":8101,"варианты":8102,"паровой":8103,"оптико":8104,"673":8105,"двигателей":8106,"трубами":8107,"временного":8108,"уплотнительные":8109,"нагревателя":8110,"резино":8111,"подлежащих":8112,"встроенным":8113,"самонареза":8114,"большей":8115,"козырек":8116,"несгора":8117,"стоимость":8118,"асбесто":8119,"кольце":8120,"законодательные":8121,"протокола":8122,"свобод":8123,"свайных":8124,"удобном":8125,"дистанционное":8126,"агрессивных":8127,"рассматриваемые":8128,"рассматриваемой":8129,"экономического":8130,"фона":8131,"хрома":8132,"параллельно":8133,"ударный":8134,"свойствам":8135,"грунтах":8136,"отношении":8137,"продолжение":8138,"предварительного":8139,"цилиндрической":8140,"включений":8141,"радиальных":8142,"одножильного":8143,"беспрепятств":8144,"землетря":8145,"сметы":8146,"швами":8147,"кожухи":8148,"винтами":8149,"закачки":8150,"запира":8151,"манометра":8152,"дискре":8153,"шлейфы":8154,"ent":8155,"реального":8156,"дежурном":8157,"вибрация":8158,"возникающие":8159,"функционирования":8160,"прокладочные":8161,"симметричным":8162,"импульсных":8163,"связанные":8164,"подвергаться":8165,"эквивалент":8166,"централизованных":8167,"накопитель":8168,"волоком":8169,"коробах":8170,"колонка":8171,"ограничивают":8172,"искробезопасная":8173,"заземлителей":8174,"тревоги":8175,"выверки":8176,"опытных":8177,"понижающих":8178,"отстройка":8179,"трещин":8180,"низкотемператур":8181,"утратившими":8182,"дождевой":8183,"сооружаемых":8184,"спектра":8185,"пересечении":8186,"ошиновки":8187,"пропарки":8188,"компакт":8189,"индуктивное":8190,"лицензию":8191,"газораздаточная":8192,"появления":8193,"захва":8194,"песча":8195,"быстродейств":8196,"интеграции":8197,"нефтегазодобы":8198,"пропускной":8199,"двускатная":8200,"острыми":8201,"рассеивания":8202,"лежит":8203,"геологических":8204,"локализации":8205,"четырех":8206,"вероят":8207,"гребенки":8208,"крепиться":8209,"мониторинга":8210,"уравновешен":8211,"несоответствий":8212,"председателя":8213,"следствие":8214,"принадлежности":8215,"манипуляционные":8216,"9467":8217,"аиис":8218,"вдоль":8219,"эстети":8220,"ультразву":8221,"антистатическим":8222,"самонарезающими":8223,"беспрепятственный":8224,"землетрясения":8225,"быстродейству":8226,"-(":8227,"289":8228,"59":8229,"535":8230,"527":8231,"577":8232,"990":8233,"hb":8234,"part":8235,"um":8236,"впа":8237,"вный":8238,"встык":8239,"дной":8240,"епп":8241,"знп":8242,"йкой":8243,"ксм":8244,"нность":8245,"опу":8246,"огов":8247,"опуск":8248,"пк":8249,"рр":8250,"скры":8251,"свой":8252,"сравне":8253,"тто":8254,"усть":8255,"шла":8256,"щсн":8257,"ящего":8258,"ноле":8259,"насти":8260,"напол":8261,"народ":8262,"наконе":8263,"поду":8264,"потоков":8265,"реагентов":8266,"левым":8267,"коор":8268,"копи":8269,"обрабатыва":8270,"зания":8271,"забо":8272,"заще":8273,"ликон":8274,"линоле":8275,"отме":8276,"дей":8277,"дение":8278,"тием":8279,"мастер":8280,"марку":8281,"допуск":8282,"допусков":8283,"приори":8284,"роу":8285,"соприкаса":8286,"токе":8287,"век":8288,"проле":8289,"стальная":8290,"далее":8291,"моста":8292,"силикон":8293,"вами":8294,"вает":8295,"риге":8296,"оборот":8297,"усн":8298,"бокс":8299,"ловые":8300,"вычисле":8301,"выпадения":8302,"конца":8303,"воде":8304,"бель":8305,"вита":8306,"вибро":8307,"чивание":8308,"стока":8309,"гале":8310,"развоз":8311,"разность":8312,"условный":8313,"ровку":8314,"безопасное":8315,"безопасную":8316,"гибель":8317,"осво":8318,"ослаб":8319,"мыми":8320,"цемент":8321,"подконтроль":8322,"расконсервации":8323,"изготовленных":8324,"ленном":8325,"инде":8326,"инфор":8327,"близ":8328,"10704":8329,"обозначены":8330,"ерным":8331,"единой":8332,"предельные":8333,"объему":8334,"рованное":8335,"правило":8336,"транса":8337,"электронных":8338,"парафи":8339,"норми":8340,"пускона":8341,"тивным":8342,"испыты":8343,"базы":8344,"автоматическим":8345,"устройстве":8346,"ителей":8347,"путе":8348,"стандартные":8349,"служа":8350,"размера":8351,"прямых":8352,"точный":8353,"снима":8354,"снижение":8355,"вводятся":8356,"органов":8357,"плане":8358,"выполненной":8359,"металлы":8360,"способов":8361,"имеющая":8362,"организова":8363,"определяемый":8364,"146":8365,"лотка":8366,"последств":8367,"ухуд":8368,"прокладкой":8369,"генераль":8370,"можно":8371,"сооружение":8372,"грузка":8373,"режимы":8374,"302":8375,"30494":8376,"выполняемых":8377,"выполняют":8378,"разделения":8379,"внутреннее":8380,"внутреннюю":8381,"основанию":8382,"уровнем":8383,"номинальном":8384,"диаго":8385,"инструкцию":8386,"краном":8387,"заземлении":8388,"объектами":8389,"электрическими":8390,"допускающих":8391,"соответствующий":8392,"влз":8393,"нормативной":8394,"предназначенного":8395,"установленный":8396,"трубных":8397,"показаний":8398,"служит":8399,"ское":8400,"скобы":8401,"60870":8402,"нефтяные":8403,"ждающих":8404,"ппк":8405,"максимальную":8406,"открытых":8407,"первого":8408,"расположении":8409,"сигнализацию":8410,"приниматься":8411,"принимаемая":8412,"однофазного":8413,"расчетам":8414,"газораспределения":8415,"газоанализа":8416,"света":8417,"ультра":8418,"рекомендуемый":8419,"рекомендуемыми":8420,"оперативно":8421,"операциях":8422,"опорные":8423,"предохран":8424,"вышедших":8425,"охранным":8426,"формируется":8427,"закрываются":8428,"несущей":8429,"ресивер":8430,"пыле":8431,"глубин":8432,"скин":8433,"инженерное":8434,"инженерными":8435,"герметичными":8436,"герметичностью":8437,"минтруда":8438,"минтранса":8439,"источники":8440,"равными":8441,"измерительная":8442,"превышающей":8443,"природные":8444,"приемосдаточных":8445,"проверку":8446,"дополнительный":8447,"дополнительную":8448,"запасных":8449,"галогенов":8450,"болтами":8451,"утепле":8452,"тележ":8453,"структура":8454,"многофазных":8455,"предоставлена":8456,"комплексной":8457,"отходами":8458,"7798":8459,"этапа":8460,"гарантируемых":8461,"соединительная":8462,"постоянным":8463,"антикоррозионным":8464,"горизонтали":8465,"горизонтальные":8466,"ручным":8467,"продольной":8468,"тепловые":8469,"независимых":8470,"которому":8471,"представляет":8472,"программы":8473,"компрессорное":8474,"унифицированных":8475,"присоединительной":8476,"чёт":8477,"расположенные":8478,"нижним":8479,"обнаружение":8480,"клеммная":8481,"ширину":8482,"нормальных":8483,"термометра":8484,"временной":8485,"погружении":8486,"погружной":8487,"скорост":8488,"договору":8489,"метрология":8490,"нормального":8491,"защищаемом":8492,"изолированных":8493,"встроенного":8494,"компенси":8495,"перекрытие":8496,"взрывоопасными":8497,"поддержива":8498,"нагрузках":8499,"проходов":8500,"парциа":8501,"независимой":8502,"регламента":8503,"дверь":8504,"периодической":8505,"стрел":8506,"разрушений":8507,"вспомогательного":8508,"позволяющий":8509,"зажимов":8510,"общественные":8511,"погрузку":8512,"непрерыв":8513,"подверженных":8514,"критических":8515,"балло":8516,"обвязка":8517,"32600":8518,"свойствами":8519,"приварные":8520,"поддержание":8521,"глубине":8522,"предварительной":8523,"осевым":8524,"стяжки":8525,"влияние":8526,"сальниковое":8527,"пускового":8528,"исслед":8529,"любых":8530,"вращающиеся":8531,"замкнутые":8532,"концентрации":8533,"минеральная":8534,"уменьшение":8535,"прилагаемые":8536,"перемещение":8537,"полиэтиленовым":8538,"ведомости":8539,"пеногенератор":8540,"счетчик":8541,"тнзнп":8542,"возникающее":8543,"архитектурно":8544,"геометрические":8545,"вытяжной":8546,"зазором":8547,"пункту":8548,"комбинированный":8549,"находится":8550,"резьбовые":8551,"субъекта":8552,"отрицательного":8553,"обруча":8554,"отдаленные":8555,"соблюдать":8556,"протяжен":8557,"связанных":8558,"кровельных":8559,"отпаренных":8560,"24054":8561,"дымовые":8562,"51364":8563,"утилизацией":8564,"пленки":8565,"высокочастот":8566,"растяжки":8567,"неагрессивных":8568,"прошедших":8569,"трехжильного":8570,"очередь":8571,"аэро":8572,"прикладыва":8573,"роликовым":8574,"прохождения":8575,"водонепроницаемой":8576,"импортных":8577,"аттестованным":8578,"артезианской":8579,"6134":8580,"сопровожда":8581,"надписи":8582,"углами":8583,"градусов":8584,"генерирующего":8585,"радиопомехи":8586,"редуктор":8587,"сетчатых":8588,"участвующих":8589,"квадратные":8590,"засыпка":8591,"серийный":8592,"солнечного":8593,"треугольником":8594,"желтого":8595,"журнал":8596,"вместимость":8597,"модернизации":8598,"закупаемых":8599,"калиб":8600,"гидроцилиндра":8601,"шлейфами":8602,"благополучи":8603,"мелким":8604,"экспертный":8605,"твердостью":8606,"минут":8607,"ламелей":8608,"преимущественно":8609,"задействованными":8610,"диоксида":8611,"законодательством":8612,"светодиод":8613,"аккредитова":8614,"команд":8615,"дезинфек":8616,"тупыми":8617,"буроопуск":8618,"нефтегазодобычи":8619,"впади":8620,"наконеч":8621,"коорди":8622,"защелки":8623,"линолеумом":8624,"приорите":8625,"развозка":8626,"подконтрольном":8627,"информати":8628,"пусконала":8629,"%)":8630,"(*.":8631,"026":8632,"2856":8633,"3184":8634,"512":8635,"518":8636,"516":8637,"724":8638,"8673":8639,"ab":8640,"bat":8641,"ch":8642,"ge":8643,"pro":8644,"pdf":8645,"блу":8646,"иной":8647,"ион":8648,"клем":8649,"оно":8650,"оро":8651,"остан":8652,"опуска":8653,"очная":8654,"рв":8655,"сные":8656,"свод":8657,"снов":8658,"собе":8659,"ская":8660,"счет":8661,"ткз":8662,"уф":8663,"успе":8664,"увеличи":8665,"фой":8666,"хз":8667,"хоп":8668,"чному":8669,"ште":8670,"ыду":8671,"эхз":8672,"ничной":8673,"нителем":8674,"намагничивания":8675,"поя":8676,"попу":8677,"поправо":8678,"последующего":8679,"лесов":8680,"конец":8681,"обальных":8682,"общую":8683,"ненных":8684,"недопустимо":8685,"недостаточной":8686,"таке":8687,"заправ":8688,"закрепления":8689,"задер":8690,"заноса":8691,"льность":8692,"отдели":8693,"цин":8694,"цикл":8695,"доля":8696,"допу":8697,"достов":8698,"притво":8699,"роген":8700,"ростроения":8701,"сок":8702,"тона":8703,"прого":8704,"процен":8705,"парти":8706,"стать":8707,"третий":8708,"дания":8709,"валь":8710,"жено":8711,"обозна":8712,"зонами":8713,"высту":8714,"вывести":8715,"гостех":8716,"водов":8717,"бен":8718,"способе":8719,"вице":8720,"куль":8721,"кустов":8722,"газом":8723,"гашения":8724,"гашение":8725,"разграни":8726,"серы":8727,"енных":8728,"рового":8729,"гильз":8730,"проекту":8731,"подклад":8732,"подстанции":8733,"матизм":8734,"ленное":8735,"комна":8736,"предше":8737,"предыду":8738,"1050":8739,"обозначением":8740,"провет":8741,"судов":8742,"пожарным":8743,"ключей":8744,"правильным":8745,"транзи":8746,"рабочу":8747,"сырых":8748,"шить":8749,"шинами":8750,"нефть":8751,"электросварные":8752,"проводки":8753,"проводок":8754,"определенные":8755,"определё":8756,"ходе":8757,"объектом":8758,"строительным":8759,"стени":8760,"стенах":8761,"стенами":8762,"испытаны":8763,"испытании":8764,"15180":8765,"заводские":8766,"сове":8767,"необходимую":8768,"блоком":8769,"климату":8770,"храни":8771,"назначенных":8772,"схо":8773,"документам":8774,"грев":8775,"приведенными":8776,"нального":8777,"формате":8778,"плоского":8779,"ствола":8780,"следующая":8781,"крем":8782,"метода":8783,"методов":8784,"снижении":8785,"орган":8786,"учетных":8787,"фазная":8788,"транспортировать":8789,"применяемое":8790,"взрывозащите":8791,"взрывонепроница":8792,"приборостроения":8793,"комплектом":8794,"1469":8795,"1940":8796,"защитная":8797,"нарушения":8798,"частиц":8799,"содержанием":8800,"деталях":8801,"комплектоваться":8802,"опс":8803,"скр":8804,"разделу":8805,"приемного":8806,"питающего":8807,"панелях":8808,"края":8809,"зависимой":8810,"регулировки":8811,"сварку":8812,"насосной":8813,"входному":8814,"изоляцию":8815,"устанавливаемые":8816,"размещенных":8817,"предназначено":8818,"образия":8819,"трубча":8820,"показателями":8821,"корпусных":8822,"опоре":8823,"хому":8824,"химический":8825,"открытым":8826,"частные":8827,"грузового":8828,"высоковоль":8829,"международ":8830,"принят":8831,"длительности":8832,"используемого":8833,"герметизирован":8834,"герметичные":8835,"эксплуатационного":8836,"трансмиссии":8837,"монтажными":8838,"разработан":8839,"формулам":8840,"классифици":8841,"фланцевого":8842,"решетки":8843,"активное":8844,"ремонту":8845,"трансформации":8846,"светового":8847,"механическую":8848,"обязан":8849,"предоставить":8850,"государственный":8851,"коэффициенты":8852,"охранных":8853,"связок":8854,"закрытого":8855,"газе":8856,"составляющих":8857,"изменением":8858,"резервные":8859,"резервным":8860,"ящикам":8861,"местный":8862,"колес":8863,"электродвигателе":8864,"принцип":8865,"измерениях":8866,"требуемого":8867,"площадка":8868,"воздействие":8869,"сооружениям":8870,"превышения":8871,"противопожарным":8872,"броска":8873,"владе":8874,"клеток":8875,"пресной":8876,"патрубка":8877,"вестибю":8878,"экране":8879,"электроснабжением":8880,"пакетами":8881,"секциони":8882,"устойчивые":8883,"модельному":8884,"53245":8885,"ограниче":8886,"поставлять":8887,"поставляемых":8888,"влажности":8889,"влажную":8890,"постоянных":8891,"антикоррозионную":8892,"вертикальная":8893,"приспособление":8894,"собственного":8895,"чувствительность":8896,"представлять":8897,"горючими":8898,"описанием":8899,"анализ":8900,"коробкам":8901,"числом":8902,"регулирующая":8903,"серия":8904,"эффективных":8905,"ровочных":8906,"коммуникациям":8907,"энергетики":8908,"горячее":8909,"горячеоцинкованный":8910,"указывает":8911,"линиям":8912,"оптической":8913,"подъемно":8914,"адге":8915,"рекомендациями":8916,"ёмкости":8917,"приводами":8918,"видами":8919,"месяц":8920,"нормально":8921,"технологиям":8922,"канале":8923,"располагаются":8924,"горелка":8925,"эстакада":8926,"нагрузку":8927,"линейного":8928,"квали":8929,"признаются":8930,"чертежи":8931,"магистра":8932,"низковольтное":8933,"дверям":8934,"контроллеров":8935,"стрелы":8936,"генераторные":8937,"базовый":8938,"компримированный":8939,"закупки":8940,"закупленной":8941,"трансформаторных":8942,"трансформаторная":8943,"обслуживанию":8944,"розничной":8945,"компенсаторов":8946,"отвечающих":8947,"параллельных":8948,"приточных":8949,"визуального":8950,"вагона":8951,"проволока":8952,"автономной":8953,"автономное":8954,"диагностировании":8955,"подъеме":8956,"эпидемиологическом":8957,"снятие":8958,"утверждёнными":8959,"соблюдении":8960,"скважиной":8961,"подвижного":8962,"модификационному":8963,"диспетче":8964,"шайб":8965,"административные":8966,"колонок":8967,"микроклимату":8968,"увеличения":8969,"принципиальные":8970,"принципиальный":8971,"принципиальная":8972,"фундаментные":8973,"запирания":8974,"поперечном":8975,"robat":8976,"двойным":8977,"определенного":8978,"17025":8979,"счетчики":8980,"глобальных":8981,"пространства":8982,"расшире":8983,"плиткой":8984,"независимым":8985,"первичных":8986,"дальнейшего":8987,"расцепителем":8988,"обрушений":8989,"соблюдаться":8990,"протяжении":8991,"выбранного":8992,"колодцы":8993,"колодцев":8994,"соединенных":8995,"месторождениях":8996,"уборку":8997,"предприятиями":8998,"спиральный":8999,"мебели":9000,"теплоизоляцию":9001,"трудовой":9002,"ориен":9003,"обусловить":9004,"конфигурации":9005,"отапливаемого":9006,"противоположной":9007,"наименьшие":9008,"газопоршневого":9009,"acrobat":9010,"отображение":9011,"выверка":9012,"выступать":9013,"травматизм":9014,"крепежом":9015,"пружинный":9016,"62053":9017,"adob":9018,"навесом":9019,"дефицита":9020,"совмещенная":9021,"архиви":9022,"опломбированы":9023,"индустриальные":9024,"диафрагмен":9025,"мерзлых":9026,"кноп":9027,"упомина":9028,"утверждаются":9029,"расходомер":9030,"легковоспламеняющиеся":9031,"гальванического":9032,"frls":9033,"структурное":9034,"3242":9035,"обработанные":9036,"морозоустойчивые":9037,"опорожнения":9038,"энергосбережении":9039,"окончания":9040,"аустени":9041,"минералова":9042,"стабилизации":9043,"подвергнуты":9044,"стеклопакетами":9045,"кадмирования":9046,"деклара":9047,"водоподъемной":9048,"навитые":9049,"пониженной":9050,"волоконно":9051,"contro":9052,"эласти":9053,"наплывов":9054,"верификация":9055,"лазерным":9056,"подкоса":9057,"трансмиссион":9058,"маршевые":9059,"52376":9060,"границах":9061,"совпадают":9062,"минпромтор":9063,"компактность":9064,"53561":9065,"диагонали":9066,"парциального":9067,"аэроион":9068,"благополучии":9069,"координаты":9070,"приоритетов":9071,"информатики":9072,"28567":9073,"31842":9074,"останова":9075,"фойе":9076,"штеке":9077,"такела":9078,"достовер":9079,"обозначить":9080,"гостехкомиссии":9081,"рабочую":9082,"adobe":9083,"упоминание":9084,"control":9085,"аэроионному":9086,"016":9087,"1100":9088,"260":9089,"284":9090,"280":9091,"2246":9092,"2174":9093,"4203":9094,"560":9095,"fi":9096,"ir":9097,"mp":9098,"ral":9099,"ºс":9100,"ано":9101,"аль":9102,"бс":9103,"встав":9104,"вкой":9105,"вступления":9106,"гж":9107,"дм":9108,"дна":9109,"дные":9110,"дзш":9111,"ед":9112,"жном":9113,"зован":9114,"ино":9115,"ира":9116,"иться":9117,"кусн":9118,"ллю":9119,"лые":9120,"мг":9121,"нце":9122,"нтп":9123,"оки":9124,"сви":9125,"сэк":9126,"сформа":9127,"снего":9128,"сменные":9129,"тля":9130,"тности":9131,"тную":9132,"уже":9133,"уще":9134,"укреп":9135,"увлаж":9136,"учте":9137,"цу":9138,"щу":9139,"эрози":9140,"элли":9141,"эмуль":9142,"стко":9143,"овых":9144,"прова":9145,"проби":9146,"нале":9147,"нало":9148,"нагру":9149,"набора":9150,"накло":9151,"навес":9152,"националь":9153,"пой":9154,"полей":9155,"покуп":9156,"посты":9157,"погло":9158,"мерами":9159,"мемб":9160,"овано":9161,"киус":9162,"нед":9163,"несе":9164,"неподвиж":9165,"заве":9166,"загра":9167,"запуска":9168,"завари":9169,"замер":9170,"запуск":9171,"задела":9172,"зарубе":9173,"оттяже":9174,"отработку":9175,"руемые":9176,"рующий":9177,"ручного":9178,"деэта":9179,"тин":9180,"мам":9181,"ствовать":9182,"проработки":9183,"сила":9184,"сибири":9185,"валы":9186,"ривание":9187,"зонирования":9188,"товые":9189,"воль":9190,"боков":9191,"выгру":9192,"выгрузка":9193,"конус":9194,"контра":9195,"консуль":9196,"преобразования":9197,"щелевых":9198,"кусти":9199,"кувн":9200,"кутн":9201,"ровая":9202,"чие":9203,"знача":9204,"разные":9205,"разрабаты":9206,"нового":9207,"енного":9208,"часа":9209,"условным":9210,"луча":9211,"душе":9212,"дуговых":9213,"указателя":9214,"подви":9215,"подлежит":9216,"ленности":9217,"туха":9218,"полным":9219,"предло":9220,"предлага":9221,"фир":9222,"перечис":9223,"поворо":9224,"2019":9225,"установи":9226,"транспо":9227,"среднее":9228,"средняя":9229,"электротехнических":9230,"электростанция":9231,"определению":9232,"окрас":9233,"испытательного":9234,"щихся":9235,"1516":9236,"заводским":9237,"технологичной":9238,"мотопо":9239,"торф":9240,"торной":9241,"стандарта":9242,"опасного":9243,"греющий":9244,"точных":9245,"проектными":9246,"приведенного":9247,"давлений":9248,"футе":9249,"футля":9250,"взле":9251,"следующую":9252,"горя":9253,"снижению":9254,"тяги":9255,"тящего":9256,"напряжен":9257,"напряжении":9258,"1815":9259,"фасо":9260,"фаса":9261,"согласовать":9262,"выполненным":9263,"выполненную":9264,"металлу":9265,"другу":9266,"применяемого":9267,"район":9268,"комплексов":9269,"166":9270,"144":9271,"системного":9272,"системное":9273,"противокоррозионной":9274,"шаги":9275,"190":9276,"1993":9277,"защитном":9278,"нефтегазового":9279,"сейсмостойкого":9280,"содержащее":9281,"возможного":9282,"скру":9283,"сквоз":9284,"раздельные":9285,"разделы":9286,"сторонах":9287,"устройствах":9288,"межгосударственный":9289,"приемный":9290,"плотного":9291,"заземлению":9292,"регулированием":9293,"процессы":9294,"сварной":9295,"сварная":9296,"входная":9297,"входную":9298,"наиболь":9299,"нормативов":9300,"установленное":9301,"вентиляционная":9302,"хоро":9303,"необходимым":9304,"включаются":9305,"606":9306,"нефтяная":9307,"категорию":9308,"выделения":9309,"прочност":9310,"конструктивно":9311,"плитами":9312,"случай":9313,"абс":9314,"задаво":9315,"заданного":9316,"обеспечивающим":9317,"используемое":9318,"макроклиматических":9319,"наружному":9320,"монтажный":9321,"газопровод":9322,"газопроводов":9323,"разработана":9324,"буфер":9325,"осуществляемой":9326,"оборудован":9327,"решеток":9328,"штуцерами":9329,"световой":9330,"проведению":9331,"операционная":9332,"оперативного":9333,"проектируемом":9334,"коэффициентов":9335,"поверены":9336,"планировка":9337,"закрытом":9338,"распределение":9339,"распределенная":9340,"подготовке":9341,"подготовленных":9342,"потребителям":9343,"санитарной":9344,"принципу":9345,"сигналом":9346,"площадками":9347,"холодной":9348,"293":9349,"организациями":9350,"водоподготовки":9351,"энергорайоне":9352,"климатом":9353,"изменяется":9354,"величине":9355,"руководством":9356,"зеле":9357,"общеобмен":9358,"обогревателя":9359,"нанесением":9360,"специальной":9361,"структурой":9362,"многокра":9363,"шенных":9364,"сосуд":9365,"модульная":9366,"сборочными":9367,"последовательно":9368,"справочный":9369,"блокировок":9370,"крутящего":9371,"строповых":9372,"соединительной":9373,"автомобильные":9374,"влажност":9375,"красный":9376,"внесены":9377,"постоянно":9378,"подаче":9379,"организационно":9380,"ручном":9381,"вертикальные":9382,"вертикально":9383,"капитальных":9384,"капитальный":9385,"периоды":9386,"ударами":9387,"месторождение":9388,"теплообменное":9389,"компрессорная":9390,"турных":9391,"коробках":9392,"умеренным":9393,"регулирующей":9394,"гарантийной":9395,"клеммным":9396,"опросный":9397,"очистку":9398,"9454":9399,"рекомендаций":9400,"концевые":9401,"временном":9402,"предотвраща":9403,"защищаемые":9404,"распространяющими":9405,"резиновой":9406,"радиографи":9407,"совместимости":9408,"передачу":9409,"экспертиза":9410,"экспертизу":9411,"тонне":9412,"передвиж":9413,"кварти":9414,"эмс":9415,"отношение":9416,"пластиката":9417,"железобетон":9418,"контроллера":9419,"торцевой":9420,"холодным":9421,"медным":9422,"ремонтопригодным":9423,"нагнетании":9424,"начале":9425,"переходных":9426,"вычислительные":9427,"заключение":9428,"свидетельств":9429,"отводом":9430,"смазка":9431,"козырьки":9432,"складе":9433,"автономными":9434,"железнодорожные":9435,"четкость":9436,"пульт":9437,"обоснованные":9438,"10495":9439,"пластовых":9440,"замыканиях":9441,"сжижен":9442,"совместного":9443,"другое":9444,"допустимый":9445,"своевременное":9446,"наземных":9447,"заправочная":9448,"углеводородных":9449,"отметке":9450,"сметная":9451,"контура":9452,"буквы":9453,"усилие":9454,"усилий":9455,"головки":9456,"головка":9457,"микропроцессор":9458,"размещаться":9459,"размещаемые":9460,"отсека":9461,"отказе":9462,"ошибок":9463,"пломбируются":9464,"алгоритм":9465,"1311500":9466,"бумагой":9467,"вторичных":9468,"вторичного":9469,"стационарные":9470,"жилого":9471,"торможения":9472,"резервуара":9473,"укладки":9474,"пространство":9475,"скоростью":9476,"отражены":9477,"прекращение":9478,"номинальных":9479,"расцепителя":9480,"расцепителями":9481,"загрязнение":9482,"загрязнений":9483,"карби":9484,"соблюдая":9485,"бурением":9486,"выбранных":9487,"разгрузку":9488,"характеру":9489,"коммутационных":9490,"целесообразности":9491,"реактора":9492,"камерными":9493,"гражданс":9494,"сертифицированные":9495,"сертифицированными":9496,"смещение":9497,"обшивки":9498,"неагрессивной":9499,"трехжильных":9500,"единицами":9501,"подписями":9502,"конфигури":9503,"отапливаемых":9504,"стеллажей":9505,"противоаварийной":9506,"металлорукава":9507,"контейнеры":9508,"контейнеров":9509,"втулки":9510,"прохождении":9511,"свариваются":9512,"водонепроницаемую":9513,"артезианских":9514,"автотрансформа":9515,"травления":9516,"токсичных":9517,"лестницам":9518,"утепленных":9519,"трещины":9520,"световое":9521,"индустриальных":9522,"горелочных":9523,"сбрасыванием":9524,"упоры":9525,"консоли":9526,"строений":9527,"слесарных":9528,"батарея":9529,"минимум":9530,"ведомственной":9531,"инфракрасный":9532,"раствора":9533,"перемещать":9534,"траншеи":9535,"траншеях":9536,"центровки":9537,"жизнеобеспечения":9538,"зрыво":9539,"заклеиваются":9540,"установочные":9541,"равномерно":9542,"перевооружения":9543,"обшивка":9544,"11447":9545,"косвенным":9546,"привязки":9547,"открывающиеся":9548,"политики":9549,"резистор":9550,"exdii":9551,"неотъем":9552,"ливневых":9553,"отрасле":9554,"рулонный":9555,"электрохимического":9556,"кольцо":9557,"автотранспорта":9558,"барьерной":9559,"доводчики":9560,"насыще":9561,"заявленной":9562,"лидерной":9563,"вытесни":9564,"количественные":9565,"многолетне":9566,"брутто":9567,"жёстко":9568,"шпунт":9569,"лидера":9570,"минимальные":9571,"ключом":9572,"низколеги":9573,"свободный":9574,"аиискуэ":9575,"28919":9576,"сравнению":9577,"устье":9578,"галере":9579,"освоения":9580,"утеплены":9581,"впадин":9582,"пусконаладочные":9583,"уфг":9584,"успеш":9585,"прогонам":9586,"партии":9587,"разграничения":9588,"взрывонепроницаемая":9589,"минпромторга":9590,"сэкв":9591,"ущер":9592,"учтены":9593,"эллип":9594,"зарубежных":9595,"оттяжек":9596,"деэтанизации":9597,"выгружать":9598,"консульта":9599,"разрабатывать":9600,"общеобменной":9601,"-,":9602,"112":9603,"12000":9604,"565":9605,"567":9606,"62":9607,"614":9608,"ag":9609,"dat":9610,"ee":9611,"ol":9612,"re":9613,"tp":9614,"up":9615,"аз":9616,"апроби":9617,"акусти":9618,"бре":9619,"буров":9620,"втора":9621,"вшим":9622,"дб":9623,"дже":9624,"дное":9625,"дгр":9626,"езда":9627,"ечных":9628,"жгу":9629,"зве":9630,"иллю":9631,"йные":9632,"йча":9633,"лнд":9634,"ожи":9635,"ому":9636,"пэвм":9637,"роб":9638,"рным":9639,"рнм":9640,"спа":9641,"тсп":9642,"трасс":9643,"участи":9644,"упоря":9645,"удер":9646,"шпс":9647,"шсв":9648,"ывания":9649,"эсн":9650,"яд":9651,"яру":9652,"ёма":9653,"нома":9654,"наход":9655,"наклад":9656,"намере":9657,"набивки":9658,"раму":9659,"поры":9660,"посторон":9661,"полям":9662,"показывает":9663,"ревиз":9664,"регенерации":9665,"ревизи":9666,"чешу":9667,"теров":9668,"кони":9669,"коман":9670,"общим":9671,"обработку":9672,"обработке":9673,"ненные":9674,"неселек":9675,"негабаритных":9676,"катов":9677,"кант":9678,"кавита":9679,"тару":9680,"табло":9681,"тарей":9682,"запора":9683,"отных":9684,"относится":9685,"отсоединение":9686,"руко":9687,"рующим":9688,"цик":9689,"маке":9690,"долей":9691,"приготов":9692,"ляемого":9693,"розов":9694,"социа":9695,"изобра":9696,"тое":9697,"топ":9698,"прож":9699,"проу":9700,"проплав":9701,"проез":9702,"парка":9703,"стая":9704,"стальными":9705,"лампа":9706,"тремя":9707,"спус":9708,"дата":9709,"данной":9710,"сибир":9711,"вающих":9712,"менными":9713,"зости":9714,"долгов":9715,"рыча":9716,"консист":9717,"тельностью":9718,"безавари":9719,"метрах":9720,"печи":9721,"куля":9722,"кустовой":9723,"знаков":9724,"гах":9725,"развод":9726,"значении":9727,"серо":9728,"сенома":9729,"условных":9730,"строй":9731,"проектам":9732,"дую":9733,"дубли":9734,"сах":9735,"подряда":9736,"подроб":9737,"изготовленным":9738,"спец":9739,"тупи":9740,"полю":9741,"методикой":9742,"керами":9743,"обесто":9744,"ковое":9745,"близости":9746,"зии":9747,"жила":9748,"перераспределения":9749,"нуме":9750,"грузом":9751,"установками":9752,"шению":9753,"коря":9754,"пище":9755,"женными":9756,"электроотопления":9757,"электроосвещения":9758,"электрооборудованию":9759,"электрооборудовании":9760,"электроприводом":9761,"электроосвещению":9762,"электросетевого":9763,"электрогенераторные":9764,"нятия":9765,"определены":9766,"определении":9767,"менедже":9768,"ходить":9769,"главная":9770,"строительными":9771,"транспортного":9772,"стенок":9773,"трой":9774,"промышленность":9775,"батарей":9776,"изготовлена":9777,"кабельное":9778,"стойках":9779,"основному":9780,"порта":9781,"терна":9782,"002":9783,"продукты":9784,"122":9785,"транспортировки":9786,"опасные":9787,"элементной":9788,"собира":9789,"климатической":9790,"исчис":9791,"точным":9792,"ттр":9793,"приведенное":9794,"положению":9795,"трь":9796,"предусмотренных":9797,"примеси":9798,"метана":9799,"ющегося":9800,"триэтилен":9801,"163":9802,"1400":9803,"шаровых":9804,"197":9805,"частично":9806,"частицы":9807,"выполняет":9808,"внутренним":9809,"устройствам":9810,"термической":9811,"трамб":9812,"плотностью":9813,"853":9814,"заземлены":9815,"допускаемое":9816,"регулировке":9817,"ограждений":9818,"помещениям":9819,"носит":9820,"ростехнадзо":9821,"покрытые":9822,"размещением":9823,"вентили":9824,"образца":9825,"образцах":9826,"трубные":9827,"вентиляционной":9828,"вентилятором":9829,"необходимыми":9830,"60204":9831,"воздействиям":9832,"теплопередаче":9833,"теплообмена":9834,"теплоустойчивых":9835,"плиту":9836,"ппд":9837,"открывание":9838,"открытие":9839,"22853":9840,"коррозионного":9841,"коррозионное":9842,"частями":9843,"высоких":9844,"высокую":9845,"междуфазных":9846,"первую":9847,"заданным":9848,"заданный":9849,"упаковываются":9850,"фактических":9851,"постановлений":9852,"длину":9853,"809":9854,"одноцеп":9855,"герметиков":9856,"присоединением":9857,"34233":9858,"рамное":9859,"расчетах":9860,"страции":9861,"силовыми":9862,"газоконденса":9863,"формула":9864,"нген":9865,"решению":9866,"ющимся":9867,"средствах":9868,"трансформатором":9869,"8713":9870,"механическому":9871,"защищенными":9872,"проектируемые":9873,"государственного":9874,"допустима":9875,"гового":9876,"отуа":9877,"закрываться":9878,"закрывании":9879,"потребителя":9880,"потребителями":9881,"программные":9882,"273":9883,"выходом":9884,"выходящими":9885,"подразделами":9886,"резервная":9887,"резервное":9888,"санитарных":9889,"информационный":9890,"обязательно":9891,"принципами":9892,"сохраня":9893,"наличием":9894,"скими":9895,"графики":9896,"клапанам":9897,"холлах":9898,"сооружениями":9899,"противопожарном":9900,"броня":9901,"водогре":9902,"изменяться":9903,"каждую":9904,"трехобмоточного":9905,"проводимые":9906,"общества":9907,"магнитному":9908,"обмотками":9909,"авария":9910,"клея":9911,"нанесенным":9912,"этому":9913,"дополнительным":9914,"дополнительному":9915,"муфтами":9916,"взаим":9917,"взаимо":9918,"централи":9919,"цнсз":9920,"детализации":9921,"изготавливаемые":9922,"оболочку":9923,"шенные":9924,"модульных":9925,"физические":9926,"физической":9927,"относительной":9928,"относительное":9929,"охлади":9930,"охлажда":9931,"моделей":9932,"модельный":9933,"приводить":9934,"приводится":9935,"извещателям":9936,"ограждающим":9937,"заполнить":9938,"поставляемое":9939,"щегося":9940,"разборной":9941,"4666":9942,"добычу":9943,"металлопроката":9944,"подаваемой":9945,"реализова":9946,"организацией":9947,"продольная":9948,"продольном":9949,"дероб":9950,"выдержку":9951,"катало":9952,"аварийном":9953,"уплотнениям":9954,"коммуникациями":9955,"энергетического":9956,"горячедеформированные":9957,"вижу":9958,"канализа":9959,"присоединяются":9960,"молниеприем":9961,"полам":9962,"9493":9963,"пробным":9964,"разреша":9965,"термостойкими":9966,"видам":9967,"исключает":9968,"болтовых":9969,"прямоугольный":9970,"конденсато":9971,"сварочная":9972,"оценкой":9973,"нагревательные":9974,"канал":9975,"территорий":9976,"изолирующих":9977,"охраной":9978,"создаваемые":9979,"самонесу":9980,"перекрытий":9981,"эстакадах":9982,"копия":9983,"повышенным":9984,"смазо":9985,"гофр":9986,"предустанов":9987,"питьевой":9988,"пластин":9989,"диапазона":9990,"напоре":9991,"напором":9992,"торцевые":9993,"торцевое":9994,"периодических":9995,"периодическое":9996,"медных":9997,"вспомогательное":9998,"генераторного":9999,"тяжелыми":10000,"усиленная":10001,"перегородках":10002,"базового":10003,"вычислительных":10004,"региона":10005,"жестких":10006,"погрузке":10007,"обслуживаемой":10008,"предупреждению":10009,"агрессив":10010,"потолкам":10011,"расходов":10012,"экономической":10013,"равнивание":10014,"магистральной":10015,"склада":10016,"ударным":10017,"проволок":10018,"автономная":10019,"подземной":10020,"подземная":10021,"диагностики":10022,"распространение":10023,"обоснование":10024,"поршневого":10025,"осевых":10026,"предохранительных":10027,"сжига":10028,"учёта":10029,"совместной":10030,"допустимым":10031,"подогревом":10032,"колпа":10033,"сетевые":10034,"сальниковые":10035,"заправочные":10036,"подключенной":10037,"модификационный":10038,"протекающий":10039,"повторных":10040,"маркировочных":10041,"любое":10042,"вращающихся":10043,"фиксатором":10044,"сметной":10045,"концентрация":10046,"управляющих":10047,"разрабатываются":10048,"размещаемого":10049,"входящего":10050,"ess":10051,"увеличить":10052,"ошиб":10053,"аналогичных":10054,"аналогично":10055,"перемещением":10056,"клейме":10057,"затраты":10058,"ситуациях":10059,"ответными":10060,"изгиб":10061,"возникающих":10062,"диспетчерское":10063,"турбина":10064,"фонд":10065,"зазор":10066,"динамические":10067,"расчёт":10068,"исполнительных":10069,"первичного":10070,"складирование":10071,"дальнейшая":10072,"отража":10073,"разъемы":10074,"компрессорные":10075,"комбинированными":10076,"резьбовым":10077,"аккумуляторной":10078,"полови":10079,"одинарным":10080,"кровельные":10081,"подвергают":10082,"edition":10083,"сжатым":10084,"дымовой":10085,"целесообразно":10086,"51320":10087,"вшем":10088,"уборочного":10089,"надземной":10090,"упаковочный":10091,"односторонним":10092,"смещения":10093,"массовая":10094,"герметизирующего":10095,"подшипникам":10096,"сдво":10097,"прокладываемых":10098,"оптимальным":10099,"комфортабельной":10100,"кронштейне":10101,"подпиточной":10102,"транспортируемая":10103,"взаимодействие":10104,"штабеле":10105,"покрова":10106,"стеллажа":10107,"нержавеющие":10108,"противоположных":10109,"центральный":10110,"поставочного":10111,"декоративно":10112,"декоративным":10113,"сопровождение":10114,"подрядчик":10115,"крышек":10116,"токсичности":10117,"трехфазной":10118,"дымоудаления":10119,"трактор":10120,"западно":10121,"бетонные":10122,"чугун":10123,"змн":10124,"дозирования":10125,"обороны":10126,"грунтовых":10127,"градостроительный":10128,"низконапорные":10129,"низконапорного":10130,"серийно":10131,"инвентарные":10132,"уплотняемой":10133,"рециркуляции":10134,"легированные":10135,"заливкой":10136,"мульти":10137,"глико":10138,"сменных":10139,"ростверка":10140,"ворота":10141,"гардероб":10142,"шарико":10143,"высоконапорные":10144,"сплошными":10145,"сравнитель":10146,"товаросопроводительную":10147,"растрескивание":10148,"уложены":10149,"автоматы":10150,"абразивные":10151,"токоведущих":10152,"манжеты":10153,"кислот":10154,"одноряд":10155,"извлека":10156,"16962":10157,"специфики":10158,"наблюдения":10159,"вычислений":10160,"ультрафиолетов":10161,"глубину":10162,"стрелкой":10163,"вместимостью":10164,"дезинфекции":10165,"наконечник":10166,"abl":10167,"блуждающих":10168,"поправок":10169,"статьи":10170,"кустовых":10171,"гильзы":10172,"вестибюлях":10173,"адгезии":10174,"заделаны":10175,"транспози":10176,"взлетной":10177,"вытеснителя":10178,"апробированных":10179,"вторая":10180,"жгуте":10181,"иллюстрации":10182,"упорядо":10183,"ревизию":10184,"чешуйча":10185,"команде":10186,"кантовать":10187,"макетов":10188,"лампами":10189,"сибирского":10190,"консистен":10191,"%-":10192,"))":10193,")),":10194,"025":10195,"040":10196,"210":10197,"215":10198,"225":10199,"350":10200,"528":10201,"720":10202,"861":10203,"900":10204,"],":10205,"as":10206,"cabl":10207,"met":10208,"of":10209,"qu":10210,"sul":10211,"tин":10212,"un":10213,"ауте":10214,"вное":10215,"введе":10216,"встраи":10217,"вследствие":10218,"гз":10219,"добо":10220,"днс":10221,"днее":10222,"ечные":10223,"жно":10224,"жкой":10225,"зр":10226,"зрительных":10227,"исти":10228,"иного":10229,"иными":10230,"ивать":10231,"исхо":10232,"мпс":10233,"нё":10234,"нта":10235,"нди":10236,"офи":10237,"остальные":10238,"опроб":10239,"рщ":10240,"рё":10241,"рни":10242,"рпн":10243,"сдела":10244,"скорректи":10245,"тч":10246,"тот":10247,"тсн":10248,"укры":10249,"усом":10250,"хла":10251,"цп":10252,"чле":10253,"чти":10254,"чок":10255,"шек":10256,"штор":10257,"щё":10258,"ясь":10259,"нителя":10260,"пробо":10261,"раме":10262,"расплав":10263,"ниях":10264,"последующих":10265,"рель":10266,"реду":10267,"резона":10268,"ченной":10269,"тен":10270,"тера":10271,"темати":10272,"лемой":10273,"котельной":10274,"обыва":10275,"обработка":10276,"нении":10277,"непред":10278,"недопустимых":10279,"неопределен":10280,"нешта":10281,"небольшим":10282,"негерметизирован":10283,"одов":10284,"каби":10285,"тали":10286,"зале":10287,"заде":10288,"засо":10289,"зава":10290,"забор":10291,"запроектировать":10292,"заложения":10293,"лиш":10294,"листу":10295,"отбо":10296,"отгрузо":10297,"отстраи":10298,"масел":10299,"математи":10300,"донь":10301,"привари":10302,"приводы":10303,"приёма":10304,"сохранения":10305,"тографи":10306,"венные":10307,"щин":10308,"щитов":10309,"пропор":10310,"прогрева":10311,"проникнов":10312,"прогиб":10313,"происхо":10314,"паровая":10315,"стар":10316,"сталли":10317,"спу":10318,"лона":10319,"ложного":10320,"ризации":10321,"рители":10322,"ускоря":10323,"волок":10324,"концах":10325,"пребы":10326,"воду":10327,"белый":10328,"технически":10329,"петель":10330,"печей":10331,"пенди":10332,"чисел":10333,"стол":10334,"столовых":10335,"гара":10336,"разности":10337,"разряд":10338,"серой":10339,"сечений":10340,"условием":10341,"ответного":10342,"дить":10343,"диск":10344,"луч":10345,"было":10346,"проекте":10347,"осрв":10348,"саль":10349,"мый":10350,"защитить":10351,"подпо":10352,"подоб":10353,"поддо":10354,"подразряда":10355,"обер":10356,"103":10357,"108":10358,"1079":10359,"трудо":10360,"перевод":10361,"пересечение":10362,"единым":10363,"работок":10364,"работой":10365,"ительные":10366,"произво":10367,"производителя":10368,"предельных":10369,"установления":10370,"установлена":10371,"онного":10372,"фери":10373,"рованном":10374,"рованную":10375,"среднеагрессивной":10376,"щаться":10377,"пир":10378,"плении":10379,"женщин":10380,"электронной":10381,"проводниками":10382,"проводятся":10383,"пуском":10384,"ходит":10385,"грави":10386,"автозаправочная":10387,"федеральному":10388,"тросо":10389,"промышленные":10390,"156":10391,"15140":10392,"бами":10393,"крышка":10394,"крыльца":10395,"заводскими":10396,"блочные":10397,"технологичность":10398,"торных":10399,"торца":10400,"0000":10401,"00220":10402,"актов":10403,"надлежа":10404,"надреза":10405,"назначенного":10406,"12969":10407,"элементу":10408,"элементам":10409,"элементах":10410,"производственная":10411,"иско":10412,"испа":10413,"точное":10414,"приведенные":10415,"полосы":10416,"полосами":10417,"нально":10418,"нальным":10419,"земля":10420,"снижа":10421,"снизу":10422,"вводного":10423,"вводное":10424,"вводится":10425,"органами":10426,"метано":10427,"пласта":10428,"составлении":10429,"применяемым":10430,"136":10431,"закону":10432,"имеющего":10433,"определяемого":10434,"работать":10435,"16110":10436,"всегда":10437,"1484":10438,"системный":10439,"2479":10440,"узле":10441,"шах":10442,"защитную":10443,"осуществлении":10444,"нарушение":10445,"потребляемая":10446,"изолона":10447,"возможные":10448,"комплектной":10449,"апк":10450,"3085":10451,"3076":10452,"отдельного":10453,"трендов":10454,"изготовителями":10455,"оснований":10456,"грузозахва":10457,"плотную":10458,"информацией":10459,"сборных":10460,"допускающими":10461,"типовая":10462,"соответствующему":10463,"входным":10464,"изоляционного":10465,"металлическим":10466,"металлическую":10467,"низких":10468,"устанавливаемое":10469,"размещены":10470,"размещенную":10471,"предназначенными":10472,"безотказ":10473,"образных":10474,"образной":10475,"сроком":10476,"показатель":10477,"теплота":10478,"теплоотда":10479,"открытого":10480,"коррозионных":10481,"коррозионные":10482,"высоким":10483,"шину":10484,"перво":10485,"перметр":10486,"перпенди":10487,"значениям":10488,"значениях":10489,"агрегатом":10490,"задаются":10491,"упаковыва":10492,"упаковывать":10493,"принимаемых":10494,"обеспечивающего":10495,"минимизации":10496,"видео":10497,"длин":10498,"однофазных":10499,"зданиям":10500,"наружном":10501,"газопотребления":10502,"габаритам":10503,"смр":10504,"провести":10505,"фланцевыми":10506,"решении":10507,"обратный":10508,"образная":10509,"жидкое":10510,"давлениях":10511,"моски":10512,"воздухов":10513,"опорно":10514,"опорная":10515,"проектируемой":10516,"включением":10517,"объемных":10518,"объемный":10519,"коэффициентом":10520,"охрану":10521,"допустимую":10522,"фазное":10523,"совокупного":10524,"цветных":10525,"состояний":10526,"2775":10527,"27577":10528,"выходные":10529,"выходными":10530,"подраздел":10531,"подразделений":10532,"несущему":10533,"результатах":10534,"вакуумом":10535,"черный":10536,"чердак":10537,"глубо":10538,"функциональному":10539,"требуемые":10540,"установкам":10541,"площадкам":10542,"графиков":10543,"клапаном":10544,"холоди":10545,"доступном":10546,"водоотвод":10547,"энергорайона":10548,"токовые":10549,"направленной":10550,"направленная":10551,"измерительной":10552,"исключена":10553,"горючей":10554,"горючая":10555,"кажд":10556,"локальных":10557,"трехфазных":10558,"проводит":10559,"эвакуационным":10560,"руководства":10561,"руководящие":10562,"общепромышлен":10563,"кровля":10564,"аварии":10565,"клетках":10566,"корпусах":10567,"нанесен":10568,"нанесенных":10569,"нанесенной":10570,"21150":10571,"ect":10572,"верхний":10573,"муфтой":10574,"специально":10575,"непосредственной":10576,"многожи":10577,"многообразия":10578,"пожаротушение":10579,"прямошовные":10580,"коммутации":10581,"модуль":10582,"модули":10583,"секция":10584,"устойчивы":10585,"огневых":10586,"огнеупорные":10587,"больших":10588,"последовательного":10589,"блокирования":10590,"приводит":10591,"сопротивлением":10592,"полупогружных":10593,"смены":10594,"резьбой":10595,"круг":10596,"кругл":10597,"поставляемой":10598,"механизмом":10599,"использованы":10600,"емкостей":10601,"металлоконструкциям":10602,"кондицио":10603,"горизонтальном":10604,"запорные":10605,"вертикали":10606,"чувствительного":10607,"водорода":10608,"теплообменной":10609,"проводах":10610,"уставками":10611,"объединены":10612,"регулирующих":10613,"регулирующие":10614,"электромагнитных":10615,"фундаменте":10616,"сертификатов":10617,"сертификатами":10618,"топливного":10619,"высшего":10620,"инвестиционного":10621,"эффект":10622,"эффекта":10623,"горячей":10624,"расположенной":10625,"роторов":10626,"подтверждать":10627,"оптимизации":10628,"328":10629,"профильный":10630,"ятпр":10631,"котлы":10632,"двигатель":10633,"временных":10634,"заземляющая":10635,"болтовым":10636,"метрологическому":10637,"оконного":10638,"защищаемых":10639,"располагаемых":10640,"горении":10641,"создава":10642,"трассам":10643,"козырё":10644,"предпочти":10645,"гофри":10646,"признается":10647,"дренажные":10648,"асфаль":10649,"пластика":10650,"пластиковые":10651,"дверного":10652,"напольного":10653,"нагнетательных":10654,"нагнетательный":10655,"позиции":10656,"негорючими":10657,"протоколом":10658,"цветовой":10659,"начальной":10660,"общественного":10661,"свободному":10662,"свайные":10663,"свайный":10664,"удобных":10665,"котлова":10666,"ротору":10667,"регио":10668,"регистри":10669,"жесткие":10670,"дистанционная":10671,"непрерывно":10672,"агрессивной":10673,"компенсаторы":10674,"звуко":10675,"кристалли":10676,"крайних":10677,"рассматривать":10678,"затвора":10679,"козырьку":10680,"интерфейсу":10681,"приточно":10682,"контакти":10683,"компоновке":10684,"приварной":10685,"символ":10686,"кабельную":10687,"диагностика":10688,"добыва":10689,"подъемом":10690,"грунтом":10691,"ated":10692,"обоснования":10693,"обоснованных":10694,"заполнением":10695,"продолжения":10696,"понижения":10697,"цилиндрическая":10698,"поршневой":10699,"поршневые":10700,"дифференциальной":10701,"посад":10702,"полиэтилена":10703,"сжиженного":10704,"сжиженных":10705,"совместная":10706,"включении":10707,"слойным":10708,"гидравлического":10709,"сетевых":10710,"insul":10711,"опорам":10712,"сальниковым":10713,"повторного":10714,"коллекторов":10715,"наибольшей":10716,"перекрытиями":10717,"управляющие":10718,"проложены":10719,"проложить":10720,"разрабатывается":10721,"качественных":10722,"предоставляющих":10723,"предоставляемой":10724,"увеличению":10725,"принципиальных":10726,"пбв":10727,"съемными":10728,"записи":10729,"манометров":10730,"пломбирово":10731,"несанкционированных":10732,"двойных":10733,"оказаться":10734,"вахтера":10735,"определенном":10736,"бронированного":10737,"энергоснабжения":10738,"всасывании":10739,"транспортно":10740,"образует":10741,"одах":10742,"закладные":10743,"ответви":10744,"граничных":10745,"подключаемая":10746,"исследовательских":10747,"23518":10748,"розетку":10749,"номенклатурного":10750,"номенклатурных":10751,"износу":10752,"разъемом":10753,"турбогенераторах":10754,"турбогенераторами":10755,"комбинированным":10756,"закрепленного":10757,"институтов":10758,"импульс":10759,"аккумуляторная":10760,"текущих":10761,"одинаковой":10762,"препятству":10763,"таянии":10764,"естественной":10765,"естественного":10766,"целесообразного":10767,"порош":10768,"пороговый":10769,"реактор":10770,"надземных":10771,"собранного":10772,"централизованное":10773,"существующих":10774,"теплоизоляционные":10775,"герметизирующие":10776,"ity":10777,"прошедшие":10778,"поврежденных":10779,"ограничивать":10780,"оптимальную":10781,"санузле":10782,"санузлом":10783,"лопаток":10784,"исходных":10785,"исходные":10786,"кратности":10787,"кратность":10788,"резервуарного":10789,"направлениях":10790,"водяных":10791,"нержавеющей":10792,"отопительных":10793,"большой":10794,"индикатора":10795,"забивки":10796,"выявления":10797,"зимний":10798,"твердые":10799,"свариваться":10800,"универсальные":10801,"предотвращению":10802,"искусственной":10803,"токопроводящих":10804,"токопроводящей":10805,"нагрев":10806,"подвески":10807,"туннелях":10808,"лестницами":10809,"многогранных":10810,"крепежными":10811,"55990":10812,"пружинных":10813,"штанген":10814,"завершения":10815,"платформе":10816,"крупно":10817,"утратившим":10818,"алюминиевой":10819,"западной":10820,"типоразмера":10821,"эксплуатироваться":10822,"упакованы":10823,"разрешенных":10824,"кнопок":10825,"минимума":10826,"газоуловителя":10827,"ответвления":10828,"пользователей":10829,"ведомственные":10830,"кратковременную":10831,":**":10832,"frhf":10833,"неразрушающий":10834,"заготовка":10835,"заготовок":10836,"присутствия":10837,"проходящего":10838,"преграда":10839,"объёма":10840,"объёму":10841,"однотипных":10842,"однотипности":10843,"газообразных":10844,"эффективной":10845,"амперметр":10846,"вложена":10847,"процедур":10848,"опорожнение":10849,"энергосберега":10850,"хозяйственного":10851,"шнура":10852,"заклеиваться":10853,"рубашки":10854,"этажах":10855,"принудительной":10856,"почвы":10857,"стопорных":10858,"общежитий":10859,"тамбур":10860,"товаросопроводительная":10861,"elec":10862,"укомплектованы":10863,"сочетании":10864,"профильное":10865,"жаропро":10866,"терминалов":10867,"водоотведения":10868,"оребренных":10869,"лебедкой":10870,"относящиеся":10871,"ускоре":10872,"чистка":10873,"инфраструктуры":10874,"границы":10875,"фактического":10876,"второго":10877,"забивном":10878,"обезжиривания":10879,"змеевики":10880,"президент":10881,"умываль":10882,"флюсом":10883,"обрыва":10884,"третьей":10885,"переключение":10886,"глухих":10887,"резинотехнические":10888,"хроматографи":10889,"копией":10890,"пролеты":10891,"силиконовых":10892,"ригелям":10893,"ослабления":10894,"парафини":10895,"снимаемые":10896,"последствий":10897,"газоанализаторов":10898,"предохраня":10899,"обручами":10900,"буроопускном":10901,"попутного":10902,"допуще":10903,"процентное":10904,"предшествовать":10905,"совеща":10906,"кремния":10907,"14693":10908,"высоковольтных":10909,"классифициру":10910,"ориенти":10911,"декларация":10912,"альтерна":10913,"иностран":10914,"эмульси":10915,"наледи":10916,"покупные":10917,"мембран":10918,"поворота":10919,"установившем":10920,"мотопом":10921,"торфя":10922,"тоннельного":10923,"сжиженный":10924,"неотъемлемой":10925,"отраслевые":10926,"низколегированные":10927,"data":10928,"ревизии":10929,"кавитационный":10930,"рукоят":10931,"приготовления":10932,"спецодежды":10933,"нумерации":10934,"менеджер":10935,"триэтиленглико":10936,"16371":10937,"трамбованием":10938,"централизован":10939,"агрессивность":10940,"ультрафиолетовой":10941,"упорядоченное":10942,"консистентной":10943,"аутенти":10944,"доборных":10945,"хладо":10946,"шторками":10947,"редуци":10948,"резонанс":10949,"неопределенности":10950,"нештатных":10951,"негерметизированные":10952,"заваркой":10953,"происхождения":10954,"00220302":10955,"30852":10956,"30765":10957,"перпендикуля":10958,"круглые":10959,"козырёк":10960,"хроматографии":10961,"триэтиленгликоля":10962,")).":10963,"014":10964,"327":10965,"515":10966,"550":10967,"581":10968,"61000":10969,"722":10970,"cl":10971,"cad":10972,"her":10973,"if":10974,"pr":10975,"rj":10976,"scad":10977,"ur":10978,"vol":10979,"»),":10980,"або":10981,"вмя":10982,"вместе":10983,"вшего":10984,"гм":10985,"гно":10986,"гба":10987,"гсн":10988,"дне":10989,"дных":10990,"дного":10991,"дце":10992,"движу":10993,"ение":10994,"жили":10995,"зх":10996,"ио":10997,"иным":10998,"исте":10999,"йку":11000,"лк":11001,"мхи":11002,"нзов":11003,"опр":11004,"оча":11005,"остав":11006,"очных":11007,"осторо":11008,"означа":11009,"пью":11010,"рh":11011,"рм":11012,"рная":11013,"рту":11014,"рном":11015,"ркс":11016,"сt":11017,"сла":11018,"спра":11019,"свер":11020,"сши":11021,"сменя":11022,"сблоки":11023,"ун":11024,"ула":11025,"уфо":11026,"участо":11027,"уполномо":11028,"хот":11029,"хуже":11030,"чс":11031,"чны":11032,"чку":11033,"шлан":11034,"шему":11035,"эпок":11036,"этот":11037,"нику":11038,"нителей":11039,"нители":11040,"стых":11041,"наме":11042,"намо":11043,"рачива":11044,"раствор":11045,"постро":11046,"постов":11047,"погрузки":11048,"послойным":11049,"реконструкция":11050,"реконструкцию":11051,"респу":11052,"чее":11053,"телен":11054,"тестов":11055,"котельная":11056,"оба":11057,"обоб":11058,"обло":11059,"обнов":11060,"обса":11061,"нению":11062,"несоответствие":11063,"несимметри":11064,"немагнитного":11065,"кания":11066,"канце":11067,"таз":11068,"такие":11069,"такими":11070,"зарегистри":11071,"лирования":11072,"ливания":11073,"линзов":11074,"отры":11075,"отгруз":11076,"руемой":11077,"циде":11078,"деление":11079,"демонтаж":11080,"денциа":11081,"доход":11082,"домов":11083,"примет":11084,"росы":11085,"соле":11086,"соосна":11087,"стирки":11088,"тогда":11089,"вей":11090,"ветра":11091,"щиты":11092,"щиков":11093,"щитков":11094,"прояв":11095,"прочие":11096,"проезда":11097,"прогно":11098,"прочее":11099,"панд":11100,"патч":11101,"милли":11102,"стави":11103,"ческизх":11104,"данный":11105,"мостов":11106,"сину":11107,"силы":11108,"ванием":11109,"вающие":11110,"валом":11111,"лочных":11112,"рик":11113,"менную":11114,"обоснов":11115,"уса":11116,"уся":11117,"бочки":11118,"бочек":11119,"вылетов":11120,"выреза":11121,"конти":11122,"водный":11123,"бестран":11124,"пет":11125,"чия":11126,"гайкой":11127,"разного":11128,"разным":11129,"разби":11130,"разбивки":11131,"сетки":11132,"сетками":11133,"роводо":11134,"диска":11135,"диэлектрическими":11136,"безопасных":11137,"гиваются":11138,"элегазовых":11139,"была":11140,"готовых":11141,"дующимися":11142,"указателей":11143,"цей":11144,"цели":11145,"целы":11146,"подкласса":11147,"расстроповка":11148,"изготовлен":11149,"лента":11150,"ленную":11151,"компью":11152,"турой":11153,"инциде":11154,"верха":11155,"полная":11156,"люки":11157,"методик":11158,"методикам":11159,"методическизх":11160,"предпроектная":11161,"обеих":11162,"коври":11163,"блики":11164,"ближения":11165,"электроводо":11166,"1087":11167,"перегрева":11168,"перепада":11169,"переконсервацию":11170,"нура":11171,"нумера":11172,"нужды":11173,"произведе":11174,"суток":11175,"гружа":11176,"объём":11177,"установлено":11178,"ключи":11179,"ственного":11180,"щаются":11181,"сырой":11182,"рально":11183,"электроосвещение":11184,"нород":11185,"определенной":11186,"определено":11187,"пуску":11188,"ходу":11189,"гради":11190,"станцией":11191,"строительную":11192,"транспортным":11193,"автор":11194,"автозаправочных":11195,"автоцистерн":11196,"тром":11197,"тросом":11198,"испытательный":11199,"испытательное":11200,"155":11201,"1554":11202,"15156":11203,"банда":11204,"крытия":11205,"крышей":11206,"совых":11207,"необходима":11208,"автоматическими":11209,"блочном":11210,"техноген":11211,"технологию":11212,"технологией":11213,"ители":11214,"стойкам":11215,"основное":11216,"таблицам":11217,"продуть":11218,"продуво":11219,"009":11220,"акб":11221,"стандартной":11222,"стандартам":11223,"стандартах":11224,"резы":11225,"меняться":11226,"параметра":11227,"назначением":11228,"етт":11229,"ведение":11230,"транспортирующие":11231,"транспортирующих":11232,"трубопроводную":11233,"размере":11234,"климатическому":11235,"температурам":11236,"температурные":11237,"производственному":11238,"иска":11239,"точную":11240,"проектного":11241,"положений":11242,"тактового":11243,"материаловед":11244,"необходимом":11245,"предусмотренного":11246,"предусмотренными":11247,"вливания":11248,"тяжения":11249,"тяжением":11250,"тягов":11251,"платика":11252,"согласование":11253,"бит":11254,"бирки":11255,"биения":11256,"металлами":11257,"испытаниями":11258,"составлению":11259,"133":11260,"законсер":11261,"взрывоопасности":11262,"имеется":11263,"иметься":11264,"определяемой":11265,"определяющая":11266,"работающему":11267,"1424":11268,"лоты":11269,"лотке":11270,"узлами":11271,"послед":11272,"последней":11273,"1994":11274,"осуществление":11275,"сердце":11276,"нарушенные":11277,"потреблении":11278,"изоциа":11279,"содержащим":11280,"отделы":11281,"родный":11282,"заводами":11283,"внутренними":11284,"23216":11285,"23166":11286,"межремонтного":11287,"видны":11288,"газах":11289,"питающие":11290,"питаемой":11291,"панелями":11292,"855":11293,"инструкций":11294,"допускает":11295,"насосное":11296,"входов":11297,"изоляторов":11298,"наибольш":11299,"покрываются":11300,"нормативный":11301,"образный":11302,"образцы":11303,"трубу":11304,"трубный":11305,"показателю":11306,"аппаратами":11307,"никам":11308,"теплоизоляцией":11309,"теплофизических":11310,"рядом":11311,"химическому":11312,"открытия":11313,"открытый":11314,"открытая":11315,"частности":11316,"частях":11317,"грузовой":11318,"грузовых":11319,"первая":11320,"первый":11321,"расположенного":11322,"расположена":11323,"ресурса":11324,"задач":11325,"задании":11326,"заданными":11327,"принятому":11328,"представлено":11329,"мяг":11330,"принимают":11331,"обеспечено":11332,"длительность":11333,"автоматизированного":11334,"используют":11335,"герметизацию":11336,"присоединить":11337,"3428":11338,"34180":11339,"рамном":11340,"страны":11341,"периоде":11342,"расчетную":11343,"силовым":11344,"газоотвод":11345,"газообразная":11346,"габаритный":11347,"бурения":11348,"провери":11349,"активная":11350,"генераторы":11351,"свечу":11352,"обратным":11353,"механическая":11354,"17032":11355,"защищено":11356,"проведенном":11357,"оператив":11358,"оперативных":11359,"проектируемым":11360,"количеству":11361,"формировать":11362,"формируются":11363,"своем":11364,"распределенных":11365,"двухобмоточного":11366,"потребителем":11367,"программным":11368,"279":11369,"выходного":11370,"местных":11371,"местные":11372,"местной":11373,"местного":11374,"местное":11375,"несущего":11376,"вакуум":11377,"черда":11378,"электродвигателем":11379,"обязательным":11380,"полиизоциа":11381,"функциональное":11382,"требует":11383,"требующие":11384,"требуются":11385,"требуют":11386,"требуемая":11387,"сорб":11388,"площадку":11389,"ресиверах":11390,"шкале":11391,"воздействовать":11392,"графит":11393,"графита":11394,"теплый":11395,"инженерные":11396,"доступности":11397,"бросок":11398,"минстроя":11399,"водогазопровод":11400,"энергоресурсов":11401,"токовую":11402,"равном":11403,"исключение":11404,"датчиком":11405,"локальной":11406,"локальный":11407,"стенд":11408,"стенде":11409,"подключением":11410,"эвакуационного":11411,"вводах":11412,"энергия":11413,"энергией":11414,"общепромышленного":11415,"производимых":11416,"различные":11417,"различной":11418,"ющееся":11419,"обогревателями":11420,"нижестоящей":11421,"приемочных":11422,"частотного":11423,"частотный":11424,"частотное":11425,"углеродный":11426,"верхних":11427,"запасной":11428,"вестись":11429,"тамбуре":11430,"рассчитано":11431,"релейный":11432,"экраном":11433,"специальное":11434,"извещения":11435,"непосредственного":11436,"977":11437,"многотопли":11438,"многоэлемент":11439,"позднее":11440,"шенными":11441,"стыки":11442,"стыковых":11443,"избытков":11444,"модулях":11445,"модульном":11446,"температурных":11447,"температурный":11448,"секу":11449,"секционных":11450,"огнезащиты":11451,"огнестойкость":11452,"огнестойким":11453,"служб":11454,"модельного":11455,"выключателем":11456,"выключателями":11457,"блокируемого":11458,"вскрытия":11459,"приводов":11460,"приложениях":11461,"инструменту":11462,"каждому":11463,"53279":11464,"атмосферу":11465,"извещателем":11466,"сопротивлению":11467,"ограждающей":11468,"заполня":11469,"ограничений":11470,"этапов":11471,"фильтру":11472,"распределительная":11473,"распределительную":11474,"автомобильных":11475,"подшипниковые":11476,"влажностью":11477,"постоянной":11478,"металлопродукция":11479,"листами":11480,"горизонтально":11481,"горизонтальная":11482,"запорное":11483,"продольных":11484,"собственности":11485,"чувствительностью":11486,"удара":11487,"компрессорный":11488,"ячейках":11489,"факельного":11490,"анализу":11491,"замковое":11492,"выдержками":11493,"уставку":11494,"конкретной":11495,"комплектуется":11496,"комплектуются":11497,"регулируемыми":11498,"очисти":11499,"шумо":11500,"падающей":11501,"аварийной":11502,"фундаментам":11503,"сертификатом":11504,"топливе":11505,"топливный":11506,"отверстие":11507,"учитывается":11508,"интервалы":11509,"варианту":11510,"достаточно":11511,"нижних":11512,"заглушенными":11513,"канализацию":11514,"утеплитель":11515,"присоединяемые":11516,"оптический":11517,"отделку":11518,"концевыми":11519,"терморасши":11520,"термопреобразователь":11521,"термостойкие":11522,"двигатели":11523,"пригодность":11524,"погружные":11525,"исключающих":11526,"исключающую":11527,"метрологических":11528,"метрологической":11529,"рисунку":11530,"рисунках":11531,"конденсат":11532,"оценку":11533,"оценке":11534,"оконных":11535,"защищает":11536,"защищаемой":11537,"территориа":11538,"изолированный":11539,"изолированными":11540,"3612":11541,"резины":11542,"охрана":11543,"достигается":11544,"агента":11545,"агентом":11546,"эстакаде":11547,"повышенных":11548,"ксзп":11549,"несъем":11550,"передаваемых":11551,"предпочте":11552,"линейные":11553,"линейная":11554,"проходные":11555,"проходного":11556,"проходящий":11557,"дренажную":11558,"независимого":11559,"лакокрасочного":11560,"лакокрасочное":11561,"подтверждены":11562,"пластины":11563,"регламентом":11564,"дверцы":11565,"дверью":11566,"гидростатических":11567,"гидроизоляционного":11568,"законодательных":11569,"нагнетательного":11570,"волн":11571,"волны":11572,"преобразователей":11573,"позволяет":11574,"458":11575,"566":11576,"начального":11577,"зажим":11578,"переходные":11579,"переходное":11580,"сетями":11581,"удобного":11582,"удобства":11583,"компримированным":11584,"индивидуальной":11585,"оповещателя":11586,"предупреди":11587,"предупредительные":11588,"предупредительных":11589,"компенсатора":11590,"звуковых":11591,"потолка":11592,"потолками":11593,"расходы":11594,"деревянной":11595,"диффу":11596,"рассматриваются":11597,"аппаратуру":11598,"козырьком":11599,"оцинкованного":11600,"обвязкой":11601,"приточная":11602,"вещество":11603,"монтируемого":11604,"торцового":11605,"магистральные":11606,"контакты":11607,"контактами":11608,"размерности":11609,"железнодорожных":11610,"компоновки":11611,"восстановлены":11612,"4000":11613,"четкой":11614,"легких":11615,"приварки":11616,"добав":11617,"контактным":11618,"пдзр":11619,"маршей":11620,"1049":11621,"глубины":11622,"чередующимися":11623,"цилиндрические":11624,"цилиндрических":11625,"профилированного":11626,"дифференциальных":11627,"посадо":11628,"полиэтилен":11629,"зависят":11630,"60598":11631,"включены":11632,"вкладывать":11633,"ссср":11634,"закрытый":11635,"синте":11636,"исправности":11637,"пусковые":11638,"подключений":11639,"подключении":11640,"протекания":11641,"полимерного":11642,"углеводородный":11643,"неизменными":11644,"шайбой":11645,"замкнутом":11646,"управляемыми":11647,"буквенные":11648,"освещением":11649,"манжет":11650,"входами":11651,"выводов":11652,"съемных":11653,"закан":11654,"винтовой":11655,"винтового":11656,"кольцами":11657,"поперечного":11658,"аналогичны":11659,"оснащен":11660,"газотурбинные":11661,"прилагаемому":11662,"прилагаемую":11663,"дисконти":11664,"ющемся":11665,"полезных":11666,"контролируемых":11667,"грузоподъемность":11668,"резервуары":11669,"закладным":11670,"пенополиизоциа":11671,"возвратно":11672,"счетчика":11673,"пространстве":11674,"подключается":11675,"горловиной":11676,"предъявляемым":11677,"циркуляции":11678,"динамических":11679,"подогревателем":11680,"дальнейшей":11681,"exch":11682,"отражать":11683,"износа":11684,"разъеди":11685,"разъём":11686,"объемах":11687,"центрирующая":11688,"комплектовочная":11689,"ционально":11690,"компрессора":11691,"компонентного":11692,"мфто":11693,"смежной":11694,"находились":11695,"конфиденциа":11696,"загрязнения":11697,"60332":11698,"ностях":11699,"текущего":11700,"обручи":11701,"розеточной":11702,"группам":11703,"родинами":11704,"сжатие":11705,"сжатый":11706,"кидной":11707,"отпаек":11708,"отпайки":11709,"соединенные":11710,"коммутационные":11711,"уборки":11712,"нефтепродукты":11713,"первичный":11714,"упаковочные":11715,"упаковочному":11716,"идентификатор":11717,"идентификатора":11718,"централизованного":11719,"утилизаторов":11720,"чертежах":11721,"регламентироваться":11722,"ether":11723,"смещений":11724,"удельные":11725,"герметизированы":11726,"светлых":11727,"холоднодеформированные":11728,"отсутствуют":11729,"повреждении":11730,"поврежденного":11731,"ограничитель":11732,"единицах":11733,"оптимального":11734,"свидетельством":11735,"санузла":11736,"санузлах":11737,"кронштейнах":11738,"кронштейнам":11739,"находящегося":11740,"выдаваемые":11741,"54815":11742,"механизмах":11743,"конфигура":11744,"взаимодействия":11745,"водяного":11746,"нержавеющих":11747,"отопительные":11748,"металлорукаве":11749,"крр":11750,"поступает":11751,"выявленные":11752,"свариваемых":11753,"универсальный":11754,"углеродистые":11755,"импортное":11756,"искусственно":11757,"искусственного":11758,"возникновение":11759,"53316":11760,"нагретыми":11761,"отображения":11762,"целостность":11763,"живающие":11764,"надписями":11765,"положительных":11766,"положительного":11767,"операторной":11768,"руководителя":11769,"трехфазные":11770,"многогранной":11771,"понижающего":11772,"плунжерные":11773,"62040":11774,"стабильности":11775,"стабильность":11776,"нормируется":11777,"плавный":11778,"платформы":11779,"пластмассов":11780,"крупных":11781,"кодексом":11782,"дизельное":11783,"tur":11784,"опломбированными":11785,"поступления":11786,"редукционно":11787,"деформации":11788,"типоразмер":11789,"дождевых":11790,"разделительным":11791,"упаковано":11792,"мерзлоты":11793,"чугуна":11794,"сбрасываемых":11795,"инертных":11796,"инертного":11797,"утверждается":11798,"обороне":11799,"болота":11800,"консоль":11801,"разрыву":11802,"гладкой":11803,"батареи":11804,"легковоспламеняющаяся":11805,"ответвлений":11806,"лаборатории":11807,"лабораторий":11808,"лаборатория":11809,"инфракрасных":11810,"асинхронного":11811,"асинхронный":11812,"лицевой":11813,"присутствием":11814,"преграды":11815,"центровке":11816,"газораздаточных":11817,"контролируемое":11818,"износостойких":11819,"износостойким":11820,"амплиту":11821,"вместимости":11822,"модерни":11823,"легированных":11824,"малой":11825,"направляющий":11826,"53679":11827,"53678":11828,"смесью":11829,"хозяйственной":11830,"ement":11831,"грозозащитного":11832,"смотров":11833,"шнуры":11834,"рационального":11835,"минерализова":11836,"гармо":11837,"сульфи":11838,"высоконапорного":11839,"однофазные":11840,"реализующий":11841,"резистивно":11842,"зарядки":11843,"перечня":11844,"фальш":11845,"упругие":11846,"отчетов":11847,"раскатку":11848,"водоотведение":11849,"получаемые":11850,"балансировка":11851,"балансировки":11852,"символом":11853,"построенные":11854,"построенная":11855,"ускорения":11856,"цельноли":11857,"пожаровзрыво":11858,"13706":11859,"13709":11860,"решетчатой":11861,"второе":11862,"обезжиривание":11863,"прилегающей":11864,"хрупкое":11865,"гипсо":11866,"подпорных":11867,"подвеске":11868,"искрообразования":11869,"функциональные":11870,"функциональных":11871,"осветительных":11872,"осветительной":11873,"круглосу":11874,"асбестосодержащие":11875,"низкотемпературной":11876,"9905":11877,"шлагба":11878,"мастерских":11879,"соприкасаются":11880,"цементно":11881,"индек":11882,"испытываемых":11883,"баллонов":11884,"исследования":11885,"пеногенераторная":11886,"сопровождаться":11887,"светодиодные":11888,"аккредитована":11889,"задерживающие":11890,"рогенные":11891,"бензи":11892,"проветривания":11893,"скрн":11894,"владельца":11895,"магистрали":11896,"трансмиссионным":11897,"снегозадерживающие":11898,"эрозионного":11899,"провар":11900,"заградительных":11901,"замерзания":11902,"фирменную":11903,"окраску":11904,"напряженности":11905,"задавочной":11906,"буферной":11907,"зеленого":11908,"карбид":11909,"автотрансформаторов":11910,"exdiiсt":11911,"многолетнемерзлых":11912,"ожидания":11913,"находящихся":11914,"безаварийной":11915,"серосодержащих":11916,"пищевых":11917,"взаиморезерви":11918,"смазочного":11919,"52860":11920,"сделано":11921,"проникновения":11922,"ускоряемой":11923,"поддоны":11924,"надлежащие":11925,"ископаемых":11926,"теплоотдающей":11927,"москитными":11928,"27751":11929,"каждые":11930,"энергосберегающими":11931,"жаропрочные":11932,"классифицирующиеся":11933,"эмульсии":11934,"мотопомпы":11935,"аутентификация":11936,"scada":11937,"volt":11938,"абоне":11939,"жилищ":11940,"мхиг":11941,"осторожно":11942,"означающие":11943,"слабо":11944,"уфоф":11945,"участок":11946,"эпокси":11947,"намокания":11948,"растворно":11949,"республики":11950,"канцерогенные":11951,"линзовые":11952,"проявлений":11953,"миллиметрах":11954,"бестраншей":11955,"целым":11956,"подклассам":11957,"10877":11958,"техногенного":11959,"законсервировать":11960,"сердцеви":11961,"34283":11962,"многоэлементный":11963,"терморасширенного":11964,"пенополиизоцианура":11965,"exchan":11966,"ethernet":11967,"пожаровзрывоопасность":11968,"!»":11969,")»;":11970,"+/":11971,".%;":11972,"050":11973,"119":11974,"1101":11975,"224":11976,"281":11977,"21049":11978,"3130":11979,"525":11980,"596":11981,"571":11982,"5272":11983,"610":11984,"650":11985,"635":11986,"654":11987,"665":11988,"9150":11989,"9000":11990,"cess":11991,"dн":11992,"ded":11993,"epa":11994,"il":11995,"iа":11996,"mm":11997,"min":11998,"man":11999,"rated":12000,"to":12001,"tes":12002,"wit":12003,"аа":12004,"вё":12005,"вным":12006,"вке":12007,"врез":12008,"вноси":12009,"впп":12010,"вторы":12011,"вотных":12012,"вплотную":12013,"гн":12014,"гт":12015,"гэ":12016,"гтэс":12017,"дю":12018,"ены":12019,"жка":12020,"жному":12021,"зру":12022,"зовать":12023,"имен":12024,"имого":12025,"кнов":12026,"клее":12027,"мр":12028,"мчс":12029,"нте":12030,"оте":12031,"оце":12032,"оран":12033,"опрес":12034,"пку":12035,"пыва":12036,"рю":12037,"рпи":12038,"ртз":12039,"рхи":12040,"спас":12041,"сная":12042,"сце":12043,"сную":12044,"ссн":12045,"счё":12046,"счёт":12047,"ткой":12048,"уч":12049,"ума":12050,"утро":12051,"упора":12052,"уника":12053,"убор":12054,"ушр":12055,"улуч":12056,"употреблении":12057,"фро":12058,"фто":12059,"фрик":12060,"хре":12061,"цм":12062,"чне":12063,"чками":12064,"шве":12065,"шем":12066,"юзов":12067,"ящему":12068,"яркой":12069,"ёх":12070,"нисто":12071,"никах":12072,"ничными":12073,"овые":12074,"нож":12075,"нара":12076,"навига":12077,"настен":12078,"раза":12079,"ранию":12080,"расте":12081,"рархи":12082,"пори":12083,"побу":12084,"попы":12085,"покров":12086,"поруч":12087,"полетов":12088,"поэтому":12089,"рен":12090,"рече":12091,"реки":12092,"резов":12093,"ренными":12094,"ребра":12095,"решается":12096,"чез":12097,"ченные":12098,"гога":12099,"тел":12100,"легированной":12101,"котельные":12102,"котел":12103,"ованной":12104,"обзора":12105,"облег":12106,"обвал":12107,"кисло":12108,"кирпи":12109,"неров":12110,"недр":12111,"неброни":12112,"неиспользуемые":12113,"неуравновешен":12114,"несейсмостойкого":12115,"нелегированных":12116,"кал":12117,"кача":12118,"такой":12119,"зап":12120,"запо":12121,"зала":12122,"заус":12123,"засов":12124,"зацией":12125,"замера":12126,"затруд":12127,"заболо":12128,"занятия":12129,"льц":12130,"лит":12131,"отрез":12132,"отходя":12133,"отметка":12134,"откидной":12135,"рук":12136,"рующими":12137,"цикли":12138,"цикле":12139,"деаэ":12140,"малых":12141,"дозы":12142,"доработки":12143,"дожд":12144,"доработка":12145,"прико":12146,"приказа":12147,"присваи":12148,"приостанов":12149,"приблизи":12150,"рори":12151,"роспо":12152,"сосе":12153,"сопоста":12154,"излиш":12155,"тору":12156,"точек":12157,"веду":12158,"весь":12159,"проса":12160,"просты":12161,"прочих":12162,"пауз":12163,"лаком":12164,"даны":12165,"данное":12166,"момен":12167,"можен":12168,"мойки":12169,"сикв":12170,"сифон":12171,"вающей":12172,"ватой":12173,"валах":12174,"варенных":12175,"требнадзора":12176,"лой":12177,"ногорю":12178,"обоих":12179,"обогревом":12180,"обогрев":12181,"товых":12182,"бом":12183,"выпря":12184,"выклад":12185,"выдав":12186,"выравнивание":12187,"конвек":12188,"превыше":12189,"тельному":12190,"щений":12191,"щекол":12192,"водной":12193,"водного":12194,"водителя":12195,"безо":12196,"метки":12197,"вихре":12198,"печа":12199,"ровано":12200,"пасса":12201,"чистой":12202,"столовая":12203,"значно":12204,"гая":12205,"разнород":12206,"новое":12207,"сег":12208,"сетка":12209,"практи":12210,"безопасными":12211,"строп":12212,"гированных":12213,"проекты":12214,"душ":12215,"дугога":12216,"указанном":12217,"указанному":12218,"мытье":12219,"подтвер":12220,"подсистем":12221,"подпора":12222,"подрайона":12223,"подбира":12224,"подходе":12225,"подрезов":12226,"расхо":12227,"матированием":12228,"изготовленные":12229,"информирование":12230,"инспек":12231,"верт":12232,"полки":12233,"возле":12234,"возведения":12235,"возобнов":12236,"возможен":12237,"предпроектные":12238,"ковыми":12239,"усталост":12240,"экска":12241,"фитин":12242,"жим":12243,"жиров":12244,"животных":12245,"перепле":12246,"переработке":12247,"едино":12248,"единую":12249,"производят":12250,"производятся":12251,"пределами":12252,"кладок":12253,"спортом":12254,"шено":12255,"материального":12256,"правильности":12257,"средних":12258,"сыпу":12259,"настоящем":12260,"логического":12261,"электропривода":12262,"электрооборудованием":12263,"электроприём":12264,"электроагрегаты":12265,"электропотребителями":12266,"твердости":12267,"насосе":12268,"главе":12269,"грам":12270,"строительством":12271,"стеновые":12272,"стесне":12273,"автопогрузчики":12274,"тросы":12275,"испытанием":12276,"испытательных":12277,"баки":12278,"бази":12279,"бачок":12280,"ционную":12281,"крышками":12282,"современ":12283,"автоматическую":12284,"кабельном":12285,"блочная":12286,"блочный":12287,"технологическую":12288,"основываться":12289,"путей":12290,"пучков":12291,"зированного":12292,"пород":12293,"зовывать":12294,"террори":12295,"торфа":12296,"006":12297,"008":12298,"акте":12299,"акри":12300,"стандартами":12301,"продукцией":12302,"управлении":12303,"темных":12304,"транспортируемого":12305,"наливной":12306,"наливного":12307,"наливом":12308,"наливная":12309,"опасный":12310,"греб":12311,"исчер":12312,"исчез":12313,"точностью":12314,"проектное":12315,"проектную":12316,"приведенной":12317,"трёх":12318,"ствол":12319,"характеристикой":12320,"примени":12321,"фурни":12322,"землей":12323,"ализации":12324,"взве":12325,"следующее":12326,"свае":12327,"свайного":12328,"стойкое":12329,"тяговый":12330,"согласов":12331,"органу":12332,"плавки":12333,"плакатов":12334,"185":12335,"18855":12336,"фаза":12337,"транспортироваться":12338,"вневедомственной":12339,"применяемой":12340,"139":12341,"1325":12342,"типовым":12343,"внутрь":12344,"нительно":12345,"ценности":12346,"имеющей":12347,"имеющую":12348,"определяющему":12349,"определяемом":12350,"работающей":12351,"162":12352,"145":12353,"противомоскитными":12354,"газовым":12355,"шаться":12356,"шающих":12357,"последних":12358,"хранением":12359,"1996":12360,"серни":12361,"типами":12362,"прокладках":12363,"гели":12364,"нарушении":12365,"потреблением":12366,"нефтепроводов":12367,"возможное":12368,"возможным":12369,"305":12370,"выполняемое":12371,"скгс":12372,"отдельный":12373,"отделяться":12374,"разделки":12375,"раздельно":12376,"сторона":12377,"основан":12378,"межсетевые":12379,"термического":12380,"становки":12381,"двк":12382,"травер":12383,"кратеров":12384,"заземлен":12385,"заземлением":12386,"применен":12387,"электрически":12388,"электрическое":12389,"допускать":12390,"допускаться":12391,"допускающие":12392,"регулирово":12393,"защитами":12394,"надежного":12395,"надежностью":12396,"ограждением":12397,"сварное":12398,"насосным":12399,"соответствующая":12400,"распорок":12401,"входном":12402,"специфика":12403,"внешнем":12404,"низкое":12405,"нормативное":12406,"устанавливаемого":12407,"размещению":12408,"предназначенным":12409,"образные":12410,"вентиляторы":12411,"аппаратурного":12412,"включающий":12413,"скобами":12414,"теплотехническим":12415,"выделением":12416,"прочно":12417,"химического":12418,"функциям":12419,"плита":12420,"слительным":12421,"открываемые":12422,"354":12423,"229":12424,"коррозионную":12425,"частям":12426,"высокое":12427,"высокий":12428,"ывает":12429,"расположено":12430,"средстве":12431,"являющихся":12432,"принятой":12433,"принимаемые":12434,"постановления":12435,"длительностью":12436,"однокра":12437,"однозначно":12438,"используемой":12439,"герметизация":12440,"жидком":12441,"присоединены":12442,"предусматриваемые":12443,"иерархи":12444,"площадочных":12445,"площадей":12446,"наружными":12447,"рабочими":12448,"формули":12449,"габарита":12450,"габаритного":12451,"габаритно":12452,"бури":12453,"действует":12454,"4014":12455,"оборудована":12456,"провеса":12457,"фланцевая":12458,"генератором":12459,"снабжен":12460,"снабжена":12461,"ремонтное":12462,"обратная":12463,"8734":12464,"механизации":12465,"17516":12466,"жидкокристалли":12467,"государство":12468,"проведением":12469,"обязателен":12470,"рекомендуемой":12471,"рекомендуемая":12472,"операторов":12473,"оператором":12474,"обыкнов":12475,"государственным":12476,"338":12477,"iiа":12478,"углу":12479,"выдержать":12480,"охраня":12481,"охранного":12482,"говор":12483,"своей":12484,"планировки":12485,"планируемого":12486,"закрытия":12487,"двухцве":12488,"двухкамерными":12489,"риски":12490,"риска":12491,"составляющую":12492,"фазе":12493,"фазные":12494,"цветным":12495,"состоящее":12496,"выходящих":12497,"выходящие":12498,"резервном":12499,"санитарный":12500,"колесом":12501,"минимальному":12502,"электродвигатели":12503,"обязательна":12504,"обязательств":12505,"обязательное":12506,"полиспа":12507,"принципа":12508,"требуемый":12509,"сигналу":12510,"клапанами":12511,"блокам":12512,"оповещение":12513,"этими":12514,"инженерным":12515,"доступность":12516,"758":12517,"организациям":12518,"противопожарную":12519,"брон":12520,"броне":12521,"расстояний":12522,"водоема":12523,"энергопотреблением":12524,"стенке":12525,"стеновая":12526,"подключить":12527,"руководству":12528,"зелено":12529,"влагой":12530,"обмоткой":12531,"авариях":12532,"клетки":12533,"природо":12534,"корпусам":12535,"приемочные":12536,"справочно":12537,"патрубках":12538,"патрубкам":12539,"частотно":12540,"частотная":12541,"дополнительное":12542,"дополнительными":12543,"муфту":12544,"антифрик":12545,"персональным":12546,"специальный":12547,"60034":12548,"непосредственное":12549,"асуб":12550,"телеотключения":12551,"охваты":12552,"структуре":12553,"изготавливаемого":12554,"многоцилинд":12555,"многослой":12556,"катодной":12557,"прямолиней":12558,"оболочках":12559,"стыково":12560,"предоставлению":12561,"коммунального":12562,"коммунально":12563,"физический":12564,"комплексное":12565,"уровнями":12566,"температурного":12567,"режимам":12568,"номерное":12569,"мовых":12570,"отдельном":12571,"блокировку":12572,"инструментом":12573,"оздуш":12574,"одоро":12575,"избыточной":12576,"получить":12577,"этажных":12578,"резьб":12579,"резьбе":12580,"гарантированного":12581,"соединительным":12582,"группой":12583,"бытовое":12584,"дрени":12585,"экспер":12586,"краски":12587,"красного":12588,"ованном":12589,"скапли":12590,"организационных":12591,"запорный":12592,"вертикального":12593,"вертикальную":12594,"продольный":12595,"тепловом":12596,"водород":12597,"листового":12598,"теплообменная":12599,"теплообменники":12600,"компрессорной":12601,"ячейки":12602,"факельные":12603,"факельную":12604,"выпускаемым":12605,"замковые":12606,"электродвигателям":12607,"проводам":12608,"местом":12609,"комплектующими":12610,"очище":12611,"электромагнитной":12612,"плюсовых":12613,"эффективного":12614,"учитываться":12615,"учитывая":12616,"коррозионностойкой":12617,"энергетическим":12618,"указывают":12619,"достаточная":12620,"заглушка":12621,"заглушены":12622,"заглушить":12623,"клеммной":12624,"роторы":12625,"ротором":12626,"производству":12627,"лежащих":12628,"вентка":12629,"подтверждающие":12630,"оптимальных":12631,"молниезащита":12632,"очистные":12633,"55722":12634,"табличками":12635,"32144":12636,"пробки":12637,"оснащается":12638,"оснащаться":12639,"концевой":12640,"заземлять":12641,"заземляющему":12642,"погружение":12643,"погружного":12644,"меньшее":12645,"исключающим":12646,"исключающее":12647,"допустимом":12648,"допустимому":12649,"метрологически":12650,"метрологического":12651,"уплотнительный":12652,"рисунки":12653,"конденсации":12654,"уточнить":12655,"изолированном":12656,"городским":12657,"двум":12658,"созданием":12659,"создается":12660,"самой":12661,"домкра":12662,"скольжение":12663,"трассу":12664,"лаконичными":12665,"острых":12666,"передается":12667,"передающего":12668,"нулевых":12669,"нагрузке":12670,"нагрузкам":12671,"линейки":12672,"проходе":12673,"парными":12674,"партия":12675,"переднем":12676,"сборный":12677,"сборник":12678,"признании":12679,"дренажный":12680,"договоров":12681,"подтверждение":12682,"диапазону":12683,"дверные":12684,"напольной":12685,"торцевого":12686,"цистерна":12687,"гидрогенераторов":12688,"законодательными":12689,"вспомогательным":12690,"преобразователем":12691,"преобразователями":12692,"протоколов":12693,"протоколу":12694,"планировочной":12695,"позволяющие":12696,"5632":12697,"переходный":12698,"балансов":12699,"пунктом":12700,"присоединениях":12701,"базовое":12702,"базовыми":12703,"компримирование":12704,"вычислительным":12705,"жесткой":12706,"коротких":12707,"заключением":12708,"оповещателями":12709,"предупреждения":12710,"удовлетворительных":12711,"розия":12712,"подводящих":12713,"звуковые":12714,"крайней":12715,"компонент":12716,"осмотрах":12717,"экономических":12718,"экономический":12719,"предполагаемому":12720,"хроматированием":12721,"параллельными":12722,"интерфейсов":12723,"юридических":12724,"фланцах":12725,"магистрального":12726,"удовлетворяющие":12727,"восстановлении":12728,"приварными":12729,"подземные":12730,"подземными":12731,"диагностику":12732,"52146":12733,"коричне":12734,"марга":12735,"обосновании":12736,"подразделениями":12737,"изыскательских":12738,"дифференциальные":12739,"предохранительные":12740,"сжиженные":12741,"влияния":12742,"включен":12743,"утверждённым":12744,"смесителя":12745,"смесителей":12746,"смесители":12747,"наземным":12748,"несколькими":12749,"соблюдения":12750,"облицовки":12751,"облицовочной":12752,"дважды":12753,"заднем":12754,"заправочной":12755,"отводами":12756,"подвижном":12757,"пусковым":12758,"подключенным":12759,"очередей":12760,"отправляемого":12761,"повторя":12762,"жидкостью":12763,"маркировочная":12764,"маркировочную":12765,"углеводороды":12766,"коллектор":12767,"коллекторе":12768,"уклона":12769,"каналам":12770,"отметку":12771,"наибольшего":12772,"вращающаяся":12773,"вращающемся":12774,"расстояниях":12775,"замкнутым":12776,"концентраций":12777,"управляемый":12778,"приведенному":12779,"токораспределения":12780,"спира":12781,"боковая":12782,"предъявляются":12783,"размещать":12784,"качественные":12785,"выделять":12786,"выделяются":12787,"предоставляются":12788,"промежуточные":12789,"съемные":12790,"заказная":12791,"кольцам":12792,"синхрониз":12793,"рукава":12794,"плоскость":12795,"лестничные":12796,"лестницей":12797,"аналогичного":12798,"газотурбинный":12799,"двойного":12800,"двойное":12801,"двойными":12802,"оказания":12803,"попадать":12804,"дисбаланса":12805,"вторичные":12806,"вторичный":12807,"всасывающий":12808,"срабатывание":12809,"срабатывающим":12810,"комфортный":12811,"транспортном":12812,"контролироваться":12813,"образующей":12814,"возвратного":12815,"способам":12816,"вибраций":12817,"огня":12818,"огней":12819,"ченному":12820,"отличи":12821,"пространствен":12822,"подключать":12823,"подключаться":12824,"горловинами":12825,"erv":12826,"вытяжная":12827,"вытяжную":12828,"стандартными":12829,"предъявляемых":12830,"смонтированы":12831,"смонтированным":12832,"динамически":12833,"динамической":12834,"расчётов":12835,"автодоро":12836,"стойкостью":12837,"ступенчатые":12838,"ступенчатой":12839,"отражена":12840,"компонента":12841,"компонентами":12842,"остановки":12843,"пользования":12844,"аккумуляторных":12845,"светильник":12846,"упорных":12847,"текущем":12848,"картер":12849,"карниз":12850,"отдающие":12851,"розеточных":12852,"подбору":12853,"рассчитываются":12854,"самостоятельно":12855,"препятствия":12856,"соединены":12857,"естественным":12858,"алюминия":12859,"остатков":12860,"остаточным":12861,"порогов":12862,"проемах":12863,"проемами":12864,"сертифицированной":12865,"утилизатор":12866,"регламентированным":12867,"удельных":12868,"существующие":12869,"промысловые":12870,"платик":12871,"теплоноситель":12872,"теплоносителем":12873,"роторных":12874,"трудногорю":12875,"прокладывается":12876,"прокладываются":12877,"прокладываемые":12878,"ограничительными":12879,
[...]
