{"version":"1.0","truncation":null,"padding":null,"added_tokens":[{"id":0,"special":true,"content":"[BOS]","single_word":false,"lstrip":false,"rstrip":false,"normalized":false},{"id":1,"special":true,"content":"[EOS]","single_word":false,"lstrip":false,"rstrip":false,"normalized":false},{"id":2,"special":true,"content":"[UNK]","single_word":false,"lstrip":false,"rstrip":false,"normalized":false},{"id":3,"special":true,"content":"[CLS]","single_word":false,"lstrip":false,"rstrip":false,"normalized":false},{"id":4,"special":true,"content":"[SEP]","single_word":false,"lstrip":false,"rstrip":false,"normalized":false},{"id":5,"special":true,"content":"[PAD]","single_word":false,"lstrip":false,"rstrip":false,"normalized":false},{"id":6,"special":true,"content":"[MASK]","single_word":false,"lstrip":false,"rstrip":false,"normalized":false}],"normalizer":{"type":"Lowercase"},"pre_tokenizer":{"type":"Sequence","pretokenizers":[{"type":"Whitespace"},{"type":"Digits","individual_digits":false}]},"post_processor":null,"decoder":null,"model":{"type":"Unigram","unk_id":null,"vocab":[["[BOS]",0.0],["[EOS]",0.0],["[UNK]",0.0],["[CLS]",0.0],["[SEP]",0.0],["[PAD]",0.0],["[MASK]",0.0],["и",-2.702729165034434],[".",-3.060408154787753],["е",-3.158906422695207],[",",-3.5251287365749757],["й",-3.544714168330282],["я",-3.724279943683399],["х",-3.789135280188665],["в",-3.796899494461858],["ы",-3.808927099977611],["а",-3.980246937090673],["с",-4.156853701134315],["-",-4.189801072773195],["о",-4.3807680198924395],["м",-4.393794991676414],["к",-4.468478784302931],["д",-4.745037526996606],["т",-4.796604268097958],["–",-4.941541292696488],["гост",-5.090505501101777],["у",-5.100380530404458],["н",-5.122869306688266],["п",-5.1361111807306035],["(",-5.144459607776341],["на",-5.1905753891837225],["должн",-5.206453693790955],["ю",-5.2087885666416724],["ого",-5.255682340755163],[";",-5.265857092741596],["го",-5.267761623586438],["ля",-5.286335796870725],[")",-5.297120769427462],["требования",-5.338859527401974],["ая",-5.402110465161787],["при",-5.474818162895302],["ь",-5.501986409066157],["ся",-5.517536614850499],["1",-5.554307047911831],["по",-5.587138911686935],["технически",-5.6423757734235345],["2",-5.710670949446688],["«",-5.765424019552683],["3",-5.779819587939408],["безопасност",-5.791525689667554],[":",-5.799559174906704],["4",-5.805894436723038],["оборудовани",-5.833571470478332],["ой",-5.858728361634263],["от",-5.896196416283164],["б",-5.936839287265426],["з",-5.941818304894741],["6",-5.949038247192339],["»",-5.960009767669219],["ов",-5.963247373711579],["р",-5.970137569376974],["или",-6.0353113857296625],["ом",-6.051247275970768],["методически",-6.112488885015747],["/",-6.143213453838976],["5",-6.144972297325443],["0",-6.161396991797816],["г",-6.202945371599976],["№",-6.218627936333493],["документаци",-6.2290318303795615],["201",-6.236541590540457],["ть",-6.23800967249474],["систем",-6.247939221618127],["проектировани",-6.288119728444901],["защит",-6.3428215313618495],["л",-6.362858267567762],["дл",-6.381087475439708],["ного",-6.391759206242481],["общи",-6.408077063977694],["соответстви",-6.4126274002024],["быт",-6.4241723658863],["требованиям",-6.428136014219079],["система",-6.436729146874344],["сп",-6.517812913939703],["эксплуатаци",-6.521300581939684],["условно",-6.57310126454896],["условия",-6.6374035515529615],["не",-6.639287005800775],["обозначения",-6.658321612410148],["правила",-6.664245164620431],["ую",-6.667144789330847],["изготовлени",-6.69530726528135],["ых",-6.715827760495044],["200",-6.730550506399097],["конструкци",-6.7341297192136365],["таблица",-6.743899410238587],["настоящи",-6.745040191069072],["указани",-6.753334742541573],["поставк",-6.789287840158808],["работ",-6.799203489917441],["указания",-6.828046185514592],["должен",-6.828726612370861],["7",-6.828795616044062],["параметр",-6.851254947420231],["9",-6.86544833032471],["э",-6.86689335545242],["ей",-6.883887728419915],["федеральны",-6.907770917474581],["обозначение",-6.91886991489559],["ссыл",-6.934632286844352],["10",-6.947844852767256],["таблице",-6.970017746251857],["соответств",-6.972091117733186],["овать",-6.973310791766182],["воздух",-6.980677973745126],["ных",-6.980804043996031],["транспортировани",-6.988108806356072],["утвержденны",-7.010389873967024],["8",-7.020825547553546],["пожарно",-7.0604678320693735],["так",-7.0640071763835275],["фз",-7.067208973033379],["материалов",-7.076137879717288],["ыть",-7.08132169796658],["оборудование",-7.08786294807529],["из",-7.0912117257833245],["температур",-7.091498725768244],["приведен",-7.0972517533774235],["сред",-7.104168562924816],["продукци",-7.109605597137352],["норм",-7.113816717455418],["требовани",-7.125336425498285],["исполнения",-7.130086280500335],["ф",-7.141979977096256],["обеспечени",-7.1467936472505045],["приказ",-7.159089438969702],["управлени",-7.164822824698393],["размер",-7.167518877359458],["».",-7.188129234624464],["за",-7.1990038398798575],["основны",-7.209887406741091],["установк",-7.21227350061564],["метод",-7.21775433720273],["же",-7.236556139361755],["объектов",-7.237294715369028],["состав",-7.246963863786561],["ить",-7.24852609744359],["монтаж",-7.252769977471851],["бол",-7.257376683097824],["мене",-7.259172793508156],["закон",-7.275407584143606],["часть",-7.278788971375797],["изделия",-7.278888823070304],["12",-7.282261618663889],["ми",-7.288425945487502],["хранени",-7.290143629410351],["промышленно",-7.295000141822014],["учет",-7.3001711232112285],["",-7.3050660512738625],["предусмотре",-7.317721289559779],["необходимо",-7.318568023876163],["рабоче",-7.321623539715785],["характеристик",-7.324012224214299],["труд",-7.328743142168237],["строительств",-7.332905271418174],["регламент",-7.366990797999406],["соглас",-7.37696865586518],["испытани",-7.383289149904885],["),",-7.392617052795186],["определени",-7.399211701216221],["окружающе",-7.4186418114878245],["испытания",-7.422562441800636],["редакци",-7.43820336088665],["типа",-7.465648218982601],["положения",-7.469172115763399],["услови",-7.471705448628847],["издели",-7.476572032533591],["техническ",-7.496648468697399],["стальны",-7.500672352238633],["материал",-7.506895666938845],["исполнение",-7.510365179149822],["разработк",-7.513760135461827],["схема",-7.517252007268115],["ки",-7.520292196041018],["здани",-7.533954495314806],["изготовителя",-7.534357447388083],["ированн",-7.535872018222513],["контрол",-7.538057790647103],["об",-7.540088629350825],["но",-7.551469540651611],["област",-7.553405440512719],["завода",-7.556870412850951],["которы",-7.569174318416561],["лини",-7.5706629627425075],["части",-7.57953965818315],["актуализ",-7.580458485326782],["рф",-7.5948202743685265],["стандарто",-7.6156263396612776],["завод",-7.618889441535907],["до",-7.623560787722999],["строительны",-7.623633750712555],["иметь",-7.6268188014642915],["давление",-7.630295784978914],["газа",-7.631336158531259],["производственных",-7.632804225696511],["кабельны",-7.651385558968432],["его",-7.653395176532208],["машин",-7.657510021131303],["насоса",-7.660892721270099],["други",-7.664881030735696],["электро",-7.666769279527886],["элемент",-7.681995169740759],["тип",-7.682109758027915],["ень",-7.682166436941919],["насос",-7.682366159481916],["сейсмостойкост",-7.684777089750459],["промышленност",-7.686399666143205],["тр",-7.693397927151386],["[",-7.69551893513319],["термин",-7.696496702585982],["]",-7.698076479890224],["документ",-7.698479528744427],["производства",-7.699185574505189],["един",-7.7074436532691895],["верси",-7.70944173882799],["ростехнадзор",-7.716290534043757],["03",-7.719525332415416],["климатически",-7.719549371530277],["ами",-7.735068561187638],["помещени",-7.738816032784607],["помещения",-7.742308519545442],["без",-7.7443816216535915],["все",-7.745276508374113],["объекта",-7.746982711711097],["безопасность",-7.750224885513394],["панел",-7.75391386847327],["устройства",-7.7548819940436005],["под",-7.766947832273369],["d",-7.771682774666054],["измерени",-7.775747091656339],["защита",-7.783295832735087],["арматур",-7.787813885516041],["проектно",-7.790207179239483],["техническо",-7.7907083880662915],["ч",-7.7968320684369665],["20",-7.799896244532301],["режим",-7.800623126872886],["опор",-7.801853999114176],["устройств",-7.811859056379936],["воздействия",-7.81239963792337],["после",-7.812403586331524],["обеспечивать",-7.813179371333434],["стандарт",-7.816094348022524],["автоматизированн",-7.820577753438862],["применять",-7.820740593630738],["необходимы",-7.822275438453427],["опасны",-7.8315466265528055],["элементо",-7.834426773770593],["18",-7.836942924475261],["применение",-7.847296303393907],["23",-7.8537706510470535],["расчет",-7.858365958550826],["блок",-7.858962717013846],["°",-7.860810889443855],["значения",-7.8608676042024905],["вид",-7.862582777620015],["мест",-7.865380027566296],["средств",-7.866761231176035],["прокладк",-7.866967919607365],["указаниям",-7.89091871226704],["выполнен",-7.901496862968565],["приемк",-7.906783172384305],["качеств",-7.90839840891205],["ны",-7.911530022934923],["района",-7.914776057127138],["устройство",-7.921155736566885],["конструкторск",-7.924664427350286],["101",-7.924846247148254],["сооружени",-7.926680389657117],["конструкция",-7.931796448538442],["закона",-7.935052835165798],["организаци",-7.936849337176804],["выполнять",-7.937592821959949],["маркировк",-7.939027414217906],["соединения",-7.941667057163771],["ст",-7.9466399226509585],["прибор",-7.949376200133191],["%",-7.950551892005511],["методическим",-7.954665831731424],["допускает",-7.958858629826956],["их",-7.959374559268463],["15",-7.96143579357649],["технологически",-7.966904130316348],["98",-7.967945276047641],["ц",-7.9696291021321946],["материально",-7.975303176723965],["производственно",-7.977268143596681],["ем",-7.982547997718611],["между",-7.983660684584048],["35",-7.98651559675518],["грузов",-7.987160855921671],["трубопроводов",-7.987791727482764],["труб",-7.99173952649609],["выбор",-8.000096590578673],["детал",-8.000300946742945],["определяет",-8.009541918652685],["изоляци",-8.015563993172169],["срабатывания",-8.022031268338399],["тока",-8.0230056978265],["категори",-8.025180459477692],["переч",-8.034230759272914],["ж",-8.039601501044686],["данны",-8.041276567579601],["изготовител",-8.042242347185102],["насосо",-8.04303654603563],["комплект",-8.04537865212648],["знак",-8.045671322290701],["показател",-8.047262417256604],["размещени",-8.047772234148237],["возможность",-8.052562337385776],["85",-8.053222099484389],["применени",-8.05769605691769],["нефти",-8.06201054456097],["изготовление",-8.062568988253123],["воды",-8.067289376218254],["контроль",-8.070230542115088],["25",-8.07727260161181],["случае",-8.081339279982497],["сни",-8.088132167044005],["напряжения",-8.088779280945875],["100",-8.092226288101328],["нефтяно",-8.093134660402086],["заказчик",-8.09528437113054],["типов",-8.096571577110756],["изготовителе",-8.099341219245382],["времен",-8.103503719000095],["следу",-8.106389476235279],["ток",-8.107727994627236],["срок",-8.108259031152379],["i",-8.109420363263157],["регулировани",-8.112666116244688],["нагрузк",-8.114621728299838],["здания",-8.115060028920583],["зависимост",-8.118800156326387],["поверхност",-8.125876207739424],["противопожарно",-8.129450731706378],["климатическо",-8.131108119758977],["|",-8.138061074135098],["ости",-8.138352154193072],["условн",-8.140736698307002],["основани",-8.142127724690615],["инструкци",-8.143330886857214],["89",-8.146698306197429],["ms",-8.150083435428385],["газово",-8.151520353063429],["правил",-8.153137740903102],["сторон",-8.154637568166168],["схем",-8.162103984245345],["назначени",-8.16472073471601],["уэ",-8.17234580441599],["примечани",-8.174632680449612],["ухл",-8.182830945083689],["обслуживани",-8.184007293745722],["1515",-8.185536235708605],["80",-8.185652838803856],["вентиляци",-8.187094953198901],["трубопровод",-8.188524890023249],["фактор",-8.195024724233782],["30",-8.195757464058204],["напряжение",-8.19789807342431],["технологическ",-8.199654325502019],["чере",-8.201910446407716],["формул",-8.204377956657236],["пр",-8.205620138524086],["упаковк",-8.206839854717254],["выполн",-8.21055989856127],["давления",-8.214328361807084],["96",-8.221132176751194],["действия",-8.221556620789604],["24",-8.222894516848022],["металлически",-8.22374502792138],["осуществлени",-8.227725072950577],["60",-8.228941380947095],["може",-8.233711276857935],["надежност",-8.235249383113379],["сварны",-8.235721691749921],["14",-8.236112626427635],["федеральн",-8.23673670168263],["кабеле",-8.237711222537246],["ремонта",-8.242479604704773],["информаци",-8.24530398284724],["способ",-8.25250609756199],["наименовани",-8.25514775246427],["вводны",-8.255554548086852],["места",-8.258633851872457],["110",-8.262460531045033],["81",-8.263832361234414],["назначение",-8.271700282842474],["13",-8.274700984130883],["ш",-8.288602837791618],["сети",-8.289637933427027],["ресурс",-8.293478832491541],["50",-8.295673920268786],["штуцер",-8.298146324858918],["включа",-8.301311734784338],["16",-8.303596822275034],["рабочи",-8.314314193784409],["01",-8.315106871303279],["объект",-8.316463190363455],["автоматик",-8.325238883006046],["wor",-8.325701810432204],["69",-8.325861889996137],["принят",-8.33217234271538],["типовы",-8.333305108333548],["n",-8.334483218591423],["значение",-8.337795103208625],["доступ",-8.339125893015805],["40",-8.342462021156432],["выше",-8.348177601246203],["выполнение",-8.352742880185719],["том",-8.36087956383613],["блока",-8.361589032764936],["токов",-8.361678025986842],["прочность",-8.362911156394809],["предусматривать",-8.364846787587066],["аппарат",-8.36492330933266],["следующи",-8.366881269192444],["s",-8.368065099819852],["объем",-8.37070739803212],["пожарн",-8.37244400685825],["ii",-8.373096800778395],["услов",-8.376385878084342],["врем",-8.37774579812412],["указан",-8.378405166636528],["87",-8.380834254623064],["рас",-8.3918409521801],["коэффициент",-8.401042760323246],["тс",-8.401129423234474],["кл",-8.403729113948586],["изменени",-8.40407411734465],["настоящим",-8.406896029185301],["мэк",-8.410201146210046],["измерения",-8.412043173520935],["подготовк",-8.412298727610683],["приборо",-8.412759386272292],["зж",-8.414536472551553],["рис",-8.415670715050405],["установка",-8.417325472719208],["воздействи",-8.420466249889637],["распоряжени",-8.421226209272511],["сигнализации",-8.422424652263153],["заземлени",-8.424194173421013],["ост",-8.426902103157119],["средства",-8.428289352150237],["настояще",-8.429199240247037],["пример",-8.429336538172821],["техническим",-8.429681322566914],["документа",-8.429689863595808],["расчета",-8.431029911708745],["внутренни",-8.43144867575591],["цель",-8.432428557991178],["виде",-8.434543509404481],["номинально",-8.437028322019046],["обеспечение",-8.437284332721418],["84",-8.439334774557047],["конструктивны",-8.440096252004743],["охране",-8.441969571408144],["11",-8.446371675518526],["мм",-8.448749274664857],["макрос",-8.449699864016544],["реле",-8.453439151897122],["атмосфер",-8.454423673662866],["можен",-8.456335210175995],["разработан",-8.457588428592029],["групп",-8.457951576872052],["эксплуатационны",-8.461253317798477],["спецификаци",-8.46474768445888],["числе",-8.465506833796006],["общ",-8.46605510928885],["производить",-8.46624507228511],["блочно",-8.466423400674069],["со",-8.466612591084967],["паспорт",-8.46912670868446],["одно",-8.47017931591965],["автоматизаци",-8.470647052904866],["документо",-8.473539187580045],["связ",-8.474364554513308],["внешне",-8.474683310682373],["внутренне",-8.477218607096686],["деятельност",-8.481088759227363],["значени",-8.483537518245992],["технологическо",-8.488171843847397],["соответствия",-8.490328634766087],["коррози",-8.491510379322872],["правительств",-8.492310898776807],["единиц",-8.495787774311545],["техническом",-8.497336483485675],["проведени",-8.504104676535665],["потреблени",-8.508505043188164],["корпус",-8.509024464316052],["питани",-8.51092440683835],["вл",-8.518821070041305],["санитарно",-8.521880716858256],["выполнени",-8.533979717264623],["комплектаци",-8.534089532234434],["шифров",-8.53551895506856],["организация",-8.536702748053958],["представлен",-8.53877018477845],["потребителе",-8.540216338905308],["инструкция",-8.542824216850178],["76",-8.543289243760128],["90",-8.5499641136335],["*",-8.55321365965761],["ввода",-8.555066557436419],["диаметр",-8.556144805776498],["сооружения",-8.557043381466475],["постановление",-8.558508957195125],["ресивер",-8.565323110577536],["крепления",-8.566174859867285],["которо",-8.56806992029908],["рекомендуе",-8.570378091614767],["ящик",-8.576017051437937],["покрытия",-8.57639035142475],["узл",-8.57790154993578],["91",-8.579019010262988],["класс",-8.579330052494015],["содержани",-8.580631307515972],["узлов",-8.583714131168716],["основания",-8.584000250332764],["химически",-8.585176965277522],["предназначен",-8.586276506183328],["этом",-8.587338100926493],["решения",-8.587558522009505],["жидкост",-8.58824822710188],["2007",-8.588278383831758],["изменения",-8.593326406278216],["двух",-8.595126077814221],["199",-8.59964759858507],["нефте",-8.599977794221951],["корпуса",-8.603027267164563],["газов",-8.608250194117634],["184",-8.608540049059659],["взрывоопасны",-8.610334733171877],["двер",-8.61717964199396],["район",-8.61730507375727],["зон",-8.61982555824155],["фланцев",-8.620962332600296],["ли",-8.621337605230023],["цнс",-8.62386713176038],["ства",-8.625951718943734],["граф",-8.626146474511195],["номер",-8.627151293937024],["корпоративны",-8.637400275592572],["открыто",-8.637775448855338],["высот",-8.639573866358525],["подач",-8.639682680606342],["обеспечи",-8.641602366094975],["формировани",-8.643046751600426],["асн",-8.64352977787469],["уров",-8.644522767451688],["автоматически",-8.646432288866352],["списк",-8.64747119976753],["максимально",-8.649771105102165],["нип",-8.650568036759857],["техник",-8.651291174404712],["вносит",-8.65452901235965],["надзор",-8.656676268751692],["част",-8.65749210219099],["принцип",-8.657602430327984],["обща",-8.658164078051922],["комплекс",-8.66215757934031],["корпоративн",-8.663173442094697],["здание",-8.663438063890794],["ции",-8.66530210154264],["электрически",-8.666795515079192],["условиям",-8.670739863409217],["пожар",-8.671188215454862],["превыша",-8.672388012604468],["ые",-8.674055913611394],["применяемы",-8.67438049974655],["нормативн",-8.676900705728663],["консерваци",-8.678125724231379],["установо",-8.682393463034888],["зтс",-8.685598753232224],["ниже",-8.687028804219239],["рассчитан",-8.68757826066961],["трубопровода",-8.68844116155547],["етс",-8.698216123001373],["частот",-8.69940586110399],["ск",-8.70008109449796],["измерительны",-8.700554106542441],["транспорт",-8.702007101834303],["уровня",-8.704720768687448],["персонал",-8.705877116662426],["осуществлять",-8.707373349391203],["контрольны",-8.70848612219616],["заказн",-8.708704550475417],["совокупност",-8.709367360350676],["исполнени",-8.710085160381222],["приложение",-8.712905395525965],["использовани",-8.713037742501937],["расши",-8.713117456138303],["предприяти",-8.714408403377908],["p",-8.714995653259223],["ка",-8.715768025843285],["служб",-8.721529691664761],["пол",-8.722641487852586],["химическо",-8.723001428483926],["требует",-8.723836294404297],["31",-8.725107479253618],["бов",-8.726245163828523],["взрывозащищенно",-8.72701682242884],["программно",-8.727088897365315],["решени",-8.728070732587668],["стен",-8.730654403205424],["технологическим",-8.731047513468177],["пожарны",-8.732885514380772],["классификаци",-8.734831456954588],["установленны",-8.735977301725956],["проекта",-8.737531485855724],["мощность",-8.740214548737656],["соединени",-8.742981565161994],["проектн",-8.744032554243978],["внешни",-8.746180010477763],["оболочк",-8.747774483329522],["погрузочн",-8.748267108025399],["правления",-8.750239816504447],["отхода",-8.753089341246483],["габаритны",-8.753474480142952],["толщин",-8.755520064934622],["разгрузочны",-8.755700541263822],["номинальны",-8.757571558241766],["количество",-8.758211012849829],["ввод",-8.759366111303587],["26",-8.76273934461642],["агрегата",-8.767406699059439],["приложения",-8.769519140874698],["гигиенически",-8.771419273518077],["мощност",-8.773461143183209],["мпа",-8.774172204557637],["сбор",-8.77447950624424],["выполни",-8.77645535616151],["реды",-8.777122984146668],["технадзор",-8.779368034639129],["ec",-8.780191218100686],["нефтехимическо",-8.782019815435518],["определяют",-8.782111324664733],["пожаротушени",-8.785120978942409],["порядо",-8.78701835836858],["цвет",-8.787324390311378],["повышени",-8.788345287457936],["ремонт",-8.789325181639917],["ргс",-8.791717886721708],["строительн",-8.791970058985616],["федера",-8.793230668258682],["нефтепродукто",-8.794255909278075],["конструированием",-8.794293519670937],["221",-8.794634635851548],["75",-8.794947654484309],["непосредственно",-8.796932821576226],["электротехническ",-8.799599671300903],["охранно",-8.800417052388532],["стали",-8.80079692911341],["функциональны",-8.80148512445302],["подбор",-8.80485725424067],["табличк",-8.80605160592221],["99",-8.80655765649833],["сварк",-8.806660747840024],["асу",-8.808871813048292],["справочник",-8.810094578195763],["долж",-8.810585597998962],["оповещени",-8.811389346550843],["проектируемы",-8.813285973666735],["различны",-8.814945086569068],["ровка",-8.817050508884911],["сосуд",-8.818626399454782],["устанавливают",-8.81880991846026],["21",-8.818942830687458],["режима",-8.820901686325683],["отсутстви",-8.822766362857516],["использовать",-8.82799533023192],["сборочны",-8.828220140010385],["транспортны",-8.835218434202153],["приложени",-8.836564508164958],["3325",-8.837783552350107],["ью",-8.841325257204637],["электроснабжени",-8.843482757719322],["добыч",-8.843670236047458],["предусмотрен",-8.849074716826543],["период",-8.85011186068116],["процесс",-8.850531701197603],["выход",-8.850968460862772],["заводо",-8.854649579888447],["центробежны",-8.856187356938303],["площадк",-8.856483568480975],["прочност",-8.85769584766711],["российско",-8.862692690716976],["детали",-8.864797181525898],["защитны",-8.869363422418367],["газ",-8.870169733063936],["ок",-8.870689525268313],["люде",-8.872729548122892],["планировани",-8.873280057611467],["отоплени",-8.875017107835323],["ip",-8.875857423222463],["коррозионно",-8.878598605430447],["муфт",-8.882059352440525],["отк",-8.884157467242268],["федерально",-8.885124030508205],["процессо",-8.885749471700755],["производств",-8.886615302349348],["комплектност",-8.891298494248591],["22",-8.892102272236812],["идентификаци",-8.893114538952016],["нормативны",-8.894351477396922],["му",-8.89674342822046],["использование",-8.897319983134212],["силовы",-8.897331258846904],["человек",-8.900297805099722],["типово",-8.900650249331171],["электроустаново",-8.901088987021605],["лестниц",-8.903566185758745],["графически",-8.904407482487542],["контрольно",-8.905162501917133],["ому",-8.906775350690946],["нужд",-8.908664965930113],["действующи",-8.90903579191206],["текстовы",-8.912795696043986],["механически",-8.913624563402156],["активны",-8.917004131106093],["массо",-8.917341455183216],["постановк",-8.918592294723911],["отдельны",-8.920586932085932],["инженерно",-8.922205830910759],["ограждающи",-8.92321990563067],["шрифт",-8.924927748453902],["помощ",-8.925043751522116],["сохранност",-8.927447994744915],["масс",-8.93004952883411],["производство",-8.93156587748999],["листа",-8.933518000760749],["внутри",-8.934323909717296],["информационн",-8.936226509783683],["работоспособност",-8.936401155727818],["ступен",-8.937456592155716],["характер",-8.938019994828446],["проектны",-8.938813650463544],["изменяемы",-8.939169432386937],["баз",-8.941231572807672],["галоч",-8.941421766132269],["88",-8.94193277457298],["кондиционировани",-8.942701394565805],["активировать",-8.943378517383998],["эти",-8.943935273038182],["опци",-8.946689444719091],["перерабатывающе",-8.950179803109947],["переменны",-8.950479886305605],["качестве",-8.95061479358122],["кровл",-8.952701355862185],["500",-8.953163715063551],["используем",-8.956988935391234],["файл",-8.958244823869318],["конструктор",-8.959587316690435],["прокат",-8.961151913928262],["государственны",-8.961637177318927],["соответствие",-8.966341904921418],["электродвигателя",-8.967090985209326],["климат",-8.967336622513432],["ет",-8.968553602495597],["эвакуаци",-8.969405369930316],["010",-8.970565365144875],["утвержденным",-8.970686589170032],["агрегат",-8.97110991774172],["бы",-8.971771342043109],["116",-8.971987020369047],["насосны",-8.973038845113775],["аб",-8.975640535506324],["сгор",-8.9757265480522],["ку",-8.976944010696208],["наличи",-8.97807542615967],["17",-8.978088147010672],["сдаточны",-8.979509438136095],["ипиа",-8.983068818325973],["порядк",-8.986350075271663],["подключени",-8.986970717744965],["классификатор",-8.988157803808292],["взаимозаменяем",-8.988381490682688],["устанавливающи",-8.98847543292954],["клапан",-8.98992104986869],["сти",-8.990543937456916],["внесени",-8.99160079277476],["19",-8.992014406664733],["положение",-8.99286031262738],["ручн",-8.993904947357315],["отключени",-8.994841359487921],["необходимост",-9.000145229641593],["ольк",-9.001321414261485],["обозначени",-9.00325776652343],["опасност",-9.005090649896598],["трубопроводн",-9.011132038480309],["освещени",-9.011179217562384],["вич",-9.011483159450485],["промышленн",-9.016705796912763],["ения",-9.022334206573557],["основно",-9.023035803421834],["дефект",-9.026019214270756],["сокращени",-9.026699604593702],["решениям",-9.02927916726004],["приемо",-9.029549217484513],["содержащи",-9.032668096139762],["сли",-9.038849755182964],["нанесен",-9.040827224088476],["обеспечивающи",-9.042859282125434],["отключение",-9.049813151649904],["соответствующи",-9.050330387323253],["установлен",-9.05242012390714],["утверждени",-9.05355799451187],["автоматическо",-9.053829887484486],["мероприяти",-9.055456707384923],["мтз",-9.057672275229406],["150",-9.05894849594362],["несущ",-9.06158655068209],["сан",-9.06206526089207],["сигнализаци",-9.064050750775532],["унификаци",-9.065380544142428],["стандартизаци",-9.066973074908319],["материала",-9.06918118407461],["плюс",-9.072923874523944],["релейн",-9.074170659484391],["максимальны",-9.076431284216799],["вод",-9.078150591923023],["форме",-9.080845953533334],["покрытие",-9.082602501867452],["срока",-9.082970436580737],["соответствующе",-9.084396194421913],["выдерживать",-9.08603885581984],["принимать",-9.089571910149939],["проект",-9.090609258836668],["возможност",-9.09105743838324],["6007",-9.09246167620786],["охран",-9.09498656596709],["энерги",-9.0954918259534],["соединительны",-9.095681852529943],["фланц",-9.09815232872236],["резьб",-9.09829598008626],["утвержденно",-9.103851124239036],["это",-9.105140007966039],["наружны",-9.105162378012421],["операци",-9.105234747157947],["наружно",-9.10608575766507],["подшипников",-9.106271808061788],["направлени",-9.106952873907602],["проводников",-9.10794546858817],["герметичность",-9.10991122679703],["место",-9.112474773624397],["300",-9.114952639331666],["нц",-9.116165462916047],["степен",-9.117935904182282],["трансформатор",-9.118527546975749],["02",-9.120294416510799],["заданно",-9.121010720777804],["оборудован",-9.121578570033856],["шкаф",-9.125053745130774],["водоснабжени",-9.127620587541841],["работающе",-9.12796170765612],["предназначенны",-9.131016885855905],["указанны",-9.133001809973592],["приспособления",-9.133353945432075],["лент",-9.133936347211652],["нса",-9.138091454201987],["глоссари",-9.138302188381047],["извещател",-9.138534467267965],["течени",-9.138975746793161],["государственн",-9.139057562185892],["избыточн",-9.140290328114677],["установленным",-9.140503668778297],["величина",-9.140797184892959],["надежность",-9.141475389628535],["относительн",-9.141938447183522],["ширин",-9.14201387186988],["результато",-9.142545213659467],["iso",-9.147770060743373],["услуг",-9.149191180846124],["проектировщик",-9.14926759976144],["цикла",-9.149491876783031],["класса",-9.15027920426978],["856",-9.152237106139328],["налива",-9.152809990762687],["монтажны",-9.153833608661152],["марка",-9.154093933204285],["зрывопожароопасн",-9.15409734914182],["промышленны",-9.154449903755033],["кабеля",-9.156134771100199],["71",-9.160101789917562],["норматив",-9.16112423209437],["наличие",-9.161738093048216],["07",-9.163068774429469],["точк",-9.163088196417752],["относят",-9.163453988012389],["ым",-9.165748288349313],["стенк",-9.16806747886156],["сейсмическ",-9.168142574793228],["инструмент",-9.168594630381264],["обой",-9.168994971621249],["выполненн",-9.169808907999204],["скважин",-9.169945766513298],["свойств",-9.176375154909925],["ния",-9.179335898950232],["месторождени",-9.179843521469113],["характеристика",-9.179880235223417],["номинальн",-9.18224674816529],["отстройк",-9.18360237402899],["снижени",-9.184114440976415],["нагрузо",-9.185215177209436],["соответству",-9.190749871315791],["47",-9.191056365208581],["пола",-9.191814656566928],["расположение",-9.191929463178308],["котор",-9.19361662657763],["канализаци",-9.19390745394443],["реализаци",-9.194140353319359],["отопление",-9.194457457995195],["датчико",-9.194557475065642],["состояния",-9.194736785256314],["максимальн",-9.195155690620618],["проводить",-9.195377236152284],["обязательно",-9.20279021551615],["95",-9.204365712940751],["присоединительны",-9.20455957291729],["результат",-9.206482038777203],["влажность",-9.20654904486352],["функци",-9.207149344291434],["мог",-9.207763615713299],["крепежны",-9.209265872907142],["пакет",-9.210001528067274],["прокладка",-9.210879132491566],["сигнал",-9.211929484119375],["станци",-9.212011434738884],["наруж",-9.215867705586112],["инвестиционно",-9.21726973854274],["несейсмостойко",-9.217743970650895],["точност",-9.21839926896425],["кабел",-9.22205514358012],["r",-9.223098416645552],["другим",-9.22427918966096],["t",-9.224638004438486],["предоставлени",-9.225497124912655],["ру",-9.228761144335351],["колебани",-9.228875106783],["месяц",-9.228921601866011],["степень",-9.229073147152],["паров",-9.229185230525538],["чувствительност",-9.229768060038793],["красны",-9.23393285623633],["рабоч",-9.234334657031898],["электрическ",-9.236229967661316],["кв",-9.236634741147277],["эн",-9.241031389715861],["пу",-9.241047955710464],["процесса",-9.244521583452158],["строповк",-9.244982264071172],["электрическо",-9.245343372024749],["очистк",-9.246204802553924],["технологи",-9.2470204127373],["транспорта",-9.247780072308858],["78",-9.248467181908842],["передач",-9.249489295809589],["напор",-9.250193785179157],["сигнальны",-9.250303221986835],["допустимы",-9.250375765504419],["емкост",-9.251146153684331],["67",-9.253938321245734],["составляет",-9.25465665200555],["крепление",-9.25614089321503],["технология",-9.258599332618086],["работающи",-9.259587119509263],["102",-9.261933408557468],["автоматическ",-9.26325190132884],["поверк",-9.26410354262838],["форм",-9.264483285840974],["ответственность",-9.26741050620416],["среда",-9.26859160537878],["c",-9.272203605554367],["отдельно",-9.274389771675029],["нефтехимическ",-9.275566367694147],["поры",-9.276994974892748],["подтверждать",-9.277356079201342],["макроклиматическ",-9.277454719743293],["охлаждени",-9.277517060873981],["внов",-9.277601210954597],["как",-9.277991578217549],["носят",-9.278387665155876],["подкласс",-9.279051684864847],["действие",-9.279162581888915],["комплектно",-9.279372396674994],["эксплуатационн",-9.280071642981444],["осуществляет",-9.280126747189477],["34",-9.280288557257158],["оценк",-9.281055534327102],["3260",-9.286026295008945],["обмотк",-9.286224866251409],["сборк",-9.286825364919345],["ен",-9.288102032739427],["длин",-9.289369161082547],["поздн",-9.289878238979362],["каждо",-9.291561096344385],["работника",-9.291824572991281],["79",-9.292996631701396],["уплотнения",-9.293699959446998],["расстояние",-9.294878675756353],["патрубк",-9.295483421482832],["выдержк",-9.296218063911299],["генератора",-9.298544357424813],["линия",-9.300956278965526],["кран",-9.303458675580844],["ость",-9.305403978973589],["обеспечен",-9.306177918160863],["разме",-9.307437590174679],["доступны",-9.308034275219285],["53",-9.310696225767433],["напряжени",-9.312773844233467],["электромагнитн",-9.313388763699198],["шин",-9.313574207938737],["оставлять",-9.313793569271436],["ответны",-9.314980862112797],["силово",-9.315204615895372],["÷",-9.315219849035794],["шифр",-9.315710826446258],["012",-9.315896477081445],["ресурсам",-9.317982162398966],["уставк",-9.318561988569137],["38",-9.319095091121294],["характеристикам",-9.320854683379093],["огнестойкост",-9.32239701598424],["молниезащит",-9.322748793242175],["росси",-9.323171749935934],["основе",-9.32504534768788],["заводско",-9.32520487983235],["сертификат",-9.325654903024757],["антикоррозионн",-9.326301708030796],["заземление",-9.326687896534446],["сертификаци",-9.328717120897682],["следующем",-9.329234327891575],["секци",-9.330814657865204],["129",-9.333476956096582],["жилы",-9.333569780300532],["едины",-9.334358133025244],["охранять",-9.33456552527048],["бытовы",-9.334943353514223],["проектным",-9.335922962352107],["согласовани",-9.336928815293298],["250",-9.337197820046669],["ности",-9.338294226931229],["де",-9.338962642291843],["вход",-9.3390672287466],["задани",-9.34108091104168],["проверк",-9.341417520971294],["климатическ",-9.342893587272345],["величин",-9.343997497235378],["привода",-9.344015725804232],["мелко",-9.344125665832951],["источник",-9.345678403730119],["раз",-9.346043463476025],["1425",-9.346303940513103],["рисунк",-9.347873537685464],["верхне",-9.349024715642152],["32",-9.350028457444266],["описани",-9.351647532907126],["сечения",-9.352358899760398],["область",-9.353489526194908],["сопротивление",-9.353523221393955],["основ",-9.354558090184788],["экспертиз",-9.354711464407142],["электроэнерги",-9.36397450164095],["котором",-9.365291686510934],["04",-9.366670880164033],["шум",-9.368476476046691],["70",-9.369198535799281],["несущи",-9.369683930597652],["утеплител",-9.369768454460207],["проверка",-9.370907936310756],["трансформатора",-9.376057511991856],["3024",-9.377657674455254],["кром",-9.37817067196195],["расчетны",-9.379337474625352],["ряд",-9.381896581576445],["",-9.381910233743483],["231",-9.382840209047217],["защитно",-9.383297372395955],["во",-9.383533434625111],["обработк",-9.3837138200407],["энергетическо",-9.384719373908066],["чтоб",-9.385208884266143],["закрыты",-9.386202594993893],["ротора",-9.386947105426119],["160",-9.392954851710286],["потенциал",-9.39471500830857],["жил",-9.395352504754836],["вращени",-9.397166153472542],["содержат",-9.397826833254122],["всем",-9.39873860207381],["77",-9.400395809448472],["74",-9.402075916068876],["включать",-9.402653797218559],["повреждения",-9.408025157089249],["повреждени",-9.40898829195055],["предел",-9.409481776992783],["определенны",-9.410014008407654],["достигать",-9.41005704522018],["аво",-9.410108996429557],["вибраци",-9.410120382574938],["установ",-9.41112017042006],["указание",-9.411203477285902],["расчетам",-9.41390404551327],["гарантийны",-9.41617624617222],["автомобильным",-9.416677577043133],["данным",-9.417440015247582],["45",-9.420781554744705],["кабельно",-9.421760286271343],["покрыти",-9.424083491235308],["=",-9.42416934396034],["поверхность",-9.424542566774853],["зоне",-9.424878420580653],["h",-9.425963034463276],["зона",-9.426175369327684],["независимо",-9.426519036277131],["воздушны",-9.429574746747601],["производственны",-9.42975716937869],["1650",-9.432281850016707],["переработк",-9.43282471980805],["пин",-9.433491127702052],["запасны",-9.433841863066368],["комплектующи",-9.436230485068972],["сете",-9.436630022686742],["05",-9.43706103707883],["механизм",-9.437512212206583],["испытаниям",-9.438069634004837],["поставщик",-9.438276527933319],["программ",-9.43896154466005],["категория",-9.439267640615459],["аттестаци",-9.439360725531],["методик",-9.439521425718878],["минус",-9.440813408463331],["экологическо",-9.4431597791089],["замен",-9.443237181921376],["горизонтальны",-9.444668981741387],["прямоугольны",-9.445156008019378],["территори",-9.446101349134917],["565",-9.446629331062933],["l",-9.447992168642251],["расчето",-9.450220403649585],["исключит",-9.450586201164533],["развити",-9.450857538897269],["фундамент",-9.452817352741661],["электропередач",-9.453653687306604],["камер",-9.45429518685411],["минимально",-9.454307174084569],["трасс",-9.454544490472411],["центра",-9.455369653927328],["раздел",-9.460795056982704],["ним",-9.462120179254981],["перевозк",-9.462614689231795],["41",-9.463090018304623],["материалам",-9.46334304990472],["интерфейс",-9.466247571076806],["гаранти",-9.46649591188881],["дополнительны",-9.466680292935516],["гайк",-9.47032513964721],["устанавливает",-9.470646577714025],["расположени",-9.47119809768388],["разборны",-9.471521273432568],["выполняет",-9.471697570011308],["узла",-9.47289469254931],["центр",-9.474580011572115],["источнико",-9.47498497710573],["совместимост",-9.476415997471499],["1000",-9.476940247034038],["27",-9.476943630042358],["153",-9.477975750035743],["аналитически",-9.477978313883003],["теплов",-9.48146030389408],["изделиям",-9.481904500371256],["горяче",-9.48237382475872],["36",-9.483494863534546],["учитывать",-9.483656435921976],["уплотнени",-9.484163100150578],["закрыт",-9.485924182071996],["та",-9.48701884839221],["освещение",-9.48920005079896],["открыт",-9.490017137521008],["ия",-9.490508610173135],["функционально",-9.492013108358266],["входно",-9.492015785951754],["предела",-9.492656404118515],["запорно",-9.493055714286204],["проход",-9.493074266751783],["полно",-9.496415843969679],["распределительны",-9.498334185640648],["изготовлен",-9.50003525870844],["мер",-9.500502030116877],["действи",-9.501728432871932],["прием",-9.501866535006823],["производит",-9.502349800288297],["специальны",-9.50513469727994],["пожара",-9.5058375587898],["конструктивно",-9.506490512096796],["длительно",-9.507168162939216],["агрегато",-9.507175952492169],["2000",-9.507319147062375],["старени",-9.508931258287998],["температура",-9.509751191307613],["обнаружени",-9.510356542091223],["192",-9.51281223105175],["зрывобезопасност",-9.51306438722569],["загазованност",-9.514468198295294],["касающи",-9.514584457273715],["являю",-9.514622693573523],["управление",-9.514635240195604],["внутренн",-9.515994639778341],["сырь",-9.516308036506043],["сталь",-9.516507781303279],["выделен",-9.517740176569887],["широком",-9.519662761425003],["блоко",-9.520510643587587],["теплообменны",-9.521382623942134],["предназначенно",-9.523489217029951],["отделк",-9.523572144359239],["присоединения",-9.524170190211303],["основн",-9.524885185797007],["расстояни",-9.52671021401512],["руководство",-9.526711932220035],["сейсмически",-9.526812301367716],["путе",-9.527231958259161],["надёжност",-9.530842852334715],["изированн",-9.531457284883036],["газовы",-9.531700401865873],["противопожарн",-9.53198829321757],["глубин",-9.532768639097345],["размерам",-9.533438252240646],["65",-9.533513727050344],["строительство",-9.533705281928235],["видо",-9.533778705449516],["комплекта",-9.53438631915585],["фаз",-9.536323439151918],["ющая",-9.537515981960247],["руководящи",-9.537754585692433],["аппаратур",-9.539575073561288],["ба",-9.540629552678638],["диапазон",-9.540946861255811],["один",-9.541565171313756],["выпускаемо",-9.54366169346233],["приборам",-9.54455807512022],["физическо",-9.544746326010326],["одном",-9.545292747859328],["u",-9.54609590995803],["утилизаци",-9.546481090062406],["предотвращени",-9.548702096224929],["системам",-9.553495019896973],["предельно",-9.556599045889556],["циальны",-9.556758076420628],["расчетно",-9.557111902228364],["то",-9.557667557942384],["перерабатывающи",-9.55792642421214],["09",-9.56027644897242],["актуал",-9.562761861342867],["нулево",-9.562849114973456],["пуска",-9.562927778165875],["еталлоконструкци",-9.563570396523179],["5046",-9.565160681807695],["фланцевы",-9.565442559771956],["сигнальн",-9.566350427965332],["принимает",-9.566601630745371],["используе",-9.566848293147675],["лиц",-9.567338416195298],["модуле",-9.567913525448809],["приняты",-9.568228862003963],["характерны",-9.568481616845048],["отдел",-9.571526625950867],["ах",-9.571921550752837],["станция",-9.572890239451798],["насосн",-9.572946758283198],["позици",-9.573030214807499],["договора",-9.573570411200532],["совокупность",-9.574520242089326],["чем",-9.575997113648663],["входит",-9.578811480320807],["определение",-9.578826942111348],["окна",-9.579151251330838],["устанавливать",-9.579755070050133],["теплоизоляци",-9.579934642360264],["датчик",-9.580550557487758],["ни",-9.580565852394955],["эстакад",-9.580790339923372],["контроллер",-9.58142874645769],["кабельн",-9.581954099228323],["плит",-9.58211874455662],["изготавливать",-9.583473518380803],["»)",-9.58419840080322],["труба",-9.586330341759034],["нефт",-9.587611354403386],["заданны",-9.592084403200142],["343",-9.597882663612072],["сопротивлени",-9.599005710190507],["либ",-9.599773296916986],["содержание",-9.600203172686276],["уд",-9.60082396556195],["нормам",-9.60092732856404],["планировочны",-9.601754800215097],["оболочкам",-9.601840930667889],["39",-9.601959670561808],["экран",-9.60234360341192],["выбирае",-9.603062699068815],["расположен",-9.603421604748949],["рам",-9.603717535859873],["образц",-9.604006780905113],["генератор",-9.604125293315724],["обогревателе",-9.60473994132963],["над",-9.606934673769],["ность",-9.607384628801782],["локальны",-9.608570139294955],["уровн",-9.609078401478948],["экрана",-9.609567482904058],["безопасно",-9.611586469019722],["давлени",-9.61194349985691],["противопожарны",-9.612121446288224],["выбирать",-9.614960474542972],["ремонтопригодн",-9.615245757734638],["болтов",-9.61677436893395],["закреплен",-9.617182508704243],["дугов",-9.618458965667324],["общественны",-9.618690806339766],["топлив",-9.619703043400367],["аппарато",-9.620718516891829],["нефтехими",-9.621942209968296],["определен",-9.622999917081955],["количеств",-9.623063515246816],["ном",-9.623381918170404],["друг",-9.627051530671316],["цел",-9.627174077516905],["f",-9.627385281132401],["средство",-9.627608202796072],["создани",-9.627848434754249],["эд",-9.62905190832362],["правилам",-9.629085737943148],["болт",-9.629533159273494],["29",-9.630910985830363],["действующим",-9.631343621004687],["отношени",-9.631527465965174],["131",-9.635019898175315],["взрывозащит",-9.637074307659578],["электродвигател",-9.637521824785118],["мин",-9.638014230373226],["заземляющи",-9.638562760930382],["целе",-9.63919694543647],["размещение",-9.639641827659151],["нефтяны",-9.639869622033194],["резерв",-9.64384580702198],["ему",-9.646104971850757],["отдельн",-9.646303933517972],["что",-9.646858673888303],["воздушн",-9.648992771625924],["капитальн",-9.649799310396281],["смазк",-9.652567093961547],["сеть",-9.65264851370813],["236",-9.653200991548914],["заполнение",-9.653300795503583],["обвязк",-9.653384648784272],["федеральным",-9.655015625941552],["потребител",-9.655636442834375],["раздело",-9.655847944867894],["металлическ",-9.656096402474063],["ающих",-9.65721560040489],["настройк",-9.657323334853888],["час",-9.659139320300262],["рамка",-9.659607682273958],["объединен",-9.660102764439994],["представляющи",-9.66111225074858],["вредны",-9.663339997146737],["низк",-9.666349763829274],["агенто",-9.66657595600123],["уплотнение",-9.66714752946974],["72",-9.668853959393397],["обязательным",-9.671111696128087],["коммуникаци",-9.673615630453961],["установленно",-9.67494331451076],["лист",-9.67544963830286],["искусственно",-9.676199810162906],["климатологи",-9.676707995608899],["веществ",-9.677118500953217],["изготавлива",-9.677651882956924],["элемента",-9.680344100064566],["выключателя",-9.68069203051236],["углеводород",-9.681402513692278],["отверстия",-9.681821187548168],["необходим",-9.684815613092377],["офи",-9.686035306790664],["вариант",-9.686862510132888],["компоновк",-9.68689541909107],["данн",-9.68710364604849],["выпад",-9.688548745110104],["свет",-9.689203536082339],["закупк",-9.689861444066693],["деревянны",-9.690033706655166],["выключател",-9.691954433661554],["изделие",-9.692367129766073],["контур",-9.693263651561592],["обязательны",-9.6937119393386],["нижне",-9.694397118941664],["330",-9.695939178464261],["высота",-9.697090794396056],["уровне",-9.697520614994147],["реконструкци",-9.697921972265215],["ос",-9.698274129444641],["ступень",-9.699200731576736],["единичн",-9.701078514589353],["дного",-9.701101759561029],["ключительн",-9.701587174374001],["наружн",-9.701710769372689],["эпидемиологическ",-9.704676436622336],["каркаса",-9.704759142014305],["нормативным",-9.705183250930553],["вертикальны",-9.705619322379832],["определять",-9.707109291518329],["привод",-9.707531961852972],["шаровы",-9.708161824887767],["показателям",-9.70818262841085],["индивидуальны",-9.709865735248313],["400",-9.709881228957457],["вида",-9.711465718508057],["кажд",-9.711513854386194],["хранение",-9.711606614460226],["перегрузк",-9.711702121403398],["марки",-9.711741794182515],["подлежащи",-9.712207855542228],["обслуживание",-9.712784529400567],["аспс",-9.713015339084526],["раздела",-9.713886475326763],["стально",-9.71395075083888],["процессам",-9.714732309664784],["оследовательност",-9.71715840541296],["93",-9.718652427880777],["поставлять",-9.719917533460833],["инженерны",-9.720931867362946],["допустимо",-9.721240865957558],["виду",-9.721393053386672],["лицо",-9.721457595682043],["холодны",-9.721902454356862],["постоянн",-9.723419424570597],["юридическ",-9.725345503812283],["горени",-9.72567244895702],["обеспечиваемы",-9.726105332007183],["железобетонны",-9.727561253291322],["еры",-9.727682347390974],["осмотра",-9.728596547011147],["полн",-9.728783088648658],["дополнительно",-9.729753125176934],["деталям",-9.731093682012332],["хозяйственно",-9.733947507190294],["силов",-9.734515786365307],["фильтр",-9.734679911922044],["шина",-9.73527891935418],["устав",-9.735338853745859],["структурны",-9.735965074412693],["металлическо",-9.736835869338172],["замыкания",-9.742134228192189],["само",-9.742986733617673],["используемы",-9.746472428844115],["кабель",-9.748797749379397],["обмото",-9.75011824936767],["ходящих",-9.752690821784814],["соединение",-9.752963470545929],["прожива",-9.75359770522632],["разрешительн",-9.753832842191095],["надежно",-9.754679548467376],["политика",-9.754691809326564],["табличка",-9.755152035130344],["устойчивость",-9.7570366216929],["строительно",-9.757424236885008],["канал",-9.758099820802617],["объемно",-9.758334913299661],["модели",-9.758741981699256],["пуск",-9.759705217038764],["оповещател",-9.761641768671424],["проводов",-9.76217539843322],["допуск",-9.762533595340635],["случая",-9.763525537899199],["разборк",-9.766309448450434],["133",-9.76794562288456],["выполненны",-9.7690587622363],["подразделения",-9.769366882048706],["28",-9.769442725717356],["численност",-9.769623520205325],["пункт",-9.770025401577664],["заполнени",-9.770846324358567],["ходить",-9.770980572326575],["изыскательски",-9.771597803712513],["299",-9.776811858950538],["отклонени",-9.777550045428304],["герметичност",-9.778085960140228],["воздушно",-9.779638599014273],["положени",-9.78391220728528],["крайне",-9.784025279168056],["естественно",-9.784096232214836],["клеммны",-9.784283817694241],["язык",-9.784882188995683],["арм",-9.78643548849655],["земле",-9.786504094802046],["аварийно",-9.787221352642],["готовност",-9.787247627192869],["выполненным",-9.787705523685526],["таблиц",-9.78804970454831],["тель",-9.788131219478533],["коробк",-9.788900936525355],["013",-9.789163954327366],["каркас",-9.789818438324705],["учёт",-9.790919583342145],["сау",-9.792934783015093],["преобразовател",-9.79314245664272],["последовательно",-9.793194098578244],["корпоративно",-9.793356329080131],["профиля",-9.793501923438203],["условном",-9.795285555129336],["площадо",-9.797961928696225],["предназначенн",-9.798870011287846],["стар",-9.799272529106673],["ным",-9.800806954659826],["план",-9.802174041039585],["энерго",-9.802261327119778],["кой",-9.805149860898899],["обращени",-9.805768833819709],["наработк",-9.806134059412928],["наибол",-9.80622611152086],["64",-9.806333462210024],["толщина",-9.80907222363792],["холодно",-9.809701718124423],["проектируемом",-9.81154258740323],["распространени",-9.811546754058636],["комплектны",-9.811946983864242],["средствам",-9.812272433937462],["природны",-9.81230081962071],["технико",-9.813817460724277],["сейсмичност",-9.814424210341704],["шаблон",-9.816053548705089],["94",-9.816760670894089],["резервуар",-9.81729643356569],["52",-9.817647359987514],["соответствующим",-9.817723531811138],["сложн",-9.81800540374119],["машинам",-9.81831036328354],["эвакуационны",-9.818624094418977],["окружающ",-9.819334677207998],["локальн",-9.820263131368954],["постоянно",-9.820933217215785],["исо",-9.82110765939866],["вещества",-9.821541929162017],["дня",-9.823422146515538],["участка",-9.824145823986779],["исходя",-9.82498411034851],["водопровод",-9.82540534676027],["…",-9.826033141326592],["149",-9.826147992317898],["самозапуск",-9.826629300065195],["настоящ",-9.827078285120301],["предполагает",-9.827433048941089],["удовлетворя",-9.828141744080503],["цеп",-9.828732750997276],["обустройств",-9.828898064696382],["конденсат",-9.829348905050994],["этап",-9.829978132443598],["север",-9.831009850519525],["токам",-9.83241766968268],["железнодорожны",-9.832881614258062],["смес",-9.833363773839418],["факельн",-9.83381606706135],["признак",-9.833971827188238],["информационны",-9.835107711196159],["них",-9.835286808522373],["рекомендуемы",-9.8353267806521],["посредств",-9.83866798574029],["патрубко",-9.838821212541555],["питьев",-9.840622693181835],["следующим",-9.840906488810587],["помещение",-9.841011844452279],["встроенны",-9.841286147904523],["ограничени",-9.841662526958098],["шлейф",-9.84263914711977],["периметра",-9.843445994819831],["общем",-9.847073630710248],["запреща",-9.84777235331026],["множеств",-9.847831435637364],["прокладывать",-9.847861507340008],["сортамент",-9.848097915255423],["авр",-9.848662746744045],["разгрузк",-9.848784335721778],["компрессорны",-9.849382470118305],["приемно",-9.851299835041011],["базовы",-9.853268445339918],["клапана",-9.85343006264398],["факельны",-9.85383068546274],["питание",-9.854445032712661],["устройствам",-9.8551047542711],["металло",-9.85528609115752],["гос",-9.856393655499833],["визуально",-9.85705972597798],["стальн",-9.858085617801422],["второ",-9.858626767046502],["провода",-9.858628007696565],["щая",-9.859195987345032],["станов",-9.863069910030553],["компрессор",-9.863548527322314],["газо",-9.864597174056737],["сброса",-9.867897763889953],["участк",-9.86790187627036],["блочны",-9.86876089421785],["релейно",-9.86894124583285],["таким",-9.869809222670744],["законодательств",-9.870041717116816],["горловин",-9.87011198457181],["присоединяем",-9.870264022561255],["тонколистов",-9.870308349372937],["предпринима",-9.870362666004269],["относительно",-9.870461144647512],["собственны",-9.871537006578517],["изменяют",-9.87268133068629],["защищен",-9.872690704849811],["электричес",-9.872854287669085],["серийно",-9.87291185894769],["горючест",-9.872977020758837],["1584",-9.87530431266031],["конце",-9.87555973136426],["работа",-9.876121703541273],["круг",-9.87806669340643],["обще",-9.878190772055879],["резервны",-9.878221460956574],["приёмк",-9.8790365005462],["серийн",-9.880996699577938],["наибольше",-9.881117297463202],["83",-9.881690746353176],["теплово",-9.881937095707315],["протокол",-9.88427070488072],["умеренны",-9.88647118824414],["нн",-9.886799193016225],["природн",-9.887177400170788],["внешним",-9.887766756564758],["высоконапорны",-9.888252823363505],["подшипник",-9.889499013590482],["активно",-9.889605247899569],["собственным",-9.889659868327621],["любы",-9.891168963784311],["ечение",-9.892028143954748],["сечение",-9.892110433276084],["отметк",-9.89237829482855],["шайб",-9.892824522287148],["разрушени",-9.892844514626256],["неизменны",-9.89301804450503],["дорог",-9.894116755223616],["жидкость",-9.894608777472207],["противоречит",-9.894805942527892],["решение",-9.89541211150576],["кладка",-9.8963718963721],["сн",-9.89748932806799],["факторам",-9.89800880243639],["распределительно",-9.899134055412915],["отключи",-9.899691470446518],["методика",-9.900799064973063],["ографи",-9.901524098166224],["свидетельств",-9.90203119602133],["лива",-9.90365104334493],["ппк",-9.903664751976578],["92",-9.903776679414303],["зажим",-9.904351359630999],["оконны",-9.906869973407986],["необходимость",-9.908103855801315],["вала",-9.908385708535024],["руководств",-9.909140964141189],["g",-9.910622447132],["про",-9.911244053646088],["оператор",-9.911835756111666],["конкретн",-9.911927572269427],["негорючи",-9.912152379156629],["вагон",-9.91281899362076],["возможно",-9.914188811106525],["объединя",-9.914271675077496],["способно",-9.914868891365892],["k",-9.915477817278314],["2006",-9.915532453311855],["пере",-9.915690659048627],["резервно",-9.917001999910285],["информационно",-9.91726019162103],["термо",-9.917693497086841],["диаметра",-9.917890489492589],["часов",-9.919533311965012],["погрузк",-9.92003413943365],["скорост",-9.922101371209871],["окраск",-9.924560023633529],["рисун",-9.92585683314813],["отверсти",-9.929448492975723],["ресивера",-9.92950715418255],["лакокрасочны",-9.930555726833898],["нормативно",-9.930731371785471],["листовы",-9.930786608479407],["сервис",-9.930894146844455],["металл",-9.930930111679451],["элементам",-9.931348052018949],["конструкциям",-9.931941223786453],["595",-9.932372554228984],["достаточны",-9.934701575514241],["распределени",-9.93479671485352],["ротор",-9.935519778705894],["расстояния",-9.935825708443888],["коробо",-9.936429039136295],["взрывоопасно",-9.938060741190048],["возникновени",-9.94001867386669],["располагать",-9.940070330964147],["момент",-9.940467970144844],["предусматривает",-9.941647698843987],["электрическим",-9.941714187151831],["пакета",-9.942647123825177],["образо",-9.942846891211708],["удалени",-9.94327842825527],["распорядител",-9.943815188801212],["шкафа",-9.94388633575157],["баланс",-9.944199938630454],["погружени",-9.946325607876936],["длина",-9.94707697840576],["маслян",-9.94714515500718],["обратно",-9.947323610954518],["листов",-9.947377562715483],["сварочны",-9.947781691093757],["электроустановк",-9.948216299801445],["отдельном",-9.948592836975347],["сняти",-9.949585790815908],["бирают",-9.950920563168985],["добав",-9.951416926215568],["выпуск",-9.95150109701338],["запорн",-9.954542602969852],["исключение",-9.956350403216042],["метр",-9.957116418216707],["отвеча",-9.95962928959051],["качество",-9.959982142727775],["подразделени",-9.960304565481845],["габарит",-9.960975309666342],["электростанци",-9.963736154121488],["достижени",-9.964196853969655],["разработчик",-9.964249515923543],["указывает",-9.967031281275322],["грунта",-9.96720815006353],["программируемы",-9.967375568019882],["потер",-9.96881235658762],["еся",-9.970044476733403],["двум",-9.970672286228819],["конструктивным",-9.971236725890666],["избыточно",-9.972854425841472],["панель",-9.97288678636642],["усили",-9.973273495647378],["образовани",-9.975648115200672],["минимальн",-9.97592547737113],["86",-9.976153194629864],["механическ",-9.976190594652016],["крыш",-9.976411895879062],["щит",-9.976842266134534],["расположенны",-9.976995170684441],["года",-9.977066023273892],["повышенно",-9.978337226391137],["514",-9.979107712163058],["охлаждение",-9.982103276762262],["стоимост",-9.983116377016943],["основным",-9.983224756890069],["ручны",-9.984424425973572],["манометр",-9.989227939598054],["кодекс",-9.989243021276609],["выдач",-9.989542880283977],["земли",-9.990863347279298],["прямо",-9.991408246351586],["пут",-9.993380203920488],["отвода",-9.993521925577227],["трех",-9.993589611093894],["поддержани",-9.99364315612979],["вспомогательны",-9.994195604114099],["нормально",-9.995014073542002],["медным",-9.995201167736079],["блоки",-9.995357413279061],["стенам",-9.996267005381833],["заводски",-9.998079196920004],["демонтаж",-9.998411414483583],["отказ",-10.001228434764736],["разрешени",-10.002225544573461],["ручно",-10.002381618758616],["дат",-10.002949876002651],["статор",-10.003677631699302],["минимальным",-10.003773198895633],["контроле",-10.004369462905043],["перед",-10.004823710572518],["строповы",-10.005840984896656],["сть",-10.006438462636913],["минимальны",-10.008061165661386],["разработанно",-10.009342366628177],["запас",-10.010944258031428],["природно",-10.011037350617748],["эффективност",-10.012404831888338],["специализированн",-10.013032525608176],["выполняющ",-10.013677337182349],["метрическ",-10.014731157389937],["экспликаци",-10.014818374025431],["научно",-10.015153575525536],["действующе",-10.015186702605755],["197",-10.015234277431729],["концентраци",-10.015307590265946],["высоко",-10.015512993826539],["активаци",-10.01601797561317],["цепи",-10.016543966465676],["сетя",-10.016729829966412],["трансформаторо",-10.016754367128332],["являе",-10.017292132257635],["плоскост",-10.017720534701354],["черным",-10.017722622230737],["инструменто",-10.017768050953745],["нескольки",-10.018462111749532],["трапециевидны",-10.018780256724249],["восстановлени",-10.019775864074106],["исключени",-10.02080594899546],["v",-10.021757595161382],["2020",-10.021986990538197],["подпис",-10.022282469380043],["магистральны",-10.023480623827663],["ко",-10.026485356066914],["котлован",-10.0307171467313],["настройка",-10.030993192043834],["вал",-10.03141244358436],["последовательн",-10.031528139537468],["есанкционированн",-10.032753419238032],["уплотнительно",-10.032977729288891],["сигнала",-10.034629062403084],["установленном",-10.034639496078942],["данно",-10.034949171446303],["влять",-10.035464255280045],["003",-10.035670397793151],["нефтегазов",-10.036047498162635],["ог",-10.037003226412294],["крышк",-10.03708604597104],["рабочим",-10.038422326687456],["рекомендаци",-10.03843697679065],["цистерн",-10.039129358654064],["подвод",-10.040279327220912],["бумаг",-10.04114049250696],["шпильк",-10.041185737688764],["присвоени",-10.041218993622069],["регистраци",-10.041301815825362],["42",-10.04169772675803],["четко",-10.041787088165874],["датчика",-10.041988736502173],["06",-10.041991966972438],["нагнетани",-10.042584361182731],["ппко",-10.043093341654547],["специально",-10.043360907415249],["узлам",-10.043631631073268],["46",-10.043914211950964],["перезап",-10.044025469105067],["выполняют",-10.044547557833361],["3054",-10.045348114666197],["82",-10.046183249375591],["обогрева",-10.047607897558208],["высокого",-10.04783709931365],["условны",-10.048306005963637],[")/",-10.04959920533386],["электродвигателе",-10.049764967460188],["сваи",-10.050913663553487],["цветово",-10.050961871486516],["экрано",-10.052751912677351],["обратны",-10.053865650384862],["тепло",-10.056132948696805],["включение",-10.05744826522666],["полост",-10.057613363972933],["столов",-10.057621555794885],["источника",-10.058049937971813],["170",-10.058262582900813],["подъем",-10.058701580464188],["вляет",-10.060327155173823],["ют",-10.061858094409391],["ремя",-10.06309845846469],["оснащен",-10.063688236777454],["начал",-10.064251916165524],["сероводород",-10.065160618074149],["землю",-10.06559947564523],["фиксирова",-10.067272116465226],["заключени",-10.0676463351975],["механизмо",-10.068509092990142],["числ",-10.06863432328459],["верхни",-10.069685901169736],["скоб",-10.069705578602669],["оверять",-10.070510198085351],["горючи",-10.071756793205994],["пламен",-10.072036323817526],["объектам",-10.07224851423121],["подраздела",-10.07225177840772],["конструктивном",-10.073097160704393],["повреждение",-10.074910701599082],["безопасным",-10.075301407012311],["статическ",-10.075408926784643],["груза",-10.07564719432279],["объектно",-10.076287731595077],["зависящи",-10.076404059782039],["балла",-10.076492099396258],["предварительно",-10.07685018468576],["орган",-10.07846865631397],["трубопроводам",-10.07860309021936],["перво",-10.079872271503792],["вол",-10.084119036587465],["настро",-10.084269139872678],["опасность",-10.085156386653999],["325",-10.08865572696143],["ьны",-10.089877867480457],["капитально",-10.089887098330088],["коле",-10.091461951864687],["бесперебойно",-10.091996648354186],["проведен",-10.094037732734847],["опросн",-10.094076532565161],["число",-10.095578060396637],["кип",-10.09635964373111],["включит",-10.096465972917056],["ведомост",-10.096568631557835],["опознавательн",-10.096892659076863],["железны",-10.097486037280682],["надежн",-10.098228381242555],["выхода",-10.09840500322285],["обеспечивает",-10.098450784834878],["54",-10.099158842955083],["описание",-10.099394361575708],["указывающ",-10.100147831114015],["004",-10.101651870317031],["3183",-10.10256248553264],["контейнер",-10.10293703995347],["коротко",-10.10310477141325],["ибли",-10.103496590629462],["свай",-10.103580806395506],["цв",-10.105113270911698],["трос",-10.105373692334823],["приемочн",-10.107225590803152],["физи",-10.108652858853674],["напором",-10.109154055982632],["масл",-10.109234649103719],["таки",-10.109336182864482],["низковольтны",-10.110534575292832],["ями",-10.110588829000093],["продукта",-10.111022368875084],["входа",-10.11129878469502],["корпусо",-10.111369748701867],["варианта",-10.114621407991443],["опорно",-10.114699150870294],["отключ",-10.114828989288487],["стык",-10.115704238154475],["жилам",-10.115713481397188],["перекачиваемо",-10.117031757399353],["длительн",-10.117184362533061],["529",-10.118123989981113],["тепловы",-10.118253693859472],["имеющи",-10.120434905802645],["гидравлически",-10.120676929654712],["обеспечивающим",-10.120899453936179],["пар",-10.123842993095884],["вы",-10.124038268580284],["углерод",-10.124243376307168],["шестигранн",-10.124510414315779],["герметизаци",-10.124522619088571],["применяют",-10.124597307579377],["нд",-10.125312859111144],["отправляем",-10.12542038544634],["тка",-10.126419674336915],["способность",-10.126709644213614],["интенсивност",-10.126752023480709],["определить",-10.12679841960781],["открыты",-10.126870342662949],["бытово",-10.127270203869468],["охранны",-10.128494507901522],["токо",-10.129271189438555],["бм",-10.129828554543739],["поставщика",-10.130171222563579],["состояни",-10.131631095332875],["водом",-10.13255345105326],["сгорани",-10.133680235161197],["санитарны",-10.133783653639057],["гофра",-10.134871677862032],["проектируем",-10.136515040927033],["обогревател",-10.137621580644453],["входны",-10.139188583156713],["модельны",-10.139727066524383],["модификационны",-10.142366383998196],["ощат",-10.142493217372607],["около",-10.142834430927795],["277",-10.143874041372987],["первичны",-10.145038667210954],["аты",-10.145763714865403],["нейтраль",-10.146204216306828],["37",-10.14754115142736],["ском",-10.148987152054586],["охранн",-10.15036146622539],["нормальны",-10.151213613071238],["щ",-10.151489565883894],["сведени",-10.151565203100757],["непрерывны",-10.153049549803562],["галочк",-10.153412080132735],["фиксаци",-10.153932563892113],["поставляемо",-10.154037079680684],["присоединяемы",-10.154252116210401],["неисправност",-10.154793699542475],["распространяю",-10.154973997524651],["алгоритм",-10.155300605835905],["розетк",-10.155514500202203],["вентилятора",-10.15589308011313],["ип",-10.155983654727326],["задвижк",-10.1566005113812],["входн",-10.157311473999728],["зазор",-10.157853448192975],["перенапряжени",-10.158260723083396],["структур",-10.158609496687161],["независимы",-10.160874764861491],["фундаменто",-10.161157976906916],["затвор",-10.163255488136496],["следующе",-10.164406297443307],["умеренн",-10.164611972320198],["вода",-10.165201016318749],["перевоз",-10.166120886499082],["регулирующи",-10.167300641342106],["220",-10.16747317999999],["да",-10.168582629294566],["устранени",-10.168708855226344],["включения",-10.169190130313007],["канала",-10.169668079341998],["замыкани",-10.16982112684766],["позволя",-10.170845530810407],["выпуска",-10.17127649650368],["стойк",-10.171491384685142],["маркировочны",-10.171493673690762],["лотка",-10.171768310292116],["зел",-10.173169112800029],["разряд",-10.173838623829553],["принимаемы",-10.174059431559355],["унифицированн",-10.175700329456298],["перекрытия",-10.176280408154007],["устанавливаемы",-10.177203722719144],["ограждения",-10.179085676794529],["130",-10.180085899901805],["2010",-10.180568780323977],["240",-10.180900963663888],["коррозионностойк",-10.181103682247748],["сигнало",-10.18127990480143],["промежуточны",-10.18163514911469],["гнуты",-10.182494312499587],["фильтров",-10.182508708964686],["утвержденн",-10.182824935439882],["тепл",-10.184717671817758],["цифровы",-10.185478966635534],["кабелям",-10.185576034844736],["длине",-10.185662788898583],["обеспеч",-10.18585050063601],["витков",-10.186103322771874],["антикоррозионно",-10.186674128008272],["максимальном",-10.187211757531209],["120",-10.188020193949486],["плотность",-10.188798343747077],["020",-10.188879251844458],["сплав",-10.18898213815942],["e",-10.19039319912779],["97",-10.190688505522383],["кабельным",-10.191762532222512],["углеводородн",-10.193556521893878],["меньше",-10.194260657054514],["ипт",-10.195818156149727],["гарантируе",-10.195865613541166],["устойчиво",-10.196375075664966],["присоединение",-10.197900478437733],["больше",-10.198449251028965],["нг",-10.198967969466345],["параметрам",-10.199382804005962],["параллельно",-10.199561165021095],["2470",-10.199744895424585],["исков",-10.199766068071654],["оцинкованн",-10.19978888890604],["блочн",-10.200638368165883],["че",-10.20084164768433],["специальн",-10.205676598136154],["уплотнительны",-10.206808294383027],["рабочем",-10.207636055812532],["селективност",-10.207903540319794],["точка",-10.20943963174744],["парн",-10.209832345866724],["потока",-10.210024866594548],["стандартны",-10.210876256181352],["совместно",-10.211848187775903],["полимерны",-10.212095775109763],["равно",-10.212834452132252],["умеренно",-10.213047367752718],["ударн",-10.214335825676576],["колеса",-10.21437485685387],["утрат",-10.215122442745159],["обеспечивающе",-10.215445848223888],["расхода",-10.215629799783025],["функционировани",-10.215960505963078],["водным",-10.216306044661719],["застройк",-10.216781105257212],["проектировать",-10.216957209228221],["насосно",-10.218015623459538],["см",-10.21833082280881],["попадани",-10.219077889989814],["активност",-10.219260366026468],["стойки",-10.219294958657564],["профили",-10.219883722537759],["бесперебойн",-10.219936753367303],["расход",-10.222293139604794],["заглушк",-10.223233803607746],["вывода",-10.225782840644966],[".)",-10.22854156366391],["скорость",-10.229556124008687],["зш",-10.231116152450745],["нижни",-10.231909725064392],["уставка",-10.232921498248874],["холод",-10.232958663290514],["33",-10.233366502582165],["подразделе",-10.233730363097328],["козырька",-10.234547573315936],["механическим",-10.235438317801986],["ьски",-10.235779088843705],["обладат",-10.24023173541193],["воспламеняющи",-10.24049285984208],["5480",-10.240850534219081],["очеред",-10.242138465924553],["переход",-10.242655178652416],["одножильны",-10.242680908096741],["линейны",-10.243546624752327],["содержащ",-10.24506587503839],["продуктов",-10.24548337194721],["излож",-10.246099796007119],["потолко",-10.246144706041935],["выключателе",-10.247625006221583],["ког",-10.24771386757279],["±",-10.247733256392305],["экспериментальны",-10.247733256392308],["61",-10.247769456577476],["институт",-10.249490846835867],["представляют",-10.249742536228629],["окрашен",-10.249768890801722],["излучени",-10.24980366791941],["выдержка",-10.250603704736754],["одним",-10.251156972693803],["слив",-10.253188591057802],["листово",-10.253454123426394],["562",-10.254827455626497],["транше",-10.25675038675523],["взрывопожарн",-10.257598549896475],["проводник",-10.258391453326738],["защитным",-10.259454715515604],["кажды",-10.25991340256592],["возможны",-10.260575090563508],["ответственны",-10.260902111165862],["светильник",-10.262127573986644],["сухо",-10.262149215263138],["испытание",-10.26237416205861],["55",-10.26387554436096],["код",-10.266761568769477],["нефтян",-10.268234145288703],["периодически",-10.268401390950476],["переменн",-10.270270838222114],["пуско",-10.27214738837133],["000",-10.273571284720374],["свойства",-10.273586596769885],["атизированны",-10.274070297455506],["локальным",-10.274176072168366],["мп",-10.274885817776156],["любо",-10.275456232915742],["конкретны",-10.275874482028044],["номинальным",-10.27588458777617],["автомобильны",-10.275934028573008],["вляют",-10.277417097352895],["сварочн",-10.278902369130957],["гидрато",-10.28109684762709],["гпэс",-10.281174194436053],["шво",-10.28117731388059],["44",-10.281189478104668],["ё",-10.2814679401827],["уравнивани",-10.281475979073491],["молни",-10.281490415355574],["поражени",-10.281587889972695],["приточно",-10.28197065094535],["проводам",-10.282257287254936],["горячекатаны",-10.282561590432207],["способо",-10.283530601564786],["енных",-10.28388786484504],["используют",-10.285014614558841],["630",-10.285143899249313],["металла",-10.28627751344616],["тельны",-10.286373429077203],["шпил",-10.28648169265156],["минимальном",-10.286659656397987],["зазорам",-10.287109996673234],["занулени",-10.287599535367002],["полны",-10.288638830941775],["нейтрал",-10.28937351761557],["рамно",-10.289695931063436],["инвентар",-10.28995675419749],["производстве",-10.290150852575103],["применен",-10.290347647210814],["особенност",-10.290936815325914],["административно",-10.292054907220354],["ряда",-10.29219448791945],["ек",-10.29286659194485],["винтов",-10.293519965143082],["1371",-10.293578139648146],["статически",-10.29402506453099],["метрологическо",-10.29411900085515],["листы",-10.296454491919244],["нагрева",-10.296706346230255],["площадь",-10.298929956394318],["предохранительны",-10.300226166402588],["ими",-10.300623693184544],["утверждённы",-10.301080328534413],["расположенным",-10.304031812306928],["резервировани",-10.30442132190218],["изготавливаю",-10.304587155991886],["кольца",-10.30584037506088],["погрешност",-10.306952615271758],["700",-10.30709480540607],["фланцам",-10.30722534406153],["исследовательски",-10.307652908617827],["расчетн",-10.310650900130263],["юз",-10.311015279539465],["правильно",-10.311445956687031],["снабжен",-10.312394433655669],["цветов",-10.31363779727358],["обществе",-10.314062698000873],["неметаллически",-10.314188598306762],["отдельным",-10.314374356478984],["≥",-10.315549348346329],["складировани",-10.315886640500604],["проточн",-10.315888529483367],["фланцевым",-10.31594594918988],["протекани",-10.316590470965446],["товарны",-10.317158567808377],["турбин",-10.317672372624337],["размеро",-10.31831096020299],["обнаруженны",-10.318785114419313],["назначенны",-10.31932354925113],["качественным",-10.321278636369243],["дистанционно",-10.32227019433422],["противопожарным",-10.32315390254262],["b",-10.323757739634337],["установи",-10.324514096339747],["щитк",-10.325628066535533],["трехфазн",-10.326988205116745],["затрат",-10.327732139471037],["стационарны",-10.32823174078597],["трубно",-10.329473708850514],["являющи",-10.3294872449823],["электронно",-10.329924322253941],["стади",-10.330630169062374],["патруб",-10.33269478481068],["вызванн",-10.333417396132052],["климатическим",-10.334224429027966],["результата",-10.334327613387686],["лин",-10.335649282164326],["сейсмическо",-10.335899626906164],["чески",-10.33620910773831],["помех",-10.336386548638957],["выбран",-10.336754308729015],["шва",-10.336768865537248],["сопроводительно",-10.337381603891266],["оптически",-10.339796257715703],["ил",-10.340643206666975],["1313",-10.34328915313035],["транспортно",-10.343975843965573],["48",-10.345425697724508],["возврат",-10.345935733457639],["определяющи",-10.346536091995294],["роизводительност",-10.346651231848728],["соответствующ",-10.34742936879471],["применяе",-10.347809181320258],["трехфазно",-10.348480841556896],["извещателе",-10.349032819048468],["компенсаци",-10.350991194962994],["равным",-10.35109015924961],["диагностировани",-10.351264035081646],["тяжест",-10.351979296402792],["графическо",-10.35207803526271],["водоснабжение",-10.352355706859196],["телемеханик",-10.3532799595255],["допускаемы",-10.354673012360921],["срабатывани",-10.354778325106137],["полиэтиленов",-10.355870041536797],["дифференциальн",-10.355998145532844],["унифицированны",-10.356768797871133],["гофр",-10.357017448456276],["изолированно",-10.357769944647037],["выборо",-10.357784892817541],["электроприемник",-10.358031177057178],["оказать",-10.358173303141326],["днищ",-10.359364627288967],["показан",-10.361116148071549],["гае",-10.36140073752933],["цилиндрически",-10.361582078715806],["маневровы",-10.363426372496601],["минерально",-10.364436656219686],["ибо",-10.364957767825988],["каждом",-10.365210388344023],["вести",-10.36549461140366],["стал",-10.368394281846902],["природ",-10.369535501344672],["требуемо",-10.369645034974823],["нормальном",-10.37013804026857],["выходны",-10.370820658090182],["организационно",-10.371168076726129],["сальниково",-10.371425670032785],["низконапорны",-10.372150312854593],["торцов",-10.372266654339906],["клапано",-10.372895102623799],["пункта",-10.372973161030503],["возбуждени",-10.376211390002819],["вывод",-10.378864021979481],["рок",-10.379529355473688],["дан",-10.381793713089357],["компрессорн",-10.383063222694002],["тва",-10.384125956727015],["защищаемо",-10.384759004823774],["заглушка",-10.386592898615792],["смеси",-10.386698002500623],["нефтегазо",-10.387167234026919],["ремонтны",-10.387281882955467],["грузовы",-10.387459970246196],["постав",-10.387894434349626],["предупреждающи",-10.388300671097713],["комбинаци",-10.388300687832029],["штучн",-10.388348821850684],["реклоузер",-10.38834910478769],["древес",-10.388364052924992],["удобств",-10.38843468868892],["сброс",-10.388564494409188],[")»",-10.388595542325014],["чистым",-10.389117862147456],["клиновы",-10.38954181105119],["счетчик",-10.389594948987872],["ингибитор",-10.389973168225602],["уче",-10.390489388956475],["стоян",-10.390882522063091],["указанным",-10.391455672302612],["проема",-10.393560983812193],["зависи",-10.395672169130712],["буквенно",-10.395934389769987],["регулирующе",-10.39643414121566],["месторождения",-10.397580987687487],["запаса",-10.398927017180549],["напорны",-10.399190021827215],["содержать",-10.399835314873396],["ситуаци",-10.399870779387562],["энергоснабжение",-10.402020085633742],["метрологически",-10.40564629632459],["воздухо",-10.405870671534466],["контакта",-10.40587359751557],["272",-10.406040084595828],["бку",-10.406194416048539],["гр",-10.407708643915337],["нагревательны",-10.407855222504551],["отвод",-10.407890907819418],["лестничны",-10.408299249255668],["бо",-10.408409521543401],["66",-10.408642411434375],["форма",-10.409003588193553],["машина",-10.409004105198637],["эс",-10.409198925939547],["эт",-10.409516644741219],["подъема",-10.410267852316327],["безопасн",-10.410616814337763],["втоматизированны",-10.410834944222815],["расширени",-10.411646243986025],["краск",-10.412080222561162],["емы",-10.412650540742597],["люк",-10.412730637814226],["принципиальны",-10.41430603125298],["ач",-10.414630117779483],["замене",-10.415054065175138],["устанавливаемо",-10.415216159179334],["544",-10.415441535163794],["лет",-10.41589223280996],["коридора",-10.416909963579922],["экологически",-10.41709902399224],["замк",-10.417323732028375],["путя",-10.418118267652357],["блокировк",-10.418159783346898],["там",-10.4198316142336],["56",-10.421711790540792],["объема",-10.421938249979238],["буд",-10.423424478299255],["центробежн",-10.423803977677695],["чертеж",-10.425219542665426],["паспорта",-10.426129669373175],["ротивокоррозионн",-10.42634215496009],["бригад",-10.426762382904561],["разрабатывать",-10.426856062844664],["наладочны",-10.42695254468974],["провод",-10.427026349407303],["расконсерваци",-10.42791193362296],["друго",-10.428096132098615],["00",-10.42866594325718],["всасывани",-10.428865349002987],["ак",-10.429238628820436],["дв",-10.429725762992605],["опросно",-10.429876623173776],["урсн",-10.430083759436037],["работник",-10.430630642565466],["проводят",-10.43063555177984],["779",-10.431291582507148],["связанны",-10.432015756618451],["подключение",-10.433671783153494],["оперативно",-10.433694558535016],["терминал",-10.433964515321678],["предусмотренны",-10.435460418957543],["промысловы",-10.43579432214693],["ругу",-10.436176114605594],["торцевы",-10.436734702373045],["съемным",-10.438133600021676],["тверды",-10.438962202138146],["наименования",-10.438993084981355],["груз",-10.439068097747066],["исполнительны",-10.439155355586697],["2405",-10.439168508106006],["концевы",-10.439882372123005],["низа",-10.440387599103634],["подстанци",-10.440469129089486],["пара",-10.441522398217163],["лами",-10.44230441631904],["сил",-10.442496069830005],["котлована",-10.442692115490962],["состоящи",-10.44277257700631],["уменьшени",-10.44316482684244],["шв",-10.443801712638106],["питающе",-10.4468583717133],["защитн",-10.449228386690084],["изготовленны",-10.449649805196625],["генераторо",-10.451710520420662],["комплектн",-10.4517999349126],["оле",-10.452125493884308],["участко",-10.452592603200879],["штамп",-10.453728603875511],["подшипниковы",-10.454544795257455],["служит",-10.455122856177733],["состояние",-10.456484550496903],["собо",-10.456661471343551],["соединениям",-10.456752820393978],["дренажн",-10.457615546953232],["шаго",-10.459256516599964],["этаж",-10.459330007602437],["жидки",-10.459437775040428],["свайны",-10.46002844203396],["конкретно",-10.460305134546115],["всег",-10.460769887189677],["металлическим",-10.460797569050275],["составляющ",-10.462047903822295],["складски",-10.464093057782462],["подаче",-10.464900527219587],["получени",-10.466108358225858],["выделять",-10.466796398824235],["номенклатур",-10.467403571960443],["kc",-10.467550479305448],["производственн",-10.467576396796037],["предусматривают",-10.467673011144262],["соблюдение",-10.467820671696419],["нных",-10.468391847344693],["обшивк",-10.469152672042206],["унифицированно",-10.46915910867537],["перекачк",-10.469334725901778],["49",-10.469360911292195],["аккумуляторо",-10.46950681816474],["кровле",-10.469702723458074],["самостоятельно",-10.470998913259244],["производительн",-10.471052181117525],["надпись",-10.471982584989535],["работнико",-10.472756981932545],["подтверждения",-10.47339775983585],["предъявляемым",-10.473833205420013],["лидер",-10.473927662572192],["равнен",-10.474010738679237],["пленк",-10.474412430581655],["тарно",-10.477154315404148],["компрессорно",-10.478606204740712],["рифлен",-10.478663400780297],["стойкост",-10.47895524609269],["серверно",-10.47910037167013],["потолк",-10.479172380807022],["проб",-10.479425023783888],["следующ",-10.480099414483682],["габаритам",-10.480315380821727],["рекоменда",-10.480406873891997],["a",-10.480987156566588],["вязки",-10.481106445659922],["критически",-10.481214971228097],["уклон",-10.481295817210253],["допустим",-10.482566558743937],["rs",-10.48278793712477],["аварийны",-10.483436186091996],["104",-10.48357556338852],["рус",-10.48410348863886],["платик",-10.48528978050285],["приведенным",-10.486831940789836],["ра",-10.488388281790277],["нанесени",-10.488951553218389],["исключающи",-10.491279812869205],["ту",-10.493559987893736],["закладны",-10.493650333647318],["резервн",-10.49494928227377],["герметичны",-10.495852071959465],["подвесны",-10.496457214469139],["патрубкам",-10.496691793849436],["нагрузка",-10.497956296588868],["контакт",-10.500573243255772],["водо",-10.50185767979427],["короба",-10.50251621401511],["цикл",-10.503437352595602],["экономически",-10.504174120639666],["компонент",-10.504197525785024],["подраздел",-10.505578738624502],["втор",-10.50583109950782],["строя",-10.506212670030347],["вычислительно",-10.507135962117987],["σ",-10.508428876225857],["микроклимат",-10.508465720272545],["площадка",-10.508469658029497],["противоаварийн",-10.508475698154891],["автоцистерн",-10.508897759589736],["аппарата",-10.508916649531274],["аварийн",-10.510112379275776],["наносить",-10.510132531450079],["открывани",-10.510220042994913],["площад",-10.511006443974122],["движени",-10.511759315565486],["пробно",-10.512637753146091],["объемо",-10.51302289234196],["поставляем",-10.513660278528054],["дополнение",-10.514213153970028],["мой",-10.515198242579537],["600",-10.51598547070898],["дополнительн",-10.517483331253995],["bu",-10.51752741728561],["аварий",-10.51835567249759],["воздействующи",-10.518880659834664],["68",-10.519619434921506],["вертолет",-10.520130053994246],["геометрически",-10.520816723415274],["фланца",-10.521191403865117],["загрязнени",-10.521401591794476],["заземлен",-10.521417324293695],["рсу",-10.522766723459348],["два",-10.523232656413962],["оз",-10.52365082778754],["методо",-10.524302929370096],["справочны",-10.526051172505284],["проводника",-10.527458853523964],["основание",-10.52892533603017],["исключен",-10.529654756730917],["ий",-10.530449122592536],["предпроектно",-10.53126178718251],["считать",-10.531420627060125],["короб",-10.53143472911424],["единично",-10.532953089497884],["перегородк",-10.532978641929919],["передаче",-10.535247783900187],["сборны",-10.535770536689675],["винт",-10.535886849777723],["устрани",-10.536515453259048],["анти",-10.53652378601268],["негорючим",-10.537206037889964],["вертикальн",-10.53788359225963],["затворо",-10.538183948097341],["предельны",-10.539065830727699],["электроснабжение",-10.53944696596025],["цинковани",-10.53962883195815],["осадко",-10.540620556240505],["динамически",-10.542523347735612],["обслуживающ",-10.543349855904237],["трубопроводно",-10.543542405070962],["проем",-10.544384511699247],["вертикально",-10.54445791702918],["эм",-10.54468556674667],["предприятия",-10.545092780704598],["вакуум",-10.548133015065371],["хозяйств",-10.548149263586359],["применит",-10.550313477301614],["стыков",-10.550489498957951],["закрывани",-10.551227911275031],["классо",-10.551636374170606],["ответственност",-10.55179849882494],["бесшовны",-10.551907154930342],["ликвидаци",-10.551922534846057],["трещин",-10.552266697026013],["законодательны",-10.552465554373708],["выравнивани",-10.552533144942956],["продувк",-10.552555401153697],["диагностик",-10.552822555941088],["комплекса",-10.552980658383955],["принимают",-10.55335120265492],["секционны",-10.556556793560762],["светово",-10.556565643569254],["набор",-10.556759112723753],["трехслойны",-10.55686964011298],["315",-10.557092721739696],["ам",-10.557367685182179],["364",-10.55805399502522],["топливо",-10.558460699664536],["повторно",-10.559705294085887],["изготовленно",-10.560248039503337],["стойкость",-10.560619404156842],["количестве",-10.560836676699541],["оборудовать",-10.561583578956427],["ваты",-10.563272566093717],["сварн",-10.566749050536144],["способам",-10.567097853747061],["архитектурны",-10.567419003343002],["холодн",-10.568532056841338],["рд",-10.570546314816626],["герметичным",-10.570583641299574],["коллектора",-10.571016535580906],["пересечени",-10.57118126310827],["упп",-10.571360020723766],["одну",-10.573084857732628],["ут",-10.57319475551311],["перехода",-10.573720310017114],["насосам",-10.57393472728852],["359",-10.57429906815893],["объём",-10.574545007108831],["соответствующем",-10.574893298049458],["уплотнениям",-10.57538127337526],["сетям",-10.575655295629904],["цело",-10.576465942609099],["222",-10.577947095758718],["дымо",-10.579067595856277],["реактор",-10.579610050028876],["свидетельство",-10.58146681091099],["нанес",-10.583726760582731],["имеющим",-10.583976910204443],["проложенны",-10.585396794028348],["направления",-10.58657301510953],["ограждение",-10.587725878936135],["свойствам",-10.58882656228025],["фундамента",-10.589234005488283],["бн",-10.591461015016936],["надпис",-10.592063168424776],["поливинилхлорид",-10.595315943472405],["пластов",-10.595534772670238],["шт",-10.59723332593287],["центрифугированн",-10.597361682558436],["целостност",-10.597385137258426],["and",-10.59741002584819],["руководител",-10.597431910306296],["08",-10.597489938984758],["сепараци",-10.597533166399089],["001",-10.597607501001823],["выверк",-10.597797708702451],["упаковывать",-10.597803807857181],["несмыва",-10.597997617510288],["открывать",-10.598415922750823],["освещенност",-10.599224529171291],["ол",-10.60007851326107],["прохождени",-10.600552571458959],["автономно",-10.601632217081889],["подземны",-10.601871005067395],["чертежам",-10.602601478754728],["исключать",-10.603185533959806],["коэффициента",-10.60366650351808],["вязкость",-10.605097752522388],["осевы",-10.605313577400338],["вичным",-10.605478766044737],["защищенност",-10.605608043967834],["видно",-10.605864808061375],["лотк",-10.607005387323156],["ков",-10.607222603553161],["последующе",-10.608262241292788],["отрицательно",-10.608426290328058],["тяжелы",-10.608469104107435],["кожух",-10.608476542889628],["погрешность",-10.608871556687234],["раствор",-10.609226000015447],["подтвержденны",-10.609479916344984],["014",-10.609723746549573],["подвижно",-10.609894672518116],["гор",-10.610300457841904],["содержащей",-10.61078308941956],["включени",-10.61111465104067],["модуля",-10.611548175172528],["подраздело",-10.61240308262425],["продольным",-10.612650290568633],["наружным",-10.612669081106631],["обечайк",-10.613647902625457],["548",-10.614393630127612],["анкерны",-10.615522827763616],["533",-10.616145671669063],["светильнико",-10.61717880286668],["гражданск",-10.618457171208064],["177",-10.619515171570146],["опорам",-10.62013314741202],["бурение",-10.620290766940748],["налив",-10.620669641592018],["переменно",-10.62200253244155],["pa",-10.622347851999784],["вентиляторо",-10.62274325635416],["влаг",-10.623406101225296],["обмотка",-10.623616343548285],["напорно",-10.623949348047823],["кровельны",-10.623964964529776],["5324",-10.624943718881806],["остальны",-10.625022456671793],["оцинкованны",-10.625586929423772],["ходом",-10.626081748992963],["пересечения",-10.626231752719535],["достаточным",-10.626538413124472],["пусково",-10.6271168123344],["периодическо",-10.62723098231653],["нутри",-10.628356409071916],["тары",-10.629387571095503],["размещен",-10.630435178031364],["фон",-10.630549048180455],["собранно",-10.63156492826679],["кабельного",-10.632306919387506],["запасов",-10.635837431653236],["внешнем",-10.636432291097124],["пластово",-10.636805682004132],["монтажно",-10.637147355712049],["колесо",-10.638111438719777],["ие",-10.63854678679791],["утеплителе",-10.640013763654514],["габаритным",-10.642102604941046],["временн",-10.642270176438783],["акт",-10.642967373229277],["видетельствовани",-10.643448904774724],["w",-10.643583278902405],["ическим",-10.643599747921176],["устойчивы",-10.643992177507146],["водов",-10.64417938766035],["здоровь",-10.64498102499757],["реконструируем",-10.645020148090786],["радиопомех",-10.645026544154561],["соблюдать",-10.645690755715478],["структурированн",-10.646065918232152],["har",-10.646218721541011],["они",-10.647949223311128],["клеймо",-10.648055095236483],["электропитани",-10.648254842196309],["584",-10.6484617600103],["регулировк",-10.648988011012252],["скольжени",-10.64975879078796],["имеет",-10.650215272413584],["ющими",-10.650575843322146],["допускаю",-10.650936240711978],["входя",-10.651228185605238],["активн",-10.651310799440854],["нефтеп",-10.652814348412006],["нанесение",-10.652877987122366],["посадочны",-10.653182847022212],["возможн",-10.653551524503209],["основном",-10.654300821533884],["перв",-10.65512673640158],["номинальном",-10.655906966592008],["наземн",-10.656479969295642],["посадк",-10.657039218272995],["составляюще",-10.657553053466335],["выходно",-10.657839683584246],["485",-10.658752684066055],["изменение",-10.658855568656243],["уточня",-10.660376890468237],["капитальны",-10.661383407376071],["проводо",-10.662949156910997],["сжиженны",-10.663817388047303],["дренаж",-10.665419923107628],["год",-10.665954104215757],["тележк",-10.667323787961745],["анализ",-10.667892811309887],["дви",-10.668684856760155],["изыскани",-10.669468319887825],["рекомендованны",-10.669543078032671],["паз",-10.669643656695849],["профиле",-10.670765007458254],["щие",-10.67163325010118],["выбира",-10.672282080079867],["электрощитов",-10.672936437328515],["три",-10.673222521447391],["теплоносител",-10.674417068112998],["па",-10.675289336566811],["уровнем",-10.675788927567492],["рза",-10.676845681264155],["подогрева",-10.678029530547118],["ed",-10.679030331392733],["предпроектны",-10.679117667317158],["покрыт",-10.67918193139006],["002",-10.679506799616943],["календарн",-10.681020417937662],["закрепление",-10.681616973276903],["тэо",-10.68184544963558],["бора",-10.682706241327944],["увеличени",-10.68287040117168],["рекоменд",-10.682907455914252],["абсолютно",-10.68336628941407],["комплектов",-10.685149834368655],["усти",-10.686158687083488],["контактны",-10.68695673643016],["вентиляционн",-10.687162813056192],["составны",-10.68764850970413],["включен",-10.688393545911708],["находящи",-10.68853194864979],["73",-10.688661961410144],["способност",-10.689528095504448],["изолированны",-10.68981837960618],["перемещени",-10.689852491433138],["вляющий",-10.690136349050059],["грунт",-10.690239354183824],["ющего",-10.691336595841765],["ации",-10.692697811962185],["факел",-10.693245598386074],["регулирующ",-10.693798989732105],["коротк",-10.694006699727803],["возникающи",-10.694215996739093],["холоднокатан",-10.694985348594404],["команд",-10.69499878822999],["эскиз",-10.69502759618519],["кранов",-10.695131732028146],["ошиновк",-10.695643240448128],["входящ",-10.695658943301632],["гарантийно",-10.696912597338521],["подшипника",-10.69762753637425],["осуществ",-10.697928542017069],["y",-10.698538993961037],["прокладо",-10.698952303013295],["дхш",-10.699444058673686],["уборк",-10.700101158346884],["утечк",-10.702061515960237],["коробка",-10.703048841054166],["календарны",-10.703463017649234],["енны",-10.703577793699495],["включ",-10.704396632048296],["приварк",-10.704533261187589],["программировани",-10.704752729203916],["су",-10.705714911380655],["тт",-10.705788024851135],["физическим",-10.70631510653591],["поставочн",-10.706806458195937],["комфортабельн",-10.706964457048393],["107",-10.706989378970825],["приварны",-10.707513637791761],["крана",-10.707770225093324],["198",-10.708164783901928],["логически",-10.70902550733898],["головко",-10.710490739584577],["узе",-10.71058749040007],["ием",-10.7124704126379],["приводит",-10.71305505807808],["резервирование",-10.713277051047605],["торцевым",-10.71349549978974],["торцево",-10.713501986599525],["прокладкам",-10.714003465544922],["влияющи",-10.714198348337463],["енно",-10.715002194540833],["147",-10.715092884512494],["бокса",-10.715568783352882],["нку",-10.715732721389967],["журнал",-10.71591267806668],["сейсмостойко",-10.716368877798848],["горизонтально",-10.717594779543456],["примес",-10.718077858425872],["ования",-10.718178303026852],["дальнейше",-10.718894648319505],["штуцера",-10.719035180033082],["гашени",-10.719871119486859],["ать",-10.720003887693188],["изгиба",-10.720598525702831],["строящ",-10.720832898179012],["регулирование",-10.72136196096873],["en",-10.721802564923305],["ob",-10.723624337414648],["непосредственны",-10.724068670487842],["полос",-10.724283405579737],["грузоподъемно",-10.72455491622621],["вторичны",-10.724618848533623],["180",-10.728255414506165],["сварным",-10.728290748675649],["муфта",-10.728426391900221],["огрева",-10.728726215515511],["конц",-10.728871719685301],["радиальны",-10.72927691795999],["оформлени",-10.729607439490893],["еперерабатывающи",-10.731210444625411],["азот",-10.73167179282988],["компоненто",-10.731900671899044],["подстанция",-10.732091132683326],["полезн",-10.734262075185931],["теплот",-10.734322728754773],["отлича",-10.73540862902204],["диспетчерско",-10.735611930641642],["термометр",-10.735782052110704],["лекоммуникационн",-10.737306905746816],["реактивно",-10.737466809132245],["508",-10.738005737846397],["много",-10.739804249728264],["ударны",-10.739920984804405],["установленн",-10.742385162208489],["вентиляционны",-10.743664741231258],["разделе",-10.743809553067418],["дежурно",-10.743986620291235],["264",-10.744472913600902],["ющих",-10.744535825596191],["автомобил",-10.745056843794334],["проводит",-10.745378456211775],["202",-10.74538230390712],["0000",-10.746565237541116],["козыр",-10.747544496492253],["экземпляр",-10.747612309125097],["дросселировани",-10.747612841221411],["восприяти",-10.747613246375924],["минимум",-10.7476151351865],["манжет",-10.747616931981495],["газоуловител",-10.74761981273286],["флан",-10.747645176578981],["утратившим",-10.747772155425807],["теплоснабжени",-10.74781394717041],["предоставлять",-10.747993871001656],["промывк",-10.748073501855771],["стоков",-10.748158977862488],["зра",-10.748327217442856],["дном",-10.748575835535505],["электрообогрева",-10.748605318334137],["программа",-10.748702465314839],["соединительн",-10.748740106993917],["индустриальны",-10.749009871872824],["засыпк",-10.749116691798257],["отсечк",-10.750410180744929],["трубны",-10.750976010577695],["осушк",-10.75139933785811],["канало",-10.751715709747826],["модульн",-10.75189898572035],["емкостны",-10.752765084000675],["группа",-10.75308257328939],["переходны",-10.75382336639916],["отопительны",-10.754511828993426],["внутреннем",-10.755113448970135],["питающих",-10.75555956234489],["коммутационны",-10.755894043315422],["гарантирова",-10.755973275726179],["позволяющи",-10.756000448832774],["универсальны",-10.75636554525755],["нескольк",-10.756568863841085],["пружинны",-10.756762085771774],["ранн",-10.756790221868588],["удобно",-10.756990009778141],["учитывающи",-10.757021622640131],["дождев",-10.757549064411563],["продолжени",-10.758219782755557],["периметр",-10.758486880944222],["механическо",-10.759233360290235],["прошедши",-10.760105137068651],["энергоэффективн",-10.760644421764173],["газотурбинн",-10.760896161101936],["упорны",-10.761173283995252],["m",-10.761221905395386],["коридор",-10.761354446803555],["которым",-10.761638372320505],["эп",-10.762109635425604],["нарушени",-10.762448802367114],["теплообменно",-10.762528766282786],["6000",-10.76271196964176],["козырьк",-10.762985983259377],["частиц",-10.763089425327916],["экономическо",-10.763592736431676],["жизн",-10.763960896535519],["сальниковы",-10.764607580344727],["потенциально",-10.765979928896428],["аспт",-10.766080097966729],["проекто",-10.768032590396885],["оборон",-10.768054902269375],["низковольтно",-10.76891389273911],["имеющие",-10.76895644801648],["отбор",-10.769385784495222],["центральн",-10.769809460271652],["компримированн",-10.769814286635583],["кромк",-10.77045752919811],["приводно",-10.771300122778772],["электропроводк",-10.77284675092357],["ключающая",-10.77383885096588],["документам",-10.774091274031743],["льного",-10.775067801947673],["присоединени",-10.775665973998066],["перегород",-10.777083815295954],["750",-10.77796024180529],["того",-10.778341397710337],["конструкционны",-10.778431965358159],["односторонне",-10.780274148628575],["ng",-10.780578380542508],["оболочка",-10.78120661165903],["местны",-10.78141912226479],["плоски",-10.781624033143274],["подобра",-10.782363418306357],["повышенн",-10.782646660933858],["свободно",-10.782970503092425],["вычислительн",-10.783601892495469],["63",-10.78489285616114],["достаточ",-10.785592179562682],["534",-10.786989438000019],["обрабатываем",-10.788556876236868],["механизма",-10.789221799422606],["необходима",-10.78931296893333],["проектируемо",-10.792490801709286],["угло",-10.793059559164494],["призна",-10.793625568826137],["требуемы",-10.793918384871732],["задание",-10.79394881597004],["жидко",-10.79472791261686],["указанно",-10.795330846368499],["сертифицированны",-10.795520732263808],["невозможност",-10.795934055747576],["вязкост",-10.796327244087124],["дыха",-10.796665223449638],["звуково",-10.797040013228065],["обозначен",-10.797706336742165],["специальным",-10.79782638708693],["ac",-10.798074064100646],["вру",-10.798422855240924],["защищаемы",-10.799292483082258],["гут",-10.799319703038526],["выходящи",-10.799981292945345],["обеспечивающ",-10.801235181692652],["лебедк",-10.80157275245543],["613",-10.802508317174622],["²",-10.803167864671941],["экстремальны",-10.803167864681571],["энергопринимающи",-10.803167890016423],["пенообразовател",-10.803168860883732],["газораздаточн",-10.803218132611583],["kv",-10.80327860915574],["треугольник",-10.803324847613062],["восьм",-10.803360032838206],["вибрационн",-10.803416468196737],["сравнени",-10.803812041125726],["переконсерваци",-10.80410824326258],["щита",-10.804176511090391],["отгрузк",-10.804490960203529],["выброс",-10.804700853253731],["подтоварн",-10.804724050684168],["сжигани",-10.805300465149863],["водны",-10.80584177790664],["событи",-10.806568443108677],["коммуникациям",-10.806806595004598],["применяемо",-10.807531811127271],["инфракрасны",-10.807969186738683],["знес",-10.808791167869188],["дорогам",-10.809029363791458],["твердость",-10.809740172185503],["унифицирован",-10.810659543466802],["чертеже",-10.810738471820867],["аналогичны",-10.811762999796423],["перемещение",-10.811847492554945],["угол",-10.812873713145056],["формирование",-10.81340178123325],["тягом",-10.813513629815992],["низким",-10.81382780839847],["расчёт",-10.815171914310026],["воспламен",-10.815186360421233],["полномочи",-10.815744187859053],["временно",-10.816041224370434],["радиус",-10.816293793768008],["ктп",-10.817253421206972],["включает",-10.817298085222138],["государственно",-10.81735082426536],["поперечны",-10.817722632396265],["инструмента",-10.817919249101069],["подключенны",-10.818216586320643],["питьево",-10.818390321962475],["нагнетательны",-10.818638311979639],["знакам",-10.819360315603696],["ром",-10.819990654666368],["1500",-10.821424701120845],["программны",-10.822744846980633],["тзн",-10.823148362572557],["подлежат",-10.823218122308857],["ательны",-10.823455242394141],["взаимодействи",-10.82351588290622],["174",-10.824201236237919],["местно",-10.82436847918867],["приведенны",-10.826420196846124],["заводск",-10.826470108626335],["издани",-10.828047646721657],["ключа",-10.82926839403368],["шкафо",-10.829349602161358],["смежны",-10.83023402940752],["первично",-10.830489529076871],["функциональн",-10.831272931845751],["045",-10.832008597491857],["опломбирован",-10.832752867965135],["сетево",-10.83304940479185],["разны",-10.83348053109434],["меж",-10.834472703429592],["инициат",-10.834544986393816],["чист",-10.835355944938474],["дымовы",-10.835747867746388],["ительно",-10.836031901624832],["важны",-10.836519771508335],["одновременно",-10.838506554279878],["непрерывно",-10.839827907286004],["импульсны",-10.84061304165176],["проволок",-10.84237134031768],["укладк",-10.842495709001957],["жило",-10.842509568253087],["имеющ",-10.844615261552871],["распространя",-10.845027937182172],["опорны",-10.846135262512599],["стеновы",-10.84640260979811],["сет",-10.846906072021506],["компримировани",-10.846999771548644],["отсутству",-10.847460597106233],["пп",-10.847602366769586],["корректно",-10.847816757877846],["261",-10.849173022420787],["005",-10.84975365934056],["турбогенератор",-10.850653006179797],["бп",-10.852520067801704],["800",-10.853488268479012],["текстово",-10.856589061556729],["двигателе",-10.856680394262426],["распределительн",-10.856704610733853],["углеводородны",-10.85809686672346],["крепеж",-10.858154008290317],["двигателя",-10.858687920308665],["интервала",-10.85944141792491],["энергетически",-10.859506069281506],["жалюзи",-10.860133459910198],["605",-10.860649932042875],["конца",-10.861102023750375],["законны",-10.861373806797317],["чрезвычайны",-10.861991394083873],["предупреждени",-10.861991394218501],["утилизатор",-10.861991399724598],["критери",-10.861992718182796],["диаметро",-10.86201684529146],["газомоторно",-10.862031840410019],["fr",-10.862271641874694],["сибир",-10.862281757266725],["опорожнени",-10.862610854899488],["сменны",-10.863291508394266],["интеграци",-10.863318467678505],["двусторонне",-10.86357559529096],["отказа",-10.863868668558087],["закрыто",-10.864168776059211],["оставленным",-10.864846691120297],["появлени",-10.864951126604897],["мебель",-10.868382206070361],["аналога",-10.868973691009963],["бытов",-10.869124874450423],["фундаментны",-10.869752101014004],["радиально",-10.8697967819933],["ограничения",-10.86986494060048],["деформированн",-10.870071336873718],["ударо",-10.870363986228663],["электроосвещени",-10.873895482652198],["разработанны",-10.875104289806604],["компенсатор",-10.875881789117159],["потребителям",-10.876296331062811],["определяемо",-10.87659419848169],["копи",-10.878066312850267],["авто",-10.878450632576273],["дистанционн",-10.87940912150112],["состоящ",-10.880540837733477],["рассматриваемо",-10.881459176732157],["люко",-10.881616768738606],["двигателям",-10.883267480461354],["смесь",-10.883379143204822],["перекачивающи",-10.88390119930354],["составлени",-10.884321062258023],["определенно",-10.885501246915176],["марк",-10.887242335792324],["рециркуляци",-10.887678673116637],["атмосферн",-10.88848279771863],["сверх",-10.888500583116702],["батаре",-10.889125404172484],["тамбур",-10.88940890624815],["робкам",-10.89062313099003],["опрос",-10.890683485681055],["камера",-10.891617241803019],["угловы",-10.891814264912387],["елей",-10.892218597406],["актам",-10.892449130697338],["ставить",-10.892722191395599],["рекомендованн",-10.893052703606083],["населен",-10.893768196086448],["образование",-10.894251979244643],["дистанционны",-10.894286675044164],["замыкание",-10.89547976027371],["ворот",-10.896967150174476],["лакокрасочным",-10.897478371413204],["продольно",-10.897615472243091],["расходомер",-10.897684668460869],["опыт",-10.898516282827789],["mo",-10.900917164399496],["вместимость",-10.902749961716193],["мен",-10.902784951753377],["него",-10.905357914959144],["гладк",-10.905508692087137],["создание",-10.90694735891683],["углеродист",-10.907164646930104],["видам",-10.907501616513969],["2429",-10.908388597477794],["концов",-10.908467543553233],["статическо",-10.909176245225217],["ie",-10.910419957697002],["прекращен",-10.911182980006284],["субъект",-10.911590197026326],["поля",-10.91217446604906],["дар",-10.91292935288218],["газообразн",-10.915534715340808],["требуем",-10.91634562639692],["повышенны",-10.916763387376673],["ировани",-10.917243166978746],["полов",-10.917856250866393],["производитель",-10.920301608549844],["договор",-10.920553175021965],["ведени",-10.920574224051737],["+",-10.921127691434844],["жесткост",-10.921724545247807],["тэ",-10.922242512965028],["плотност",-10.923710757309628],["цилиндровы",-10.92448665633809],["z",-10.924491394083713],["конфигураци",-10.924491394085951],["противодымн",-10.924491463723212],["двускатн",-10.924493243888815],["кожухотрубчаты",-10.924493882454376],["гидроцилиндр",-10.924494359455796],["комисси",-10.924502464042941],["свободностоящ",-10.924509267605075],["подвергнут",-10.924510645002117],["перевооружени",-10.924513262454695],["ревизи",-10.924584451116196],["термообработк",-10.924638061390747],["4759",-10.924985990713171],["оформляют",-10.925081548714516],["типоразмер",-10.925699928337341],["нефтепереработк",-10.925869446652724],["перекачивани",-10.925981150047544],["органа",-10.927025577827047],["шнур",-10.927284067797906],["градительны",-10.927445401392463],["угла",-10.928490086415326],["обмен",-10.928677221770165],["rt",-10.92940557573974],["опора",-10.930096998184093],["эквивалентно",-10.930323700492488],["допускающи",-10.930366922943483],["стойким",-10.930548551554978],["низковольтн",-10.93165798851378],["облицово",-10.931668958051386],["жесткость",-10.931924570616536],["2091",-10.93227962397081],["вычислительны",-10.93250045081675],["подвеск",-10.932891613503301],["верх",-10.933444082446462],["пункто",-10.933509809305265],["атмосферны",-10.934293538376739],["пищ",-10.934735800252897],["накоплени",-10.93595791972377],["троса",-10.936324663532549],["штампов",-10.936746349134454],["присутстви",-10.936811997490656],["пожаротушение",-10.937237354528751],["смещени",-10.93752540438771],["тизированны",-10.93779695652664],["находит",-10.938356000495718],["строитель",-10.940076202235167],["измерительн",-10.940233533623116],["цепь",-10.940489339925035],["комплексн",-10.940495235041597],["файлов",-10.941213538281493],["входящи",-10.941528974537201],["эр",-10.942039900459566],["перегородкам",-10.942314656720868],["заземленно",-10.943338077524471],["газозаправочны",-10.944426247251348],["комплексно",-10.944959919613083],["отражен",-10.945287589147659],["аккумуляторн",-10.945514283593315],["днище",-10.94655159676796],["тормозно",-10.946982149604105],["теплоизоляционны",-10.947123104119573],["1294",-10.947243083799131],["бес",-10.948597782711074],["ключ",-10.949262552439388],["пространств",-10.950044061146997],["дверь",-10.950114738814015],["соответс",-10.950160278577128],["средне",-10.950633733491205],["173",-10.95143605092897],["компримированны",-10.952039919782532],["лестницам",-10.952768877528321],["днища",-10.95339909233598],["политик",-10.95342393012119],["ерерабатывающе",-10.9545539714583],["символ",-10.954563734570698],["разрыв",-10.954867738659043],["нов",-10.954941856648913],["ле",-10.954980665555492],["описан",-10.955926849581301],["реально",-10.955987420970684],["взрыво",-10.956390883868515],["обоснованны",-10.95639597182653],["оптическ",-10.956563546077827],["559",-10.956765960963361],["обосновани",-10.95733462277904],["ap",-10.957494085876887],["соблюдени",-10.957939730006542],["произве",-10.958028132878784],["черн",-10.958503422326626],["ближайше",-10.958683356009574],["проче",-10.960048065439292],["вать",-10.960542096912864],["изгиб",-10.960573350965692],["прямоугольн",-10.9614788056135],["кожуха",-10.963756166254583],["несоответстви",-10.96563332130713],["пластин",-10.965756075033033],["al",-10.965925842723696],["встроенным",-10.9671505349765],["смонтированны",-10.967275487398396],["рамк",-10.96886874452505],["оборуду",-10.969039109094432],["принимаем",-10.969209749187804],["309",-10.969858484717147],["заводским",-10.970270676212364],["сооружениям",-10.970823205255932],["постановлени",-10.971081623031779],["сфер",-10.971120909558115],["теплообменн",-10.97188942886073],["подземн",-10.97293929349101],["шаг",-10.975139001538743],["утепленны",-10.975626998127233],["оптимальны",-10.976044879277216],["клеммн",-10.976427756743059],["ционны",-10.97741819199438],["сварно",-10.977846416408607],["снег",-10.978466666434203],["ти",-10.979745831846241],["состо",-10.98242484956842],["площадкам",-10.982441210891253],["нефтепродукт",-10.983346050660815],["сетчаты",-10.984090239348678],["располагае",-10.984335071419576],["торцовы",-10.984532625219298],["резьбовы",-10.98584569361583],["приведенно",-10.986240110781726],["чугун",-10.98638579122897],["ально",-10.987483074737032],["дефицит",-10.987847628498065],["инженерным",-10.988105883640287],["химическ",-10.988129115835218],["ad",-10.98861910050735],["чувствительность",-10.988939669655085],["ord",-10.989248296489931],["клемм",-10.989987694557264],["лицензи",-10.990059554524045],["егковоспламеняющ",-10.990843847268886],["дренажны",-10.991021549228648],["метрологи",-10.991100640341886],["обеча",-10.991130837009393],["∆",-10.991158060750388],["растрескивани",-10.991158060865953],["деклараци",-10.991158063122759],["доводчик",-10.991158109834021],["западно",-10.991163201431082],["межповерочн",-10.991163326068147],["резистор",-10.991165586399106],["пропарк",-10.991191457259667],["представляет",-10.99137577086098],["распространяющей",-10.991390110590519],["общежити",-10.99168461310909],["индикатор",-10.992180383719798],["опирани",-10.992424819051903],["взлет",-10.992653992909727],["транспортировать",-10.992743434056273],["окрашиваем",-10.992869954462758],["идентификационн",-10.992918358511417],["ятс",-10.992940867240176],["проводимы",-10.99296594397317],["изации",-10.992992633979537],["лотков",-10.993395369882016],["искробезопасн",-10.993482904694043],["центровк",-10.993599061352917],["одежд",-10.99360786933802],["пульт",-10.993753963785043],["жание",-10.993809402997664],["локализаци",-10.99405740011175],["хода",-10.994336089445436],["люб",-10.99494048706794],["состоят",-10.995021149069627],["526",-10.99550106021017],["оптик",-10.996886665066803],["фильтра",-10.997303374504021],["указывать",-10.997305975354701],["правовым",-10.998041134669856],["реагент",-10.9982264624429],["вытяжн",-10.998474249943502],["свар",-10.998531392506067],["напорн",-10.99870297212804],["тяго",-10.999728915209225],["464",-10.99983758604468],["препятств",-11.00055285381177],["рассчитывае",-11.000891020953528],["среднего",-11.001676256072276],["нкпр",-11.001686592339713],["ei",-11.001692621788738],["5367",-11.002759571207553],["особо",-11.00287464454608],["двойным",-11.0029150930413],["бокс",-11.002919865195956],["1370",-11.003275871887205],["совет",-11.003292940427203],["оптимальн",-11.00350516625629],["резиновы",-11.004142053662358],["высок",-11.004287978660575],["турбогенератора",-11.004398037129642],["ющей",-11.005167138907455],["5136",-11.007260817468374],["комбинированным",-11.007625037639553],["понижающи",-11.007836378414519],["этажа",-11.00848564318748],["легко",-11.008833991849679],["избе",-11.01060060770991],["вентиляционно",-11.01128799313234],["испытан",-11.01160135646805],["замка",-11.012296122133781],["соединенны",-11.012469442645074],["сечени",-11.012629237014895],["родолжительность",-11.012925478770743],["автоматическим",-11.013259680553821],["принципиальн",-11.013485525226734],["жестки",-11.013821117202477],["упакован",-11.01446426254347],["базово",-11.014482527553191],["1200",-11.014637812521585],["противоположно",-11.018087255999772],["учест",-11.019562034536996],["мера",-11.019712944148376],["комплекту",-11.021105532947114],["подвижны",-11.022485536475962],["гнут",-11.022611130403883],["нсп",-11.023349174984784],["опн",-11.024245690326463],["частота",-11.02430191362457],["конструктивн",-11.024430262908176],["море",-11.024638748030673],["машиностро",-11.024873543158982],["отпуска",-11.025284745466703],["отсутствие",-11.026437709082732],["росопроводительн",-11.026727229589603],["нареза",-11.027429870711492],["однофазны",-11.027589439143275],["обруч",-11.028013087121087],["санузл",-11.028378282839604],["продольн",-11.028738143727608],["утверждённым",-11.02881234601489],["участвующи",-11.02975645406147],["предоставлен",-11.03049899406075],["продольны",-11.0306204540694],["печ",-11.030991840390191],["формат",-11.031634659543368],["определяемы",-11.03176152705111],["электронны",-11.032383189201663],["стеллаж",-11.033517499296586],["температурно",-11.035592923150869],["58",-11.035894108796038],["погружны",-11.035990429586477],["минеральн",-11.03628676795643],["неагрессивны",-11.036509811632921],["располож",-11.036868566954935],["сохранение",-11.037620709189536],["платформ",-11.038208744885118],["образца",-11.038213814705571],["ое",-11.0391236984228],["управляющи",-11.0394700394428],["се",-11.040605836249117],["установочны",-11.040885711975772],["свеч",-11.041514016333045],["плотн",-11.041618846657917],["границ",-11.043036766455181],["полезно",-11.044390726521437],["транспортируемо",-11.04464833045077],["рез",-11.04664500951246],["эффективно",-11.046971488763072],["предпроектн",-11.047726521158474],["спиральн",-11.04817769068942],["1049",-11.048863771133696],["частотно",-11.049797317861817],["склад",-11.049858018536993],["мелки",-11.050136491926573],["автоматизирован",-11.051490826059219],["магни",-11.051713272147838],["трехжильны",-11.05236732346279],["дно",-11.052614620397563],["твовать",-11.053148349774817],["альны",-11.053825771784979],["физически",-11.055145971652161],["мостик",-11.055318641948528],["министерств",-11.055387321590288],["кратковременн",-11.055522814566785],["поставляемы",-11.055887723571317],["формула",-11.056094375842179],["принятым",-11.058267715992386],["выходо",-11.059588580590004],["осев",-11.060263804540433],["стрел",-11.060532601853163],["одн",-11.061110924805877],["оком",-11.061360726243358],["%)",-11.06180193581503],["эффект",-11.062276161116316],["‒",-11.062586632178979],["вариативност",-11.06258663251726],["модернизаци",-11.062586636712059],["гребенк",-11.06258686173761],["мановакуум",-11.062587170485257],["редуктор",-11.062589614566969],["сочетани",-11.062600439847765],["водоотведени",-11.062606681802226],["мониторинг",-11.062623503372235],["крепить",-11.062626402796518],["навиты",-11.062848771135465],["подвергать",-11.062858167056733],["периодичность",-11.062893728005454],["размещать",-11.062955689439129],["двусторонним",-11.06300618366236],["закачк",-11.063032874305005],["термостойки",-11.063667117592042],["сосуда",-11.063730427030308],["растяжк",-11.063757830502524],["экспертны",-11.063975324841095],["раскатк",-11.063979640540818],["гарантийн",-11.064110961482545],["оснаст",-11.06424694503708],["од",-11.065445930041575],["междуфазн",-11.065598830816555],["централизованны",-11.065893571281618],["типизаци",-11.06649875742499],["назначен",-11.066988848373118],["имеют",-11.06731530570899],["рядо",-11.069043950443113],["сметн",-11.069206009110523],["веса",-11.069352207615305],["978",-11.07015074626385],["сжаты",-11.070190463417472],["перегрузо",-11.071085217320352],["электрод",-11.071110922021216],["роликовы",-11.072382267483261],["требующи",-11.072557957533123],["обработанны",-11.072729814890799],["пробк",-11.07278055757959],["зимни",-11.07308823395566],["транспортируем",-11.073602154702828],["электромагнитным",-11.07494866083072],["болтовы",-11.074975816176424],["потолкам",-11.075479845515458],["ступеням",-11.075905247657461],["ует",-11.07593913171657],["чивани",-11.07682365251046],["наружном",-11.076842218345535],["последующим",-11.077050280327967],["пропускн",-11.07747493776153],["однофазно",-11.078158755877205],["гибки",-11.078297430340488],["прекращени",-11.078622201770314],["пи",-11.078686931234351],["упаковочны",-11.078837756066571],["комплектовать",-11.078962159901867],["ред",-11.080435020472919],["жидкостны",-11.082283412396174],["исходны",-11.08288526867207],["предупредительны",-11.083069990709893],["совместн",-11.083963075855786],["друга",-11.084765627501866],["горелочны",-11.084936262379443],["замко",-11.086358307974029],["аэро",-11.08702525614498],["007",-11.088641431554198],["структурно",-11.089187808501665],["допустима",-11.08965378509021],["446",-11.089833161771578],["106",-11.090304558568281],["плите",-11.091415322055058],["железным",-11.094205408304726],["компримирован",-11.094593831256148],["наземны",-11.094875753084482],["вших",-11.0951214635346],["токовы",-11.09531252583363],["двухфазно",-11.095920292465038],["квадратн",-11.096168555153726],["закрытие",-11.09659382789471],["кольцо",-11.09667087538357],["57",-11.096805663173003],["дифференциальны",-11.097038527352936],["вертикальном",-11.097849649897164],["распространяющи",-11.099157111962134],["собственн",-11.10004901258285],["кронштейн",-11.100416208022807],["5180",-11.100834569695966],["потребляемо",-11.100907679193364],["граничны",-11.102884091802283],["линейн",-11.102976168077712],["приточн",-11.103143289289031],["отказо",-11.103272120749315],["контейнера",-11.103395212178489],["поперечно",-11.104114480622117],["ответственно",-11.106352913231202],["обогревателя",-11.107715199977688],["прав",-11.107774665086263],["параллельны",-11.107822398446705],["журнала",-11.107867855321121],["рос",-11.108537253124942],["ины",-11.108936255353342],["уклоно",-11.110607216765644],["удобны",-11.111233076389176],["входном",-11.111257962342679],["сертификата",-11.111589544169933],["несуще",-11.111878616080025],["нижестоящи",-11.11234804667424],["газотурбинны",-11.113548725236505],["чеч",-11.113555574248451],["пробо",-11.114280507165397],["пусков",-11.114676801908018],["против",-11.114791914592912],["эквивалент",-11.11543408744334],["органическ",-11.115855423757225],["поста",-11.115878412860821],["стрелк",-11.116654406183507],["превышени",-11.117045068210004],["перекрытие",-11.11712282746322],["кф",-11.11744735255127],["решетк",-11.117747320015791],["близи",-11.118041252377843],["стое",-11.118061608040684],["эг",-11.118101383376997],["заземлителе",-11.120154927094207],["297",-11.12024819474992],["эк",-11.120418855494465],["сварива",-11.120648224238547],["трехфазны",-11.121022650016254],["эффективны",-11.122118835152957],["приспособлени",-11.122465468982124],["группово",-11.122574434996935],["подъемно",-11.123786098279616],["деталь",-11.123926830324592],["комбинированны",-11.125667223238919],["измерение",-11.125855804249833],["привязк",-11.125948475945364],["локально",-11.126537322395777],["поддержание",-11.126641781508772],["графит",-11.128499512246542],["окрашива",-11.12869883273693],["заданным",-11.129294932944934],["двухфазн",-11.129881661752583],["патрубка",-11.130330217430634],["оптическо",-11.13081211583528],["перенапряжения",-11.131187113413748],["выделение",-11.131581843660559],["кратност",-11.132228762691017],["право",-11.133235251453653],["колонн",-11.133395797960086],["низко",-11.134188359882433],["автомат",-11.136333914003247],["сто",-11.136620421387525],["испытательно",-11.136926026822156],["получение",-11.137550509707168],["асду",-11.137840285482017],["сло",-11.138314307875591],["облицовка",-11.138416231413942],["нержавеющи",-11.138796810140837],["трансмисси",-11.13925180539448],["деформаци",-11.139476443329379],["υ",-11.139509709102098],["—",-11.139509709102098],["j",-11.139509709102098],["председател",-11.139509709359125],["президент",-11.139509712116379],["манипуля",-11.139509753166067],["прокладываемы",-11.139509977414768],["принадлежност",-11.13951065903263],["изолятор",-11.13951389277312],["нумераци",-11.139525418033756],["гильз",-11.139527421289678],["диоксид",-11.139542604244507],["многофазны",-11.139590484783865],["градус",-11.13968183028901],["тревог",-11.139696456364733],["рассеивани",-11.13979548844318],["наплыв",-11.139852062010114],["трясени",-11.140009123620459],["обезжиривани",-11.140009582454823],["приемосдаточны",-11.140320773415743],["инфраструктур",-11.140443859565712],["проектирован",-11.140514708639616],["подкос",-11.140522359746978],["прокладочн",-11.140642304160945],["608",-11.141095790959293],["поверхностя",-11.141575980764692],["следствие",-11.141655574759612],["индуктивн",-11.141688022827081],["ограничивают",-11.142017978171353],["фров",-11.14244245000036],["внешн",-11.142560214243577],["настоящем",-11.142825315305403],["износ",-11.142923914298366],["присоединен",-11.142953348421855],["плав",-11.14298833478112],["создаваемы",-11.143144685357091],["общепромышленно",-11.14388141882182],["6205",-11.144198059390831],["пожароопасны",-11.144230853244279],["проработк",-11.144802692937596],["узо",-11.145100895272757],["котлов",-11.14525543022549],["распределенн",-11.145322068553781],["кз",-11.146009620574157],["температурны",-11.14651626277012],["обязан",-11.147049204771369],["розето",-11.147171020790392],["минут",-11.147243371570628],["разделительны",-11.14729453844912],["близ",-11.147399727390738],["устойчивост",-11.14782013567329],["барьерн",-11.147910685720582],["отсека",-11.148016802393936],["острым",-11.148263926294636],["распорк",-11.148280937248476],["900",-11.148432356470062],["нт",-11.148977316944356],["автотранспорт",-11.149253682958886],["торможени",-11.149358247346342],["полном",-11.150817437933256],["плунжерны",-11.151458728075387],["административны",-11.15171834743334],["целесообразно",-11.151861196234112],["транспортировк",-11.152020493870268],["колонка",-11.152418655502704],["подверженны",-11.153796548140868],["болота",-11.153808212694436],["автономным",-11.153845697290208],["сооружаемы",-11.153887686454206],["нанесенны",-11.15473789506797],["асси",-11.155588254219737],["замер",-11.155685062732559],["безопасны",-11.157443581987422],["центробежно",-11.157507809434088],["сточны",-11.15754018233365],["защищаем",-11.157649535101609],["преобразовани",-11.158494317640052],["резк",-11.158591648709994],["трубам",-11.15865414568694],["медны",-11.159675123167705],["субъекта",-11.160517150666312],["текущи",-11.1606763069739],["авария",-11.160994753335423],["er",-11.161938560237875],["крепежа",-11.162137400995126],["ёмкост",-11.16289025317249],["подконтрольно",-11.163475587612037],["114",-11.163559384876805],["закупаемы",-11.163658735660045],["асту",-11.164058428691034],["ающего",-11.164138569568259],["транспортн",-11.164530066605217],["отвечающи",-11.165728514221769],["двига",-11.165757258968473],["головка",-11.16696492075328],["рассматриваемы",-11.167817408515512],["частям",-11.168756644208667],["окончани",-11.169289999096286],["ламп",-11.170045926480695],["992",-11.170477696324049],["наземно",-11.170520064694916],["текуще",-11.170975111489012],["судов",-11.17113026214143],["швам",-11.171762288657003],["ква",-11.171972822609144],["две",-11.17386574364091],["боково",-11.174245786595751],["влияние",-11.174497803638182],["угольн",-11.174753503974664],["необходимым",-11.174772019772684],["кладов",-11.175964237995853],["разработа",-11.17711274184176],["фактически",-11.17730715319295],["пыли",-11.17792807964478],["пролет",-11.178002247443937],["вания",-11.178632125716451],["испытательны",-11.179121832092935],["кронштейна",-11.180193029032548],["724",-11.180567556955417],["равномерно",-11.181923637711852],["приточны",-11.182713364496966],["крыше",-11.183051141068646],["това",-11.183435270996863],[")-",-11.183696574779653],["заключение",-11.184261857532832],["стяжк",-11.184464974440363],["масло",-11.18535214976875],["внесен",-11.185508460609134],["металлорукава",-11.1860606692683],["403",-11.18753611564196],["превышающе",-11.187614110050571],["модульно",-11.188096856447284],["удар",-11.188103585949262],["осево",-11.188330087761441],["3184",-11.188400628482247],["эргономи",-11.188465722239059],["продукт",-11.188815892422902],["целесообразн",-11.189226063995358],["импортн",-11.189551242085294],["задач",-11.190419578264958],["достаточно",-11.190786022210148],["резервным",-11.191009966756933],["предохранительн",-11.191095286390855],["генерирующе",-11.192339683723617],["трубн",-11.192340060749576],["запира",-11.192421419465735],["146",-11.193307390044481],["верхн",-11.19345147902794],["стенд",-11.193912234967897],["оснащени",-11.194085941330268],["цилиндрическ",-11.195522225123481],["втулк",-11.196523375261748],["усиленн",-11.196773004511467],["утвержден",-11.196870732103505],["водоподъемно",-11.197164996546208],["ними",-11.198442606037922],["отработ",-11.198564553839505],["метра",-11.200281004142393],["ее",-11.201286834182758],["коррозионн",-11.201403759419495],["запуск",-11.201808850440456],["полу",-11.203109923386366],["пн",-11.203229688655702],["газопоршнев",-11.203364416851334],["105",-11.203724213348792],["пл",-11.204015312871135],["определяем",-11.204023968648986],["строительным",-11.204627059536195],["324",-11.204850490060787],["бетонны",-11.205050917196816],["лить",-11.205225310740197],["головк",-11.20557816482601],["ера",-11.206548470397196],["силовым",-11.206769794854342],["наливн",-11.207119716666085],["коррозионны",-11.207137308179796],["дол",-11.207749702801381],["оболоч",-11.209787631398667],["болтово",-11.211332214029266],["цепя",-11.211494715443767],["re",-11.212095810335653],["повторны",-11.213902851366617],["погружно",-11.215141352046953],["лаборатори",-11.215616902348465],["казывать",-11.215729308757552],["вахтов",-11.21577520981049],["разъем",-11.21640730651612],["радио",-11.216501563612526],["нем",-11.218419722632689],["ленно",-11.219430453253725],["единицам",-11.219547346099809],["569",-11.219567422891608],["клапанам",-11.21999595695127],["выпускаемы",-11.220219231032832],["проведение",-11.220398908211317],["горизонтальн",-11.22090808370836],["вспомогательно",-11.220995015040572],["вн",-11.221024173596364],["график",-11.221421313415707],["равен",-11.222024163085095],["подтвержден",-11.222227057747748],["ступления",-11.222621049444047],["диспетчер",-11.222819508834188],["",-11.222843042435535],["идентификатор",-11.222846660312815],["минтранс",-11.222872418478381],["галоген",-11.222887211628738],["стабилизаци",-11.22288820007659],["тупым",-11.22293496290836],["преимущественн",-11.222949103892617],["низколегированн",-11.223115238015481],["балансировк",-11.223233259497938],["осветительн",-11.223310727518902],["ячейк",-11.223438275911606],["нефтегазодобыч",-11.22347536163521],["нефтеперераб",-11.223684592342384],["задействованны",-11.223697231943419],["iv",-11.223773192071445],["гидро",-11.223861800183299],["отдален",-11.223891816673099],["615",-11.223918098823528],["низкотемпературн",-11.223946788219168],["маршевы",-11.224141354171165],["доработк",-11.224267614675828],["транспортирующи",-11.224394294600742],["перекрыти",-11.224460487525226],["обрыв",-11.224694750896319],["требуют",-11.224747671246494],["возникающ",-11.224973784663074],["дополнительным",-11.225116715252199],["переключени",-11.22552307682491],["вдоль",-11.226041360957256],["опасн",-11.226454828907144],["онны",-11.227048099985915],["электростанция",-11.22743816462858],["разность",-11.227535047364219],["материало",-11.227649152185194],["несущим",-11.227753029694366],["прям",-11.227814349479758],["абразивны",-11.227943093087925],["аттестованным",-11.228260544656386],["акту",-11.228429036416689],["геологическ",-11.228523098829989],["постоянны",-11.228697796823031],["отпар",-11.228904383954863],["1696",-11.229684599363576],["хромат",-11.229708634311349],["боков",-11.230507172331993],["агрессивны",-11.230994796548279],["многогранн",-11.231378564351024],["свето",-11.231510300548557],["падени",-11.231989485025714],["стабильност",-11.232014619047902],["гд",-11.232312110180327],["ходят",-11.232621238969617],["извещателям",-11.232670427045251],["расцепителе",-11.233585517940654],["автономн",-11.233787255222023],["51",-11.233828035771634],["601",-11.233885189912156],["извещени",-11.234059947961644],["крышка",-11.234270639904642],["сливо",-11.234492006309187],["допуска",-11.234622978492842],["запор",-11.234723281930563],["уложен",-11.234806241934104],["ране",-11.235156581927145],["замкнуты",-11.235174790219421],["трехжильн",-11.235422318826917],["операционн",-11.235983828348326],["метрологическ",-11.237107230878554],["пониженн",-11.237396534833149],["токоведущи",-11.237712825923882],["вентилятор",-11.23839888872373],["волоко",-11.23889027984572],["указанн",-11.239390117645286],["тания",-11.240606509830524],["навесо",-11.240655019996446],["существующи",-11.241413253060887],["аналогов",-11.241897051408463],["ламел",-11.241934204776172],["влажн",-11.242194514986993],["выявлени",-11.242294308483482],["постоянным",-11.242443545127616],["линиям",-11.242669290209102],["59",-11.243547416149177],["резистивно",-11.244673858750234],["вагона",-11.244788261006367],["дверям",-11.244841954335953],["стоимость",-11.24503066880535],["использован",-11.245362454758038],["спиральны",-11.247516633333996],["ачения",-11.248624151159612],["подогрев",-11.250151356316666],["казывает",-11.250329123903303],["правильн",-11.250831076142394],["осадк",-11.250944587472734],["ре",-11.251712167605262],["проволока",-11.25198733617604],["отключен",-11.25199290257215],["удельны",-11.252224360001739],["водонагревател",-11.252535489217724],["строени",-11.253785659154083],["декоративно",-11.253826648223479],["определенн",-11.254595224740045],["отклонения",-11.25493602827483],["закуп",-11.255005515310351],["коробкам",-11.255102780643082],["восстановлен",-11.256032669706382],["вылет",-11.256219028135634],["программн",-11.256587350522166],["прилагаемы",-11.257003137634783],["газопровод",-11.257362132895654],["износостойки",-11.257418696341098],["434",-11.257997425476438],["маркировочн",-11.25978951629039],["рвс",-11.260400299980894],["коллектор",-11.260888734646915],["металлорукав",-11.261071674012433],["электропривод",-11.261499980643677],["асинхронны",-11.261625795758343],["местн",-11.262592302909532],["соединен",-11.262895125900709],["формиру",-11.26443788114582],["санузла",-11.265317936485417],["ап",-11.269296045232926],["термическо",-11.269508122000767],["граница",-11.269687477859861],["x",-11.271137483646601],["выступ",-11.271257968744452],["был",-11.271730930728813],["надземны",-11.273387833147723],["ализированн",-11.273408250665828],["суммарно",-11.274629614854243],["укомплектован",-11.274994786232432],["парти",-11.275691938157614],["используемо",-11.276007493566151],["вых",-11.27603633628784],["приводо",-11.276193257380179],["определяющ",-11.276264925203245],["рения",-11.276372724191905],["змеевик",-11.2765580451536],["водонепроницаем",-11.276969379368438],["лки",-11.277002674644063],["емкостно",-11.278625262468175],["процедур",-11.27920131253668],["внутренним",-11.279863512367937],["присоединительно",-11.280082878638195],["занос",-11.28049449675635],["ствол",-11.28188243556098],["энергорайон",-11.282291860958614],["артезианско",-11.282721984868722],["глав",-11.284288843437087],["разрешенны",-11.28443536938645],["зазора",-11.285665981343367],["двигатель",-11.285822493735784],["перевод",-11.286650784446342],["сам",-11.28671587980527],["архитектурн",-11.286817038683022],["теплообмен",-11.289273187755986],["стандартн",-11.289958408020713],["дверя",-11.290495928838006],["уст",-11.291173353986668],["дренажно",-11.291743284432483],["подводо",-11.292522946499117],["прилагаем",-11.293021453831603],["приспособление",-11.295090200127154],["проемо",-11.295196618078876],["монтажным",-11.295288351429587],["аналогично",-11.29537014143191],["выполняемы",-11.29547951083423],["относящи",-11.295640844267778],["инвентарны",-11.295722150865931],["осуществляем",-11.296117796839862],["ожен",-11.296242285785256],["овоспламен",-11.297119643926345],["дов",-11.297339866947846],["высоки",-11.298937434216427],["сей",-11.299053018706932],["недопустимо",-11.299079438405805],["звуковы",-11.29939093285206],["направляющи",-11.30057001811717],["генера",-11.301464223227992],["новы",-11.301486794471025],["сила",-11.301845558661496],["спект",-11.302181018049636],["запорны",-11.302927832522132],["ростверк",-11.303681052079682],["организациям",-11.305090912460763],["полиэтиленовы",-11.30520640052081],["раздельны",-11.305905475674546],["сыры",-11.306137919651208],["надземно",-11.30614725196364],["централизованно",-11.306830014839845],["валов",-11.306876187174769],["протокола",-11.307216463252807],["шпунт",-11.307688268697653],["ресурсо",-11.307888490964139],["ания",-11.308970783988329],["совмещенн",-11.310300428700364],["полиэтилен",-11.31031426017816],["встроенн",-11.310504493512092],["напольно",-11.31117202920404],["покрытиям",-11.311949787554832],["совпада",-11.313313909662952],["ограждени",-11.313531268634812],["ведомственн",-11.313559223701198],["коммутаци",-11.313616232757925],["̶",-11.313752133344895],["координат",-11.313752137932255],["дезинфекци",-11.313752275247488],["приоритет",-11.31375233587739],["благополучи",-11.313752383208676],["обрушени",-11.313752468673602],["наконечник",-11.313752469951572],["диагонал",-11.31375274797505],["пеногенераторн",-11.313753146070678],["лазерны",-11.31377489917409],["газоанализатор",-11.31377967938883],["разбивк",-11.313781043052384],["своевременно",-11.313782668074516],["комплектовочн",-11.313812260961232],["пусконаладочны",-11.313825807163129],["щелевы",-11.313849898589108],["впадин",-11.313881397903137],["вычислени",-11.313886117310885],["рассматривать",-11.3138962261479],["угроз",-11.313915042724153],["верификаци",-11.313919453309945],["исследовани",-11.313992203577937],["представлять",-11.314123623461471],["парциальн",-11.314179857531727],["зонировани",-11.314233439952977],["рубежн",-11.314297038816589],["ограничивать",-11.314450930785217],["располагают",-11.314492583369685],["нержавеющ",-11.314601327345965],["сохранени",-11.314613294313888],["пластиковы",-11.314786738668408],["информати",-11.315026640883097],["смежно",-11.315032224506348],["ition",-11.31504967884114],["недостаточно",-11.315061343258208],["ex",-11.315805911186116],["закрываю",-11.315946517137851],["утеч",-11.31614696674954],["защ",-11.316483609777695],["светодиодны",-11.316494073173626],["можно",-11.31673042374164],["смет",-11.31714550890098],["цилиндрическо",-11.317243481010616],["247",-11.317552881942833],["газораспредел",-11.317720486332282],["временном",-11.31816382384918],["горизонтал",-11.318574030954807],["частично",-11.320255451629537],["холл",-11.320827961906623],["отработа",-11.32119489837823],["изготавливаемы",-11.321569272830978],["действ",-11.321884658716534],["применяем",-11.322342560596091],["аклеивают",-11.322814221622385],["профильны",-11.32294687619448],["разделения",-11.323041883174822],["колодц",-11.323766082909875],["градостроительны",-11.324395146695988],["2891",-11.32452629876573],["количественны",-11.32523438538104],["ограничитель",-11.325361772447813],["211",-11.32611628920559],["освоени",-11.326137972879295],["вводно",-11.326677902510546],["108",-11.326748077878076],["открывающи",-11.326787359367938],["качественны",-11.327369176121316],["антикоррозионны",-11.327685268878925],["длительность",-11.328452845757159],["заготовк",-11.32847686691613],["туннеля",-11.328599903966635],["электроотоплени",-11.328943368228344],["зу",-11.32913549810603],["солнечно",-11.329390578879401],["системно",-11.329473463007112],["габарито",-11.329703240193837],["5132",-11.330012650917324],["пор",-11.330247092496023],["пропуск",-11.330292115149666],["грунтов",-11.330621649066034],["броск",-11.33115495613032],["колон",-11.331912211866126],["алюминиевы",-11.33203578300915],["бронированны",-11.332141263183464],["различн",-11.332174862848078],["высоким",-11.332996102286263],["магнитны",-11.33337766031177],["двойны",-11.333380860312843],["свободны",-11.334183729588252],["баллон",-11.334219953022295],["дг",-11.334698082741571],["строения",-11.33486099906516],["клетка",-11.335520384716796],["резьбовым",-11.33580259635864],["разрешен",-11.336581169001665],["приемны",-11.337476296526162],["555",-11.338329050536592],["отображение",-11.3395929683417],["горелка",-11.340170935093798],["стойко",-11.341623870332985],["влажност",-11.34166943820681],["проходящи",-11.34298345152738],["звуков",-11.343278664690587],["варианто",-11.343281856860388],["net",-11.343308493969484],["закрепленны",-11.34352047030296],["поршневы",-11.343947410074406],["брон",-11.344097449170464],["рама",-11.344539701299723],["щих",-11.34474241789706],["размещаемы",-11.345867879037],["штуцерам",-11.345883763307349],["показани",-11.346091608731063],["гальваническо",-11.347186417700563],["вложен",-11.348760604916766],["оженн",-11.350085770633777],["зде",-11.35090077451448],["плотно",-11.351190044350082],["модификационн",-11.351555248215908],["импортно",-11.351797679248271],["дале",-11.352295008170938],["волоконн",-11.352400558810647],["заземляющ",-11.353041285984865],["очер",-11.353121305039657],["заглушен",-11.353794435415857],["at",-11.354824884062614],["греющ",-11.355413106102056],["колес",-11.355568717592067],["подключаем",-11.355750573669148],["приняти",-11.3562522403681],["случай",-11.356359887890143],["поршнево",-11.357706154604362],[":*",-11.358232507103864],["ствола",-11.358394334247828],["котельн",-11.35842481284591],["модуль",-11.358726093537808],["опросны",-11.358859924114522],["ров",-11.359523781970543],["независимым",-11.360573992600026],["кольцам",-11.361411637798103],["взрывоопасным",-11.36155557166569],["216",-11.3617869953215],["блокировка",-11.361833565376596],["дальнейш",-11.362463071116537],["последне",-11.362759176964591],["начально",-11.362994657799007],["образны",-11.363542853507894],["колодце",-11.36405249235443],["оп",-11.364219835382253],["потребляем",-11.364478911790396],["аналоговы",-11.364722794568738],["011",-11.364830450128238],["пресн",-11.366686034172012],["ходящего",-11.366831161059523],["различ",-11.367548501453435],["собственно",-11.368310893964429],["батарея",-11.368433838318772],["наибольши",-11.368483802858377],["световы",-11.368970803328555],["артезиански",-11.369241868332404],["предназначенным",-11.369991211104642],["слесарны",-11.371041010067866],["визуальн",-11.371451150573442],["пром",-11.372040770562794],["измерительно",-11.373437486821597],["смесител",-11.37347749617235],["клеммным",-11.373708323847822],["перекрытиям",-11.374509497695872],["протяжен",-11.375508205561017],["декоративн",-11.377495830427996],["склада",-11.377650001722955],["рационально",-11.378388559588453],["опо",-11.37849325157719],["кадми",-11.37874420551435],["цветны",-11.379519316033797],["утеплен",-11.38157186419561],["140",-11.383460177230896],["останов",-11.383876728617274],["вращающие",-11.383987977144605],["распределение",-11.385686481256547],["12000",-11.385824711066883],["положительно",-11.385896773707408],["разво",-11.386569059042046],["брони",-11.386879909942447],["горючим",-11.387070588741587],["подземно",-11.388913123281613],["компенсаторо",-11.390090072359348],["резервуара",-11.39102300050182],["энергетическ",-11.391891105367193],["516",-11.392010457388261],["высше",-11.393131993149193],["динамическ",-11.393618140454077],["модул",-11.395481569857392],["муфтам",-11.395716638262314],["управляемы",-11.39612658783672],["трудово",-11.396827258142867],["планов",-11.397653735384093],["142",-11.398453857419126],["действующ",-11.399459783250435],["246",-11.399513306419482],["867",-11.399693121239387],["приём",-11.401759309834114],["недопустимы",-11.403469333515096],["многогранны",-11.403521378184664],["упаковочн",-11.403785923302866],["предостав",-11.40436442914109],["контейнеро",-11.404857414219812],["ва",-11.405761003635051],["резино",-11.407565842190905],["клето",-11.407848841873315],["467",-11.408037620056842],["мебел",-11.408961616220315],["магистрал",-11.409288534656408],["обознач",-11.409397681103538],["ходов",-11.410036801738766],["вой",-11.410940475835334],["блокиров",-11.41164733581328],["um",-11.412539110998896],["зажима",-11.413425721247886],["морозо",-11.413711078772529],["control",-11.413752133345842],["транзитны",-11.413752146707683],["предыдуще",-11.413752169999798],["коммунально",-11.413752172362239],["блуждающи",-11.413752236377931],["минпромторг",-11.41375238300404],["законсервирова",-11.413752506903666],["предшеств",-11.413752801281463],["адгези",-11.413755384448985],["вестибюл",-11.413757621885974],["фиксатор",-11.413764530905793],["зрывонепроницаем",-11.413796839943435],["авиационны",-11.413799988088622],["процент",-11.413816679952237],["архивировани",-11.413816842433672],["теплофизически",-11.413863167549021],["перемещать",-11.413887678656877],["трансформа",-11.41391266635748],["рулонны",-11.413944705995767],["предмет",-11.413990951738489],["разграничени",-11.414105997069612],["монтируем",-11.414108354172377],["стеклопакетами",-11.414164912774801],["производят",-11.41417196356416],["сопровождени",-11.414193355499403],["подключать",-11.414390931857925],["ремонтно",-11.414468291978947],["водоподготовк",-11.41456288076596],["подвергают",-11.414825778418528],["остановк",-11.414860707800845],["твердо",-11.415036108900084],["uн",-11.415113523388841],["замо",-11.415421055678419],["букв",-11.41581782563752],["подушк",-11.416316103043318],["вс",-11.416364042198197],["шкал",-11.416400752907741],["централизованн",-11.416745331798268],["деление",-11.416777013945556],["хрупко",-11.417069099765962],["ремонтопригодным",-11.417691665222138],["специфик",-11.417859721098118],["выгрузк",-11.417929864092539],["массово",-11.418076419725628],["подрядчик",-11.418102741565741],["генеральны",-11.418229690089856],["цен",-11.418364932104412],["допускать",-11.418451881798841],["половин",-11.418668191009882],["почв",-11.419142723070685],["тверждают",-11.419221912636877],["забивк",-11.419275156079355],["поверен",-11.419426417678853],["вытяжно",-11.419446079150376],["помина",-11.41970814696229],["детализаци",-11.420290459853891],["косвенны",-11.420717445691583],["больш",-11.42101150442237],["выявленны",-11.421094369639977],["протектор",-11.421693911851673],["включают",-11.42212392291838],["защищенным",-11.42225829171623],["светлы",-11.422729544650373],["дискретны",-11.42295745014809],["293",-11.42310166796347],["авг",-11.4232247762467],["реализован",-11.423340160131996],["слое",-11.423625381159322],["вахтово",-11.424282119836526],["бель",-11.424646762578693],["герметизированны",-11.424720170964855],["дозировани",-11.425261062285156],["ионном",-11.42598584013501],["загрузк",-11.42618367335881],["ерогенны",-11.426448418974726],["рами",-11.426540441913337],["сбрасывание",-11.426968279784504],["указателя",-11.427272161065863],["заявленн",-11.42737851427021],["допускаемо",-11.427878608881356],["счита",-11.428184816795799],["той",-11.428663012331224],["335",-11.428707321489162],["3423",-11.428779737526902],["нагрев",-11.429513879511195],["региона",-11.430286914275754],["пластикат",-11.430936034392552],["токопроводящ",-11.431755662252808],["ящего",-11.43343687894376],["операторн",-11.433444106860971],["залив",-11.433533075046611],["поверх",-11.433951033670072],["230",-11.434027742003131],["расцепителям",-11.434107456546146],["пользователе",-11.434666735662505],["соу",-11.43499097619487],["пыле",-11.435453801021545],["проходяще",-11.43564812766354],["прямы",-11.435764845873653],["таре",-11.436757351867826],["предельн",-11.437707462619493],["наименьши",-11.43792565852192],["шлейфа",-11.438692637518681],["выкидны",-11.43988895673264],["очны",-11.440102296771453],["понижени",-11.440646847675756],["шедши",-11.440695154330271],["объемны",-11.44163655585799],["электр",-11.441865222773071],["составляющи",-11.441950027150167],["водонепроницаемо",-11.442179608160732],["обуслови",-11.44233975084249],["прогон",-11.442442921223053],["выступа",-11.44271620337954],["передне",-11.442909681332683],["фонд",-11.44339330696057],["винта",-11.443530043558992],["роз",-11.443607382258982],["передвижны",-11.443807622121199],["ударам",-11.443991714195183],["операция",-11.444110088710858],["допускающим",-11.444794353631611],["огнестойки",-11.44498552834156],["трактор",-11.445302957641161],["228",-11.445511763149927],["длительност",-11.447159280742081],["двойно",-11.448221639365958],["подпорны",-11.44889034618611],["дизельны",-11.449077419439133],["замкнут",-11.449619033816502],["235",-11.449678982971271],["магнито",-11.450183093338543],["подшипникам",-11.451615569457234],["1469",-11.45174393247516],["стояк",-11.45191165075899],["ан",-11.452019937369975],["плитам",-11.454569907076095],["нично",-11.45472629176751],["вторично",-11.45509360754205],["закладным",-11.455248482761178],["пробны",-11.456636254856164],["проложен",-11.456894377329435],["глушен",-11.4572660549056],["плитк",-11.457406296736107],["непрерывн",-11.457921215235455],["железобетон",-11.458115106900788],["дифференциально",-11.458130109544694],["решетка",-11.458826862022542],["одинаково",-11.458930818068914],["ключе",-11.459122914110988],["лесо",-11.459303350762944],["доступно",-11.459621542315514],["разделк",-11.45980625550689],["нулев",-11.460813471514161],["контролируемы",-11.461456651201479],["ливневы",-11.462003018838741],["внутр",-11.462665988030341],["304",-11.462728820518056],["подключенн",-11.463485801913132],["прочи",-11.463560619607113],["третье",-11.464536311949942],["873",-11.465543516615556],["агрессивно",-11.465652555482357],["герметик",-11.465665051105823],["подход",-11.465751546171917],["стандартам",-11.465891275105571],["российск",-11.467916212203384],["990",-11.468474034792706],["43",-11.468658267076885],["увеличения",-11.469099482831544],["технологическом",-11.469221460602887],["носит",-11.470187885538607],["нижн",-11.47067677940333],["формировать",-11.471050433009387],["свободн",-11.471446315977953],["очно",-11.471832348795996],["026",-11.473479771642102],["края",-11.473774901072762],["рубашк",-11.474992771638211],["различно",-11.475333846773825],["эстакада",-11.476343848433384],["сэ",-11.476818947653701],["логическ",-11.477131420013068],["527",-11.4782401182866],["or",-11.478440458759522],["ри",-11.478665124059379],["281",-11.479485950248845],["нормальн",-11.480022609660864],["упруги",-11.480441020296151],["поток",-11.481061663851682],["спт",-11.481885056309341],["небольши",-11.483057718127093],["пространство",-11.48316850412003],["оперативны",-11.483584426710753],["токопроводящи",-11.484125682786063],["выделения",-11.484308008283977],["050",-11.485239553288576],["жизне",-11.485284393794258],["воздейств",-11.485721643280622],["трансформаторн",-11.486142872351579],["зонам",-11.48642433929143],["единица",-11.48649957908951],["нс",-11.486695882051752],["котельны",-11.48780117550121],["массов",-11.48810150677097],["интервал",-11.488750548104544],["ас",-11.48877506231132],["герметизирующи",-11.488938718798257],["подлеж",-11.489845813483686],["неагрессивн",-11.489942728548359],["ситуация",-11.490243408694138],["электрохимическ",-11.490333335555707],["коллекторо",-11.491989111685108],["обогрев",-11.492833231032206],["покрыты",-11.49301865537535],["кругл",-11.493097785678245],["защитном",-11.49315141361581],["перечн",-11.49371895700221],["ком",-11.493753993472364],["выраженно",-11.49433069168392],["сетевы",-11.495796002654231],["указанном",-11.497023291014667],["адрес",-11.497543981051454],["()",-11.498350076366805],["1993",-11.49879086842844],["принципам",-11.499254073109816],["малы",-11.501247626073756],["доступност",-11.501808165723316],["резиново",-11.502108003351024],["резин",-11.502111758460714],["огнезащит",-11.502981691699258],["индивидуально",-11.50301615100601],["подсистем",-11.503903464662798],["желт",-11.504774180118115],["первичн",-11.50533843920481],["сумм",-11.50664603720952],["зависимо",-11.506680503607651],["расцепителя",-11.507347931393788],["др",-11.509210009998302],["интегрир",-11.509330091374231],["535",-11.509950442208885],["одна",-11.510138392421386],["моста",-11.510868833501522],["560",-11.510935019207793],["останова",-11.51129475347792],["285",-11.512349706818423],["водяно",-11.512628866219078],["чер",-11.5126397110377],["025",-11.512693795704074],["взрывобезопасно",-11.512742305162195],["приемочны",-11.512938990600647],["tu",-11.51442066827839],["она",-11.51738210488179],["пролож",-11.518038096562043],["тп",-11.518907537094949],["жестко",-11.518973810581334],["съемны",-11.519710504470515],["подключен",-11.520391531736498],["окон",-11.52096216107038],["электросварн",-11.521878847172292],["промышленность",-11.5219201454012],["кладывать",-11.522210932855264],["обслуживаемо",-11.523087363893652],["государств",-11.523114161647444],["ерез",-11.523565667277678],["сметны",-11.52413988586553],["технологично",-11.524463074205773],["циркуляци",-11.524663538221976],["º",-11.524863244459254],["конфигурировани",-11.524863244459263],["вытеснител",-11.524863247057645],["мотопомп",-11.524863315564053],["ущерб",-11.524863453315904],["индикаци",-11.52486382212473],["многолетнемерзлы",-11.52486471607629],["трехобмоточн",-11.524865756998272],["карбид",-11.524870034384355],["многократно",-11.524871074265732],["увлажнител",-11.524871705170392],["чердак",-11.524897659343969],["квартир",-11.524929899797339],["exdii",-11.52501942407511],["усталост",-11.525034461607989],["прогиб",-11.525131313152702],["токсичност",-11.525202237297684],["исключает",-11.525309977612084],["металлопрокат",-11.525383755970463],["образует",-11.52544037914364],["установкам",-11.5254735971978],["набивк",-11.52553346293254],["крут",-11.52556228639438],["проветривани",-11.525692010309326],["энергопотреблени",-11.525706000690267],["изменять",-11.525786113519292],["неотъем",-11.525786692709271],["охлаждающ",-11.525938886402722],["заградительны",-11.525940046344678],["регенер",-11.526039796402033],["пожаровзрыво",-11.526233518409724],["теплоустойчив",-11.526299218993966],["этапа",-11.526317592305078],["чисто",-11.526335140589028],["исключающе",-11.526387876213978],["самонесущи",-11.526435436231806],["микро",-11.526717496934191],["токсичны",-11.526943397759933],["сплошным",-11.526964547299738],["присоединяют",-11.526979551883484],["ошибк",-11.52700644687216],["регламентированн",-11.528054609884526],["нагреты",-11.528332912705071],["очередям",-11.528341978088452],["отраслевы",-11.528402852115892],["ошибо",-11.528698767178854],["электрогенератор",-11.528842857264467],["электросетев",-11.529350022871572],["одинарным",-11.529637250964438],["метан",-11.529720026403576],["изне",-11.529987386533913],["проводк",-11.530411800678861],["главн",-11.53059073519564],["лопато",-11.530656293379597],["эластичны",-11.530900945233416],["сборочным",-11.530970785337214],["небронированны",-11.53099797958772],["буферн",-11.531039426716747],["слой",-11.531372330130768],["трансформаторны",-11.532076686183082],["контроллеро",-11.532513452552767],["тягов",-11.533419001381699],["указывают",-11.53432937371699],["190",-11.534508497917983],["расположенно",-11.534516687646901],["ультразвуковы",-11.53524375438313],["оттяж",-11.535421587782448],["размещенн",-11.53542558094452],["заправк",-11.53670539522345],["соблюда",-11.536717072248166],["огневы",-11.53686368036282],["2040",-11.536991359721863],["сбрасываемы",-11.537204288293236],["протекающи",-11.537339933369399],["участ",-11.537538427304344],["заделан",-11.538005225261553],["эстетически",-11.538036772686647],["удовлетворяющ",-11.53810934634576],["332",-11.538222148078251],["экранировани",-11.538562625283806],["исключающ",-11.538660506923698],["консоли",-11.53945698404664],["поворота",-11.53990689830307],["замкнуто",-11.54006008556059],["ающие",-11.540247541736642],["изменяе",-11.540459909029169],["уплотня",-11.540797045988562],["белы",-11.5411226080675],["регулируемым",-11.54134720714383],["выполненно",-11.541691579364063],["вращающи",-11.54216187819006],["рекомендация",-11.542488602642633],["представлени",-11.542944602633842],["трассам",-11.54333218132923],["равления",-11.543697506520257],["елки",-11.543868819526692],["прилагаемом",-11.5443866378733],["элегазовы",-11.54455492716981],["складск",-11.544652574637436],["планировка",-11.54487348588144],["направленн",-11.545146518043989],["смонтирован",-11.546102431202447],["зелено",-11.546550036716038],["левым",-11.546958696852817],["поворотны",-11.54746036883026],["согласован",-11.548220127001697],["пороговы",-11.548380848577079],["вызывающи",-11.548385160984719],["мар",-11.549485491048538],["стойкам",-11.550080372451298],["диафрагменны",-11.55057154841982],["вспомогательн",-11.550608830051996],["втотрансформатор",-11.550943999854347],["сумма",-11.552500523886808],["нимаемы",-11.552847533800588],["трубопроводо",-11.552938162211504],["водят",-11.553252240428037],["разным",-11.553606367550932],["грозозащитны",-11.55437386105955],["марше",-11.554575857086206],["заправочны",-11.55631286163393],["недопустим",-11.557113976326512],["выступающи",-11.557144997149416],["технологичност",-11.557667037344629],["профильно",-11.55817695935476],["оребренны",-11.558315227347151],["принудительно",-11.558557596028855],["допустимом",-11.55936583857461],["опасным",-11.559693545049358],["матиз",-11.560704777681623],["направлен",-11.561029884561313],["коммерческ",-11.561247983362806],["лакокрасочно",-11.561249186125888],["полупогружны",-11.561718691923014],["герметизирующ",-11.562125166176246],["мало",-11.562843382820942],["194",-11.563464301958465],["парка",-11.563781733360369],["стойка",-11.563853974677578],["противоположны",-11.563973934179394],["бочк",-11.564074466716384],["односторонни",-11.564504233335152],["фазны",-11.564836320160216],["изолирующи",-11.565187625432369],["электрохимическо",-11.565810912176737],["аналог",-11.567298884400303],["приварно",-11.567882125348662],["248",-11.568129042622708],["городски",-11.568801811529863],["подтверждение",-11.568931004057909],["ча",-11.569075859479254],["знако",-11.569201541966383],["удельно",-11.570431600192912],["положительны",-11.570570832955227],["стать",-11.571458184112949],["организационны",-11.571485876602218],["льно",-11.571660727190025],["обратн",-11.571740985545585],["запуска",-11.572216434215699],["изготовленным",-11.572959961032971],["навес",-11.573317704804348],["203",-11.573539711299844],["наруша",-11.574754485513349],["ограждающим",-11.578762260487538],["полям",-11.578807841806402],["одножильно",-11.579148832844258],["однотипны",-11.580089893924633],["наблюдени",-11.580601245756622],["вата",-11.581589111108975],["пяти",-11.582975616256753],["обменно",-11.58363708139912],["обруча",-11.584360824490195],["панелям",-11.584918791481938],["агрессивност",-11.58539633166448],["сторона",-11.585639400203556],["нефть",-11.586042852226804],["зажимо",-11.586798578136493],["анализа",-11.586992999018284],["взрывоопасн",-11.587715356331575],["заполнит",-11.58844622289169],["выходным",-11.58909790305363],["клея",-11.589716862197136],["естественны",-11.590113828653969],["системны",-11.590372979850244],["разрабатываю",-11.590783633609995],["большим",-11.590930560437991],["низки",-11.591189645178156],["модел",-11.59207618012327],["свободном",-11.592987516922339],["эксплуатационно",-11.593558196005715],["накопительн",-11.594335649398927],["завар",-11.594889624515641],["предоставляю",-11.595044614124514],["дополнительном",-11.59515105787889],["ников",-11.595883620270133],["бурени",-11.596060647907741],["образ",-11.596141971240119],["0704",-11.596722221574932],["атмосферно",-11.597879280984161],["открытие",-11.598570785180588],["упор",-11.59861504431147],["ней",-11.598934464690856],["автономны",-11.599567398746352],["первы",-11.599928911627709],["авари",-11.600354316490371],["жидк",-11.600679132129024],["влияни",-11.60148964589126],["кустовы",-11.60155461603086],["пломбир",-11.60200473978816],["запис",-11.602432760826874],["заземляюще",-11.603197629305793],["каналам",-11.603515397560829],["база",-11.604841763358912],["гальваническ",-11.604886918960414],["жё",-11.605595095195646],["преград",-11.60560144971761],["структура",-11.605902885513922],["признан",-11.606255100368097],["тех",-11.606508947753113],["термическ",-11.607025193856622],["эвакуационным",-11.60726149245527],["счет",-11.607748697031326],["стандартно",-11.607925297549686],["контролируемо",-11.608195762400495],["тел",-11.60837798173623],["магистрально",-11.60844217418192],["закреплени",-11.60845288161687],["паспорто",-11.60953516431063],["барабан",-11.609755673174073],["влажностн",-11.609946312232442],["двигател",-11.61094344728896],["рекомендуем",-11.611254813682514],["проходо",-11.611466402690018],["разъемо",-11.612302446478207],["размещаем",-11.612427045479226],["завершени",-11.61244006869872],["газом",-11.614217181587051],["одножильн",-11.615136487022744],["трав",-11.615141000160772],["броне",-11.615557687507945],["горячи",-11.616460548660333],["пучко",-11.61656785860853],["горюче",-11.617831129961584],["стандартным",-11.618050599174335],["щи",-11.61851691009811],["провес",-11.621880372798076],["пожарным",-11.622158432038265],["осуществлен",-11.622469015813298],["продолжительност",-11.62381681348976],["опорн",-11.624779370270758],["взаимно",-11.624820442760559],["облицовк",-11.62499297337559],["актив",-11.625096810718212],["направленны",-11.626197614511891],["предъявляемы",-11.627147052556356],["солнечн",-11.628387803620196],["шеф",-11.628829979454355],["котл",-11.628860477897836],["подаваемо",-11.628991718486006],["примен",-11.629668689758839],["секция",-11.630776830172417],["ion",-11.63109616861242],["низу",-11.631545190541733],["бру",-11.63200495462528],["диска",-11.632366092070894],["алюминиево",-11.63353247373698],["сетка",-11.633556286115727],["трет",-11.633704127716907],["предохранительно",-11.6338411961545],["ору",-11.635188177909876],["стенов",-11.635426471501495],["решет",-11.635724590919015],["пусковы",-11.636521254165377],["5599",-11.636545535546485],["позволяюще",-11.636813147408876],["прибора",-11.637201175031223],["теле",-11.637398956055856],["604",-11.637621076412671],["обязательн",-11.637775384446288],["достаточн",-11.637782203691595],["454",-11.638674733666676],["чтен",-11.639563132258768],["ктом",-11.639629165381914],["пластинчаты",-11.640241205227017],["настил",-11.640360356918936],["уда",-11.640726513902553],["клеивать",-11.641125775246925],["шинам",-11.64123763439089],["направленно",-11.64242815175445],["турбина",-11.642533389114336],["отчет",-11.642824311722615],["глухи",-11.642849527706119],["тк",-11.643059294730476],["дымово",-11.643067189547093],["563",-11.643903796677069],["серы",-11.645200882237972],["модельн",-11.64539324362229],["q",-11.649779616551502],["триэтиленгликол",-11.64986324448415],["консистентн",-11.649863249181866],["гардероб",-11.649863375950689],["упорядоченно",-11.649863551444515],["покрывают",-11.64986362136445],["оптимизаци",-11.64986421317609],["прямошовн",-11.649864232512606],["однорядным",-11.649873138120467],["транспозици",-11.649873506933387],["хорош",-11.649873854687073],["огнеупорны",-11.649876370477914],["венткамер",-11.649886622025534],["минимизаци",-11.649889432614604],["зрительны",-11.649903229027672],["проушин",-11.649914161229805],["искрообразовани",-11.649922406178932],["автопогрузчик",-11.649922422798841],["смазочн",-11.649928306364464],["ультрафиолетово",-11.649932789108583],["тройник",-11.64994944993734],["одноцепны",-11.649952976894287],["менеджер",-11.649984412484466],["воздухообмен",-11.650027240392541],["ty",-11.650103494687862],["относит",-11.650110220471735],["отпайк",-11.650174381927435],["композици",-11.650240572889098],["продлени",-11.650337418423721],["кратер",-11.650456426698664],["фасонны",-11.65064059353894],["ведомственно",-11.650686763161382],["покупны",-11.65073835684176],["трамбование",-11.650739415817537],["приготовлен",-11.651150377657455],["273",-11.651617679335807],["разрабатывает",-11.651780042951287],["протоколо",-11.65189051111918],["мотор",-11.651929263103627],["катодн",-11.651940835152908],["целым",-11.652101008816878],["клеймени",-11.652188994111308],["моноблок",-11.652593539960645],["мобильны",-11.652722144047491],["спец",-11.652856526659345],["возведен",-11.652909693081153],["идентифицирован",-11.653113200255527],["шарикоподшипник",-11.653419855754953],["грузоподъемность",-11.653800818488133],["консервационн",-11.653856210369344],["прожог",-11.654002585543441],["сифон",-11.654065960140489],["питаем",-11.654082009393772],["налед",-11.654144451204179],["подрез",-11.654258932446737],["табл",-11.65453064803115],["пг",-11.654731499281699],["комплектуют",-11.655255793131344],["соотношени",-11.655452588417774],["вечно",-11.655609640610816],["имеющего",-11.655696701404155],["включающи",-11.655815923482844],["допустимым",-11.655951147052447],["вторичн",-11.656195079435967],["диэлектрическим",-11.656922014109378],["поправо",-11.65713560077531],["симметричным",-11.657205959442683],["458",-11.657282867195825],["дежурн",-11.657885578665349],["трансмиссионны",-11.6579045635619],["неподвижны",-11.658109995066852],["укладывать",-11.658152793561756],["ин",-11.658172299253199],["пользователя",-11.658381611066968],["неиспользуемы",-11.6583935771914],["модульны",-11.658446741588296],["грунтовы",-11.658557379488165],["283",-11.658790483516263],["ригеля",-11.659133050130048],["512",-11.659743314060648],["имеюще",-11.659967045700201],["подряд",-11.660176556217],["очистны",-11.6602728794365],["коммерческо",-11.660282328236395],["пучка",-11.660336098887285],["ход",-11.660429675064012],["функциям",-11.66081636243387],["пластовы",-11.660850834674644],["лицев",-11.662222180536144],["кратность",-11.662475021139166],["преобразователе",-11.662953728688073],["флюс",-11.663348227828227],["легированны",-11.66410588944475],["ослаблени",-11.664169842282206],["стропов",-11.664176272105255],["эксплуатируемы",-11.665408466027737],["2757",-11.665692454673774],["пыль",-11.66614733521269],["тяжение",-11.66624532837838],["реализующ",-11.66629125062998],["общественн",-11.666430862773396],["разност",-11.66648709379406],["точность",-11.667243814446984],["производител",-11.667977692301331],["ответным",-11.668076746786237],["атывающе",-11.668664855806917],["st",-11.66930821004445],["газообразно",-11.669308498484117],["горюч",-11.669680827790806],["сопровожда",-11.669947418362586],["высоковольтны",-11.670368840124736],["ро",-11.671637923040574],["полосам",-11.672211669422104],["содержаще",-11.67226381171392],["144",-11.672579562070764],["таяни",-11.673237922428429],["ировать",-11.673571796344364],["вш",-11.673703651902592],["возвратно",-11.674486706310523],["располагаем",-11.675044248100333],["линейк",-11.67757805235304],["предоставляемо",-11.677894812012385],["забивно",-11.67790432456011],["рассмотрен",-11.678862378870722],["замкнутом",-11.679033047216462],["структурн",-11.679117469330793],["штатны",-11.679196510519178],["кладывает",-11.67981306279312],["пневматически",-11.679976966190683],["лож",-11.68059169332988],["конденсатор",-11.680961651589277],["кавитационн",-11.681760780222161],["прочно",-11.681825836763919],["отключающ",-11.681830532867295],["питающи",-11.682055321443721],["представленны",-11.68217738440166],["неразрушающи",-11.682643763804458],["завес",-11.68306829515149],["сжатие",-11.683175418719252],["проезд",-11.683803114099485],["добор",-11.684865885269932],["ответвлени",-11.684928841165265],["недр",-11.685672424096149],["паро",-11.685962887436133],["носителе",-11.686811908975741],["151",-11.687015673388915],["прост",-11.687489998488378],["песчано",-11.687658776447533],["завершен",-11.688817382890976],["раздельно",-11.689367331152976],["релейны",-11.69008144853668],["топливно",-11.690694423497838],["предварительн",-11.690755868552316],["пожаро",-11.691037106414411],["программным",-11.691210179913423],["автозаправочн",-11.691371577459034],["черны",-11.69148565694684],["неоргани",-11.692146864196047],["инвестиционн",-11.692756921747282],["сухи",-11.693080765816967],["изол",-11.694132439449833],["силиконовы",-11.694538818010006],["141",-11.695070091235957],["диспетчерск",-11.695202892108576],["справ",-11.69543068716312],["аккредитован",-11.695641213837558],["кг",-11.696624941400453],["горизонтальном",-11.696867740004219],["розеточн",-11.697880590079924],["энергорайона",-11.6986527555642],["рассматриваем",-11.699538287453144],["главны",-11.699712970599982],["кустово",-11.700117376837706],["свой",-11.700852049763261],["стопорны",-11.701022644321645],["614",-11.701800388493691],["риск",-11.702964347445317],["требование",-11.703071974782386],["исключающим",-11.703724730133098],["посторонни",-11.704055585253752],["свищ",-11.705150456483446],["столовы",-11.706110586222742],["веренн",-11.706820628776118],["эксплуатир",-11.706932409234492],["буроопускно",-11.70721678753619],["газопоршнево",-11.70722166698088],["энерг",-11.707831436510421],["проч",-11.708925035407233],["предложени",-11.709166002662565],["последни",-11.709291960227224],["ста",-11.709463118701601],["различи",-11.712017434588669],["грузом",-11.712134306977104],["))",-11.712179104960448],["рода",-11.712412629802548],["крепежным",-11.712556367179575],["плунжер",-11.712610768565263],["лако",-11.71268197069901],["рассчитанны",-11.713036749641452],["способа",-11.713155210953667],["вахт",-11.71324416969475],["532",-11.714121714970934],["входным",-11.714455170594901],["режимо",-11.714491948911068],["образно",-11.71531426224105],["графико",-11.71555060263333],["активность",-11.715555631823415],["магнитно",-11.716934504696098],["dat",-11.717687322593246],["бирк",-11.719411614417117],["покрова",-11.719572873819715],["рукава",-11.719866292307513],["183",-11.72022290505054],["щитов",-11.721232747636916],["точн",-11.72123715526942],["органам",-11.721337186625597],["волн",-11.721906148571655],["сметно",-11.7219763683126],["крыльц",-11.722464697353171],["симметрично",-11.722529121346689],["ись",-11.722640326387106],["электромагнитны",-11.725286974164991],["вне",-11.725461623445762],["реагирующи",-11.726071140609099],["испытательн",-11.726421908070087],["ирован",-11.727272462997849],["шу",-11.727365356970902],["280",-11.727685870900228],["приме",-11.727737866516321],["метк",-11.727952434055796],["проходны",-11.728209546552613],["плоско",-11.72857796812909],["раму",-11.728579597918031],["пред",-11.730139818525668],["строп",-11.733293672949552],["стко",-11.733519036528687],["вспомогательным",-11.735388845781662],["сжиженн",-11.73563364502596],["операционны",-11.73583891687097],["перегородка",-11.735870063609545],["модельно",-11.73591664844807],["проводникам",-11.736604097813068],["общества",-11.736774037470614],["метка",-11.736800908265781],["быстро",-11.737312203303402],["компактн",-11.738320464695153],["диапазона",-11.738467578419398],["ящика",-11.739539209179625],["тремя",-11.739556376266554],["агрессивн",-11.740025577294322],["доля",-11.741258066874966],["дина",-11.742506043118365],["лицево",-11.742819068771592],["кон",-11.744462092831295],["ir",-11.744503385409532],["606",-11.744855136156737],["сертификатам",-11.745113029444479],["энергоснабжени",-11.746755051360653],["принудительн",-11.750340795565103],["естественн",-11.75076687830915],["ав",-11.750965585676903],["сва",-11.75124726032783],["949",-11.751300074161945],["ату",-11.75157915467484],["up",-11.751669831503907],["масляны",-11.75172648015879],["сварочным",-11.752124841643159],["контрольн",-11.752709272729396],["ждения",-11.753887262452338],["терми",-11.753974560378323],["ес",-11.754078794228716],["регулятор",-11.75445227108641],["смещения",-11.754637572172559],["группов",-11.755769294868443],["комнат",-11.756117797781236],["рек",-11.757688350232732],["жила",-11.757932228985286],["327",-11.758497590281557],["размещенны",-11.758607768307218],["фасад",-11.761508430851077],["увеличит",-11.762206318920246],["тормозн",-11.762430313284625],["поступлени",-11.762968291938197],["последстви",-11.76300609823112],["экономическ",-11.763519125714412],["срабатывающи",-11.763912337127294],["напольн",-11.765180534397029],["кам",-11.765644512834152],["верс",-11.766486309469391],["значениям",-11.76689131315095],["нарушение",-11.767913834159145],["средн",-11.768089721972702],["бз",-11.76826673655294],["легки",-11.768336250863054],["печи",-11.768489831705866],["электроосвещение",-11.769051472290448],["611",-11.76925417583661],["заготов",-11.770167060408003],["преобразователя",-11.770260745250516],["происхо",-11.770426797323749],["клеммно",-11.770802727165167],["байпас",-11.771574915491298],["потоко",-11.772022233579532],["переда",-11.77247120106008],["присоединенны",-11.77341198429068],["коротки",-11.773513113970981],["322",-11.773726827719962],["параметра",-11.773799688119857],["дверны",-11.775416686950019],["равн",-11.775633260820976],["производим",-11.776571667494968],["аккумулятор",-11.777521662265325],["котельно",-11.77755515761904],["ограждающ",-11.779153046042875],["складско",-11.779816347862567],["регулируемы",-11.779931532214661],["конкретном",-11.780307341617373],["пластика",-11.780410393616625],["tp",-11.780759262618288],["автомобильн",-11.781736283657237],["профиль",-11.78233988112155],["попада",-11.782353743861204],["гидравлическ",-11.782626745954005],["крайни",-11.783499689335242],["означ",-11.783551819126647],["существующе",-11.783576990590703],["экологическ",-11.783708245657056],["520",-11.783748520237204],["полимерн",-11.783805648495816],["строго",-11.78518546113377],["плавны",-11.786131590516147],["нагрузкам",-11.78763960415895],["упаковыва",-11.787745146173986],["такелаж",-11.788190759275016],["видны",-11.788420281544884],["выбранны",-11.788630824502844],["газоконденсатн",-11.789032023071147],["4000",-11.789701190646028],["сертификато",-11.790062118468986],["вертикал",-11.790457895440476],["низконапорн",-11.790473279886024],["иографи",-11.790596860017683],["луча",-11.79094341137502],["номинал",-11.791407754748777],["очным",-11.791456674446444],["сальник",-11.791924050036895],["отсоединени",-11.792712411735238],["перпендикулярно",-11.792720387325515],["³",-11.792720387365462],["insulat",-11.792720387518639],["штангенциркул",-11.79272038777497],["аутентификаци",-11.792720387939244],["проникновени",-11.792720419487424],["прерывани",-11.792720443823061],["москитны",-11.792721047531712],["ископаем",-11.792721335586752],["асбестосодержащи",-11.79272154427997],["мультифазн",-11.792727314241736],["cable",-11.79272926623413],["соседни",-11.792729404790686],["публик",-11.792731439384367],["двухобмоточн",-11.792738658099188],["осторожно",-11.792743214270777],["прокладывают",-11.792758316031415],["истирани",-11.792759760103866],["испытываем",-11.7927796743296],["подразделяют",-11.792790739000388],["морозостойко",-11.792791397566141],["размещают",-11.792805752674282],["деформационны",-11.792827123021317],["тросостойк",-11.792851912646102],["гидроаккумулятор",-11.7928563003652],["энергосберегающ",-11.792858061795686],["гидроизоляционн",-11.792860480756469],["рт",-11.79288425815871],["опробовани",-11.792970970563704],["кондиционер",-11.792985839447226],["ускоряе",-11.79299570648038],["контракт",-11.792998631939351],["жаропрочны",-11.793009111836444],["специалист",-11.793065429371518],["эмульси",-11.793132249095065],["двухкамерн",-11.793173380489876],["безотказно",-11.79321118057413],["перепад",-11.79321181322005],["подтверждающи",-11.793221132966693],["облицовочн",-11.793228133094024],["конденсаци",-11.793287955011166],["гидростатическ",-11.793294997631822],["метанол",-11.79335910938153],["отделять",-11.793381034135159],["передаваем",-11.793472552600521],["умывальник",-11.793577099593632],["водоотвод",-11.793643381362235],["заключать",-11.793682661609607],["оснащать",-11.793687525002433],["контролировать",-11.79386484743446],["лопаст",-11.793885490865437],["свариваемы",-11.79388836698993],["произведен",-11.793906181932025],["фонар",-11.793997814603038],["отгрузочн",-11.794029146263947],["поврежденно",-11.794539449119792],["нарушенны",-11.794743902617657],["рукоятк",-11.794778269113179],["учитывает",-11.794907760092165],["скорректирован",-11.794915455234761],["отключать",-11.795188538218309],["находил",-11.795213760676257],[":**",-11.795349612894753],["прикрепля",-11.79550774081504],["милли",-11.795692470654629],["уплотняющи",-11.795761403398874],["установившем",-11.795952914394984],["растяжени",-11.796100690849867],["погрузчик",-11.796151138004756],["проверять",-11.796209008698792],["заземлител",-11.796509696074725],["многоэлементны",-11.796709455531436],["разводк",-11.796980178305315],["современны",-11.797357336597608],["немагнитн",-11.797643652909201],["кремни",-11.798022327183372],["перегрев",-11.798304520290168],["проведенном",-11.79870950180711],["поддон",-11.79871257921799],["замково",-11.79878526895947],["ухудшени",-11.799074938434936],["водогрейны",-11.799235602497975],["минстро",-11.799502180249691],["cu",-11.799795791416253],["уравновешенност",-11.800398569561105],["фильтраци",-11.800418015665358],["опускани",-11.800470925559363],["устьево",-11.801546004096174],["проплавление",-11.801576608360104],["дальне",-11.801888926847836],["торф",-11.802109448297719],["уточн",-11.802171784044157],["водорода",-11.803123603570487],["преградам",-11.803599533032965],["получаемы",-11.804141355947479],["калибровк",-11.804566076318283],["кнопо",-11.805456419154],["дом",-11.805616372044295],["организован",-11.805713825467844],["5572",-11.805723271570278],["газотурбинно",-11.805961490573406],["град",-11.806032389126807],["даёт",-11.806287813934151],["мерзло",-11.806525213482804],["смотровы",-11.806884537530536],["ящих",-11.807475177031966],["изображени",-11.807581212372803],["рассматриваю",-11.808122617142796],["синхронны",-11.808166539843127],["пищев",-11.808732320053087],["минераловатны",-11.808736011568541],["дисковы",-11.809738596760411],["воз",-11.810162944364325],["инженерн",-11.810425816605763],["333",-11.811319488576443],["своем",-11.812201344429692],["козырько",-11.81251997363562],["жен",-11.814398355386983],["тали",-11.814470459408735],["суммарн",-11.814480572333677],["5286",-11.81461561133013],["037",-11.815161157955508],["создаваемо",-11.81525225185022],["fi",-11.815253913309524],["товарно",-11.815849333065675],["земельны",-11.816028805694032],["зданиям",-11.817868474112043],["зарядк",-11.818262752299024],["противо",-11.818603817121355],["легк",-11.818750506980615],["зимне",-11.818959298347952],["оповещателям",-11.819512932131923],["стандарта",-11.819539929054267],["центрирующ",-11.819768897031938],["топливны",-11.819788787347518],["ветровы",-11.820334820092064],["радиографически",-11.821424802538637],["пригодност",-11.82246596960432],["уплотнительн",-11.822860134955366],["рисунка",-11.823627340076847],["гидравлическо",-11.823686115509805],["заполненны",-11.823701278969509],["управляющ",-11.82376064395908],["борочн",-11.824207044506137],["2155",-11.824347098813085],["магистральн",-11.82465408333616],["высоконапорн",-11.825140926646519],["безаварийно",-11.82624117394689],["управляемым",-11.826357922665487],["заряд",-11.82659231407655],["смонтированным",-11.826852354611903],["готов",-11.826983431810643],["уже",-11.82705029623571],["поддержк",-11.827111887454091],["осн",-11.827321304750598],["габаритно",-11.827621645109843],["торцово",-11.82931088546694],["вводит",-11.82982535193164],["нецелесообразн",-11.830253906011352],["ближайши",-11.830750706798641],["2775",-11.830822389782034],["роу",-11.831683232916284],["регламенто",-11.832176714427037],["магнитн",-11.832558054856008],["цепям",-11.832615001409867],["персональны",-11.832841764736914],["es",-11.833199246867807],["ендов",-11.833602002500214],["ответвления",-11.833890601829786],["построенны",-11.833914084782784],["созда",-11.83566143791722],["ворота",-11.836381211632478],["поперечн",-11.836726201462678],["теплопровод",-11.837355540166651],["электропривода",-11.837503265522784],["торцовым",-11.839853506300575],["блокирован",-11.84123519884595],["скр",-11.841617739618444],["лаборатория",-11.841778041199163],["плюсов",-11.842208949384066],["актов",-11.842482444305718],["утверждае",-11.842590356344763],["ca",-11.845068379958189],["платформе",-11.845647818100336],["зка",-11.846487066217112],["парово",-11.8469956535886],["эстакадам",-11.847523287312324],["нижестоящ",-11.847529321032892],["of",-11.84819928199001],["сопроводительн",-11.848871163663311],["справочно",-11.850068247485357],["указателе",-11.850085579485564],["реза",-11.85185494587969],["телефонны",-11.852174484116393],["блокирующи",-11.852389796273377],["вмест",-11.852465274654941],["архив",-11.852796940730103],["измеряем",-11.854137408743371],["подготовлен",-11.8545295207568],["указа",-11.855001100109073],["ающий",-11.855232784078348],["фундаментам",-11.855293082818175],["упруг",-11.855424977133147],["трубным",-11.855827886478112],["эргономич",-11.85650461609819],["выкидно",-11.85690037521949],["подземным",-11.857697745907638],["иску",-11.858230190032126],["теплоносителе",-11.858274532948794],["прошедше",-11.858518931075272],["нагнетательно",-11.859266940322671],["начальн",-11.859545484360675],["взрывозащищенн",-11.86012092991314],["трубопроводны",-11.860229612485032],["обусловленн",-11.860778897505078],["штабелер",-11.86210464100497],["блокируе",-11.86236208457383],["отапливаемы",-11.863002706264357],["ющий",-11.863031387007036],["адают",-11.863938325936545],["карт",-11.864233026812975],["менять",-11.864383208144],["светов",-11.864605430298635],["720",-11.865526957228393],["действова",-11.866377230522573],["ьного",-11.866799703335142],["отапливаемо",-11.867544038142828],["устойчив",-11.86771442275765],["мастерски",-11.868027602211095],["соблюден",-11.868621548887301],["профилированн",-11.868694642678387],["керамическ",-11.86875196160801],["фиксировать",-11.868897772762885],["решетчат",-11.868908013572318],["концевым",-11.87015874113844],["инертн",-11.870671472157088],["шарик",-11.87070043891905],["регулируемо",-11.87092271378151],["реагирующ",-11.87096519750646],["забор",-11.871102142222544],["377",-11.871562583749135],["группам",-11.87171658495491],["взрывоопасност",-11.872116714000303],["компонента",-11.872153593125452],["стационарно",-11.872687933669013],["изолированн",-11.873455984799872],["линейно",-11.873931883313277],["остры",-11.875204718528417],["понижающе",-11.8753237173804],["0204",-11.875691936848952],["стено",-11.875778017153383],["подогревателе",-11.875914622774781],["инертны",-11.875970558952154],["решетчаты",-11.876300470039286],["распределенны",-11.87630238908481],["роме",-11.876471113525746],["получен",-11.87663741898539],["потребителя",-11.87897390723262],["цифровым",-11.879256679205346],["приям",-11.88017222807868],["1070",-11.880560454265868],["тол",-11.8819218000175],["сравнительн",-11.882033382924226],["тамбура",-11.882859495424398],["характеризующ",-11.883343971601958],["прилегающ",-11.883522792838324],["государственным",-11.884840429640432],["углеродисты",-11.885367901157947],["da",-11.885820147869747],["влаго",-11.886817397480332],["процессор",-11.888697420320003],["кровельн",-11.888939321554055],["измеря",-11.888998266535529],["поврежден",-11.889049832135674],["сер",-11.890024146984333],["обоснования",-11.890251431251086],["контактам",-11.89034460456922],["кнопк",-11.890474443811138],["подготовленн",-11.89149301783467],["служащ",-11.891584995690629],["122",-11.891835017229715],["удара",-11.892198610768123],["аппаратам",-11.89242235773977],["концев",-11.89269594811502],["тележка",-11.893711502163155],["грузо",-11.894752120153585],["передвижени",-11.896309568861863],["подогревател",-11.897058875568385],["стыковы",-11.897088655108735],["дополнен",-11.897201368545433],["el",-11.897673740717995],["ённы",-11.897949671744675],["розеточны",-11.898299407828368],["транспортном",-11.898320200819606],["кра",-11.898694743226974],["превышающи",-11.89918083466683],["ель",-11.899663808098119],["методикам",-11.899879997166849],["алюмини",-11.899887843100753],["эле",-11.900059410435563],["fo",-11.90016603063283],["крано",-11.900485303661576],["сооружение",-11.900612515429708],["отработанн",-11.900636423218511],["воздуховод",-11.901531261957663],["номенклатурны",-11.90174299823455],["дата",-11.9017665792511],["видим",-11.901978749329801],["ведение",-11.902097234618662],["отражат",-11.90282164545048],["пост",-11.902974917241234],["стадия",-11.904925603206427],["железнодорожн",-11.905277993796725],["автозаправочны",-11.905526795777668],["дизельно",-11.90610119847944],["емкостн",-11.906187895593076],["применяемым",-11.906738763730106],["139",-11.907216865457755],["заглуш",-11.908244914019239],["плоск",-11.908423131132475],["межремонтн",-11.909155109765278],["планировочно",-11.909460066612459],["коне",-11.911079345034295],["герметично",-11.911628548259573],["конус",-11.911751387307616],["нескольким",-11.911768013802883],["стена",-11.912256812658583],["эвакуационно",-11.914310267127135],["близк",-11.915354373746633],["62",-11.915396420223022],["грозозащитн",-11.915999135465892],["255",-11.916295576748604],["подпор",-11.916336765439492],["помещениям",-11.916995965386167],["держивающи",-11.917192587892556],["галере",-11.917808354889244],["комфортабельно",-11.91812059324444],["прикладно",-11.918145117951248],["co",-11.9185656161797],["им",-11.91875471601596],["счетчика",-11.919037725878209],["формирую",-11.91943099904583],["деревянн",-11.919746794194316],["иск",-11.919781965515158],["выполняемо",-11.919965847075206],["средни",-11.9202501105968],["точно",-11.920273351131303],["илам",-11.9211242733569],["мыкающими",-11.921335803247006],["задавочно",-11.921664265850538],["бронированн",-11.922502926998705],["чистк",-11.923653833002751],["крытия",-11.923712926068328],["ответ",-11.925130474964552],["буквенн",-11.925278786774356],["последующи",-11.925592172053749],["пласт",-11.926035920121404],["щего",-11.927022046812796],["теплообменник",-11.927531810874532],["переходно",-11.928012830149024],["частотны",-11.92829831714553],["извести",-11.928324042493504],["клетк",-11.928835137430235],["провер",-11.929166930154272],["пс",-11.929968036076218],["кол",-11.9300301593984],["деталя",-11.930459115134719],["попутн",-11.931430970516596],["изложен",-11.93313448441014],["селективн",-11.934270136922406],["акто",-11.934591938225342],["тепловом",-11.935539714586366],["четырех",-11.936263392277906],["сдвиг",-11.936410056434292],["надлежащи",-11.937545453695485],["коэффициенто",-11.938115935712702],["другу",-11.939235135591284],["слесарн",-11.939426748768938],["большо",-11.94018549405661],["соединительным",-11.940772458878754],["диспетчерски",-11.941025105416312],["основан",-11.941065056257218],["асинхронн",-11.941423873900442],["принято",-11.941583254769315],["построенн",-11.942198837959069],["рекоменду",-11.94236425598783],["водяны",-11.9443615537325],["напряженност",-11.944403705974837],["лопатк",-11.944839073903667],["ерерабатывающи",-11.94522478601915],["охраняем",-11.945518241896142],["данном",-11.945922916474302],["307",-11.946045387088422],["чис",-11.946220709998263],["приварива",-11.947084091730888],["несгораемы",-11.94840673798657],["ключения",-11.94895581833617],["ированием",-11.949110033294264],["классифицирую",-11.95000228217512],["точ",-11.950017840955846],["вместимост",-11.950410975312847],["защищающи",-11.950977147227956],["приложен",-11.9512319617722],["отображени",-11.951402112302997],["проду",-11.951474794143289],["искробезопасны",-11.951656983749286],["пригодно",-11.952399905547825],["планировк",-11.95362504142335],["2510",-11.95408591786232],["завися",-11.95527863801317],["пониженны",-11.95576235232241],["соединяет",-11.955788158385488],["операторо",-11.95611506376264],["энергетик",-11.956125246784602],["соединяют",-11.95617164440656],["соприкасаю",-11.956208726513678],["теплоотда",-11.95629276682901],["падающ",-11.957159510471065],["исправност",-11.958468419954785],["to",-11.95870553696121],["пластмасс",-11.958772743568703],["консоль",-11.958996004644275],["бензин",-11.959028802781843],["eth",-11.959201530712619],["онфиденциальност",-11.959387053992224],["exchange",-11.959387053997315],["§",-11.959387054032128],["!",-11.959387054032128],["voltage",-11.959387054032128],["минерализованны",-11.959387054155728],["идентифицирующ",-11.959387054243338],["сердцевин",-11.959387054669119],["культурно",-11.959387069724356],["инцидент",-11.959387079230169],["фрагмент",-11.959387085685648],["предпочтени",-11.959387138767038],["зарегистрированн",-11.959387155047422],["прилагать",-11.95938731379167],["бестраншейн",-11.959387451238785],["сульфидно",-11.959387482680537],["цельнолитым",-11.959387580140955],["бандаж",-11.959389261456796],["водогазопроводны",-11.959391067795476],["заканчива",-11.959391539309033],["фитинг",-11.959392350002851],["однокамерны",-11.959395747784324],["пандус",-11.95939845018938],["rate",-11.959405800808149],["обновлени",-11.959410498844054],["рулетк",-11.959416056088209],["многоуровнев",-11.959422258596982],["рассчитывают",-11.959439275508096],["отмечен",-11.959444354756961],["вмятин",-11.959458049707974],["материаловедческ",-11.959492956846923],["фракци",-11.959494107606812],["оборото",-11.959507455728358],["открываемы",-11.959528751190438],["прокладывает",-11.959533323543269],["дисбаланс",-11.959582831080505],["коврик",-11.959604306316567],["траверс",-11.95965790866954],["удовлетворительн",-11.959665618598695],["передавать",-11.959762631928783],["предохранять",-11.959822540924618],["заземлять",-11.959855154536902],["действительны",-11.959858603493217],["exd",-11.959870117417463],["разъединител",-11.95989321564288],["многотопливн",-11.959939583700345],["мягки",-11.960081163741906],["несоответствие",-11.96025085625833],["хладостойкост",-11.96030296284822],["токоотвод",-11.96031778732715],["подключ",-11.960373423143915],["снего",-11.960472263824945],["трубчаты",-11.960636273589085],["достига",-11.960860553245274],["угольник",-11.960861580939092],["слабо",-11.960916790712696],["нелегированны",-11.960950608717791],["профлист",-11.960990428982319],["поступательн",-11.960994099889014],["запрет",-11.961159408500112],["расплав",-11.961198817787285],["осуществляют",-11.961433385505966],["плеч",-11.961544929452181],["гармоник",-11.96156636138151],["протеч",-11.961611473945991],["отдающи",-11.961910184835258],["рычаг",-11.961911141842895],["нормируе",-11.962213026681926],["разм",-11.962280879478023],["препятствующи",-11.962287251438305],["запирающим",-11.962359236600498],["обосновыва",-11.962365562262997],["шахт",-11.962414886040968],["навесно",-11.963106901954419],["нанесенн",-11.963416913236383],["cl",-11.963705540828064],["ополиизоцианурат",-11.963819119151735],["предустановленн",-11.963982183976357],["ры",-11.964108733553001],["отсутствую",-11.964571603344268],["створк",-11.964676391668839],["отправк",-11.96485787393411],["перечисленны",-11.964958231722862],["аиморезервируемы",-11.965028278534676],["замковы",-11.965309001016665],["проводно",-11.965627042788237],["потере",-11.965841685399367],["подобны",-11.966105828846821],["уклона",-11.966268243537725],["вероятность",-11.966664716795783],["пропан",-11.966674999259862],["выводить",-11.966948592955811],["цинковы",-11.967112285993142],["дефицитно",-11.968198159331639],["ответвительны",-11.968298548285595],["неотапливаем",-11.968566551200459],["занят",-11.968824075518254],["провар",-11.969071158588722],["соединительно",-11.969361683198633],["бросо",-11.969543581847415],["защищае",-11.969808951960662],["образующи",-11.970530869393034],["охладительн",-11.9707177040598],["утепление",-11.97073062003685],["он",-11.971010704121753],["подводящи",-11.971205064128348],["сери",-11.971373143777146],["ni",-11.971430862889054],["подробно",-11.971447303623028],["цементн",-11.972095934354401],["комфортны",-11.972766369020354],["несимметричным",-11.97283106381837],["питьевы",-11.972899055313855],["цистерна",-11.97300322868939],["национальным",-11.973077919405847],["многоступенчаты",-11.97311036499303],["пер",-11.973113040493757],["665",-11.973236271250414],["люкам",-11.973751602477876],["неселективно",-11.974075474475999],["теплотехнически",-11.974156804115854],["многожильны",-11.974261274467553],["подводимы",-11.974436076206747],["ветра",-11.974691075027039],["жаростойки",-11.974739780469498],["оснаща",-11.975079207180721],["значительны",-11.975135682244098],["отпае",-11.97522056671488],["крупны",-11.975385574697848],["онах",-11.975389082601529],["одиночно",-11.975397512670206],["расчёто",-11.975529181079954],["акустически",-11.976580028197555],["серо",-11.97817361767569],["284",-11.97851243760876],["водовода",-11.978749964571275],["выработк",-11.978869846912906],["сшит",-11.979365764172613],["ивает",-11.979485051323467],["динамическо",-11.97949985208259],["ступенчаты",-11.979675319496987],["103",-11.98073024278174],["задне",-11.981113584157388],["224",-11.981145761073972],["потерям",-11.981705080957505],["законченны",-11.982242682271256],["площадочны",-11.9825737718213],["поступа",-11.983232420415103],["ты",-11.983298723208005],["пусковым",-11.983341818089531],["верен",-11.983604611720278],["1966",-11.983886877991944],["тво",-11.984253557740846],["ци",-11.98495166724955],["вытяжны",-11.985065630363405],["укрыти",-11.985463842811642],["опу",-11.985823075715807],["предъявляю",-11.986444928278656],["решае",-11.987509745617658],["размещенным",-11.98759079515994],["аустенитно",-11.987735643393659],["органо",-11.989351852991655],["подключае",-11.989669212084667],["кожухо",-11.989823296537914],["предотвращающи",-11.989903330660562],["боче",-11.99143181135019],["замкнутым",-11.992530431181498],["укционно",-11.99327619613661],["подрайона",-11.993714914439423],["ограниченны",-11.993750294263673],["воздухозаборн",-11.993773670446991],["пластмассово",-11.993943282282155],["телефон",-11.994392117083827],["логотип",-11.995236941534852],["распор",-11.995751219704276],["566",-11.996057880631087],["трансформаторам",-11.996382861037311],["ранспортирование",-11.997076735620364],["зора",-11.997096574499109],["балк",-11.997395727833137],["поддерживающе",-11.997398775609884],["2500",-11.99758216453777],["прикрепленны",-11.997775986835768],["никел",-11.997896010685464],["равны",-11.998198526447318],["115",-11.999225059476407],["раздельным",-11.999386223044272],["сдвоенны",-12.000141884706261],["поступления",-12.000855677489604],["трактора",-12.001224106365237],["секционирование",-12.001622917628955],["сертифицированно",-12.00216351310023],["бач",-12.002526070870411],["редуцирован",-12.00277909805411],["лей",-12.00292462624826],["подвижн",-12.003065409819092],["чувствительны",-12.003868074717527],["присоединит",-12.003891888375149],["отрицательн",-12.004020165258503],["соединять",-12.004419225509078],["фазн",-12.005002567454936],["тягивают",-12.005167443336502],["штабеля",-12.005628474674719],["случа",-12.005843654514772],["содержащим",-12.006313169183526],["вычислительным",-12.006381083039965],["уют",-12.006393029615372],["ходу",-12.007397600670995],["заливн",-12.007635622065527],["трап",-12.008144905854476],["параллельным",-12.008936250270713],["сборник",-12.009504759762656],["ице",-12.010875271874756],["исследовательск",-12.011074402795993],["отчетны",-12.011296623225356],["совокупн",-12.011370027157874],["свои",-12.011778938855812],["суммарны",-12.01222511253341],["сборочн",-12.013158426918459],["приведе",-12.013606469513736],["однофазн",-12.013613173918145],["геометрическ",-12.014072155272915],["импульс",-12.014180379989405],["кольцевы",-12.015655299849481],["контактным",-12.01578201941675],["разъемны",-12.015899774520227],["5272",-12.016383710213018],["асса",-12.01650752034927],["155",-12.016595874377437],["барабана",-12.016728088300754],["анодно",-12.016740039754696],["удаленн",-12.017016217046265],["переключатель",-12.017191449895744],["6003",-12.018144608256774],["переключательны",-12.01977215352372],["всасывающи",-12.020752279901487],["профилированны",-12.021087006525555],["оформлен",-12.021562952683714],["тросо",-12.021774115614493],["однотипн",-12.022109535899205],["превыш",-12.022597882283012],["устран",-12.022598901749506],["скрыты",-12.023027584589123],["экв",-12.023143146957892],["стран",-12.023282390061773],["лю",-12.023486822580395],["опас",-12.023785267893615],["энергосистем",-12.023912357826726],["тяги",-12.02393493373642],["пече",-12.025183310771654],["гидрогенератор",-12.025300651468871],["смесителя",-12.02562864009447],["желто",-12.025888647485145],["ma",-12.026007928457256],["наименьше",-12.027965874103195],["панеля",-12.02824200861774],["тоннел",-12.02836584313187],["асел",-12.028651639461827],["процедура",-12.028709170341724],["центрам",-12.028951528891437],["разработанн",-12.029045974502562],["роторо",-12.029717593753853],["планк",-12.029725546378161],["даваемы",-12.030631140458311],["колодца",-12.030887530243836],["механиз",-12.030936969398656],["зи",-12.031326272085652],["казать",-12.03251396379442],["футляр",-12.033116034965268],["обка",-12.03314894947447],["равном",-12.033237102789272],["сплошно",-12.034172141491664],["совокупно",-12.034212913676344],["лента",-12.03432576254066],["носимы",-12.034330051674093],["1150",-12.034629539924904],["определённо",-12.035318784347652],["выдержа",-12.035679742965568],["высокочастотны",-12.035771427216135],["1424",-12.036697089659828],["01010",-12.03685620366246],["туннеле",-12.036867216359324],["мерзани",-12.03714068607716],["выделяю",-12.03717825983395],["атывающи",-12.038405603015555],["мпер",-12.038872282559161],["способны",-12.038992666392499],["ar",-12.039331541445529],["одновременн",-12.03956031996642],["расположенн",-12.04023293751685],["туннел",-12.041358772093261],["рубашка",-12.041575557173191],["причин",-12.042808683847586],["участвующ",-12.044842935365585],["вынос",-12.045630097944976],["тонн",-12.045687142746281],["пространстве",-12.045770452731466],["обоснован",-12.046008772058267],["поступающе",-12.046557174620665],["поворото",-12.046943751677544],["подводяще",-12.047550274369616],["пользовани",-12.047867435634036],["законо",-12.048177705048143],["винтовы",-12.048181005142794],["запасно",-12.048183161822658],["зз",-12.048359744343367],["чётк",-12.049231113770652],["гаражно",-12.05060837851026],["нять",-12.051857781725072],["разделен",-12.052145395479581],["конечно",-12.052282385490669],["чр",-12.053696026791524],["магнит",-12.054093358648101],["подключаемы",-12.054456234559723],["ослойны",-12.055197565481386],["покров",-12.056522132031299],["заключенны",-12.056820954767248],["надземн",-12.057068855769316],["боковы",-12.05713068151246],["ног",-12.057711689817314],["выполняем",-12.060043035649375],["полезны",-12.060114631295898],["водител",-12.060270844223131],["зовы",-12.060699116331229],["аналого",-12.061010783489376],["жны",-12.06157892744394],["тепловым",-12.062677959489598],["символо",-12.062715037615611],["ребр",-12.063187894487683],["тягово",-12.064758002646562],["граждански",-12.064827968795736],["предотвращен",-12.06570189108892],["аккумуляторны",-12.065844938160401],["огнестойкость",-12.066602048205397],["блокам",-12.066859832662708],["овы",-12.066864689190849],["электропроводка",-12.066925860698468],["сикн",-12.06694812939049],["насосным",-12.067343195300689],["атч",-12.067776793369342],["приводяще",-12.06805826622691],["сопряжен",-12.068370752496476],["предложен",-12.068669939644852],["притвор",-12.069117265657063],["нагревателя",-12.06965800744379],["низше",-12.070361908410323],["поршнев",-12.071627291006138],["камерам",-12.071897936511986],["выводо",-12.072354460491503],["уф",-12.072841173076117],["ul",-12.072897706778368],["высокочастотн",-12.073822934787357],["втуло",-12.074225652956573],["потолка",-12.074458393304983],["широко",-12.074587014634165],["техно",-12.074641415060965],["рекомендуемо",-12.075503484854451],["210",-12.0756246318003],["санитарн",-12.075914452579521],["межсетев",-12.076795297249495],["остаточно",-12.076981241097958],["измеряемы",-12.078095466167925],["учетны",-12.078230967708258],["авших",-12.078808435261367],["це",-12.0800641904754],["изменен",-12.081024923314155],["рассмотрени",-12.081153111181457],["бирка",-12.081329279678982],["188",-12.082175895146442],["эв",-12.082226406511573],["стопорно",-12.08226671335026],["многоступенчато",-12.08240711122299],["параллельн",-12.082995019547955],["аттестован",-12.083030917468879],["оконным",-12.083338736370644],["уплотнен",-12.083610440760026],["тор",-12.08374949860454],["кт",-12.084301576073269],["штабел",-12.085371624336203],["вающих",-12.087666176577722],["фактическ",-12.088079184441241],["указывающи",-12.088815608215247],["олч",-12.089840675548775],["обечайка",-12.089906708266426],["порядко",-12.090372217165601],["насосном",-12.091256467677884],["отсек",-12.092778857653595],["взрывозащищенны",-12.09319763947737],["ления",-12.093816513286626],["0302",-12.094012078130028],["вещество",-12.095168583680596],["огне",-12.096678443520325],["вызываю",-12.096720534904492],["обусловленны",-12.09703164515751],["предварительны",-12.098513551905466],["ожида",-12.100106015737191],["852",-12.100440875552897],["оребрен",-12.100921631583045],["удобн",-12.10116700411294],["сдела",-12.102300126186313],["учитыва",-12.102593387335867],["отверстие",-12.103123247641493],["горелк",-12.10379731959187],["встроенно",-12.104267027632732],["оженно",-12.104304827816783],["креплени",-12.105328515231292],["передвижн",-12.105375924294346],["ложны",-12.106268702004536],["подпит",-12.10770522644113],["выбра",-12.107920415171746],["грунто",-12.108161897169673],["компа",-12.108605990689991],["стекло",-12.109143307313005],["диафрагм",-12.110780775429538],["проезда",-12.112739019011691],["гарантированн",-12.11309980142004],["химическом",-12.11354646096997],["этим",-12.113987735256133],["радиотехническ",-12.114121597760766],["спортивно",-12.11461923315231],["бак",-12.115073493813737],["чертежа",-12.115185250997973],["складо",-12.115999598515073],["плавн",-12.116001577231524],["персональн",-12.116444528024964],["потреб",-12.116517940938422],["заправочн",-12.117224109550369],["состояще",-12.117264636251434],["порогов",-12.119829481164615],["обязательств",-12.121124696699141],["расходо",-12.121623264986319],["ново",-12.12369884660285],["сту",-12.124456769681032],["ис",-12.124486298545342],["стальным",-12.124968202418962],["регион",-12.125477695652076],["обслужива",-12.126296980804105],["испытанны",-12.126496312340507],["отделен",-12.12693949741276],["паровы",-12.13064931896879],["компенсированн",-12.131112368946063],["жени",-12.13154740553622],["упаковочно",-12.133010552646835],["клеммник",-12.133244900717221],["чешуйчат",-12.135010525912337],["дожд",-12.136311531368793],["ложения",-12.136343373587453],["недра",-12.136708148704967],["ма",-12.137560152638585],["скольжение",-12.137987521054804],["угл",-12.138156551739538],["уз",-12.140409876559122],["006",-12.140836491528987],["парафин",-12.141784550019384],["снабжени",-12.142052912261008],["523",-12.142079674152185],["1737",-12.142556481312154],["капитальном",-12.142962200984618],["сливны",-12.143031652941712],["посту",-12.143809975938165],["гл",-12.143989459690397],["находяще",-12.14420374573446],["229",-12.144320673839369],["режимам",-12.146164770298336],["хрома",-12.14760103161196],["зо",-12.14772543698299],["неразрушаем",-12.147757779122625],["поворотн",-12.14798748849682],["улиц",-12.148601957142704],["ём",-12.149790526314195],["независ",-12.150179272656155],["планируемо",-12.150728944102735],["уравновешенн",-12.15149639499938],["включенны",-12.151767623078543],["перерабатывающ",-12.152630826806766],["вероятност",-12.152977647926857],["лестничн",-12.15406829870732],["амплитуд",-12.155286170990813],["торца",-12.155358736225338],["спирал",-12.156253633738181],["легированно",-12.156565266680207],["твердост",-12.156625829236146],["садочны",-12.157507577474437],["жения",-12.157631666139661],["отстраива",-12.157885025479533],["горловина",-12.15823236587153],["остаточным",-12.15827349755847],["закрыва",-12.158424150222611],["260",-12.15849610200179],["квалификаци",-12.158963293845071],["сетк",-12.159055690432567],["гло",-12.15915712952079],["обязател",-12.159162424373793],["имуществ",-12.159355070757234],["консульта",-12.159367234936344],["буждение",-12.159375176447051],["террористическ",-12.159387053992374],["антифрикционны",-12.159387053993104],[">",-12.159387054032129],["\"",-12.159387054032129],["˚",-12.159387054032129],["учреждени",-12.159387054064702],["расхождени",-12.15938705416811],["исчезновени",-12.1593870542161],["исчерпывающи",-12.159387054590798],["экскаватор",-12.159387055550631],["сопрягаем",-12.159387055678478],["асбестоцементны",-12.159387056265713],["деаэратор",-12.159387058346079],["коричнев",-12.159387076816076],["швеллер",-12.159387083548474],["отечественно",-12.159387094556584],["обыкновенн",-12.159387109174137],["дугогасящ",-12.159387120068423],["заусенц",-12.159387134205907],["многослойно",-12.159387219540061],["вольфрам",-12.159387566738811],["бирюзов",-12.159387619797986],["полиспаст",-12.159387896885569],["инспекци",-12.159388140381402],["пропорционально",-12.159388314425856],["оранжев",-12.159388443811972],["затрагиваю",-12.15938964129836],["электроприёмник",-12.159389642184099],["отбраков",-12.15938974906865],["монтировать",-12.159390042259794],["опрессовк",-12.159390616404066],["сваебойн",-12.159391975545208],["кирпич",-12.159392042487076],["добываем",-12.159392454790687],["бурильн",-12.15939251530851],["синхронизм",-12.159392708772756],["рельеф",-12.159392822271464],["test",-12.159393646767422],["разнородны",-12.159395851397424],["завернут",-12.15939590657677],["сернист",-12.159396959240347],["домкрат",-12.15940044124523],["градирн",-12.159402440580383],["обваловани",-12.159403445150861],["wit",-12.159407518521054],["секунд",-12.159411443525968],["холодильник",-12.159413178025378],["проверяют",-12.159414031530043],["отдавать",-12.159415678738844],["фторопласт",-12.159425425199565],["прикосновени",-12.159428545876331],["трёх",-12.159434718886933],["ориентировочн",-12.159443239777508],["синхронизаци",-12.159453877640892],["вращающем",-12.159453894320306],["пояснительн",-12.159455900106263],["отличительн",-12.15947492933677],["намечаем",-12.159483306470188],["гигиен",-12.1594868993302],["взвеш",-12.159499275173742],["qui",-12.15950421375198],["сегмент",-12.159504231590875],["звезд",-12.159507825116009],["устраивать",-12.15951526134269],["собираемы",-12.159520157604861],["водостойким",-12.159535555990152],["автодорог",-12.159556041846],["магнитоконтактны",-12.15958642810799],["интегрально",-12.159632930659697],["использу",-12.159651132436505],["вращающая",-12.159669702136584],["триинг",-12.159769248532752],["микроэлектронн",-12.159826174210535],["ар",-12.159933231684878],["рассчитывать",-12.160088690791042],["rement",-12.160171412008086],["реакци",-12.160314537898609],["монтирует",-12.160344749282777],["энергоблоко",-12.16037957068002],["прокол",-12.160451947310722],["образуем",-12.160469064084289],["оповещателя",-12.160540176509619],["ислительным",-12.16054676314166],["жизненн",-12.160619369002909],["моноли",-12.16062897453406],["кустов",-12.160843051311158],["реализовыва",-12.160998824519021],["электропогрузчик",-12.161191506816445],["правовы",-12.161262563389352],["лоем",-12.161385864815971],["корпусам",-12.161430759774031],["укрупн",-12.161619367698373],["объекто",-12.161818800895539],["котел",-12.162042490240978],["производственном",-12.16239878748997],["пломбировочны",-12.16247796059221],["тивны",-12.16260714903799],["гофрированн",-12.163074666874767],["поднимает",-12.163173382642173],
[...]
