{"version":"1.0","truncation":null,"padding":null,"added_tokens":[{"id":0,"special":true,"content":"[BOS]","single_word":false,"lstrip":false,"rstrip":false,"normalized":false},{"id":1,"special":true,"content":"[EOS]","single_word":false,"lstrip":false,"rstrip":false,"normalized":false},{"id":2,"special":true,"content":"[UNK]","single_word":false,"lstrip":false,"rstrip":false,"normalized":false},{"id":3,"special":true,"content":"[CLS]","single_word":false,"lstrip":false,"rstrip":false,"normalized":false},{"id":4,"special":true,"content":"[SEP]","single_word":false,"lstrip":false,"rstrip":false,"normalized":false},{"id":5,"special":true,"content":"[PAD]","single_word":false,"lstrip":false,"rstrip":false,"normalized":false},{"id":6,"special":true,"content":"[MASK]","single_word":false,"lstrip":false,"rstrip":false,"normalized":false}],"normalizer":{"type":"Lowercase"},"pre_tokenizer":{"type":"Sequence","pretokenizers":[{"type":"Whitespace"},{"type":"Digits","individual_digits":false}]},"post_processor":null,"decoder":null,"model":{"type":"WordPiece","unk_token":"[UNK]","continuing_subword_prefix":"##","max_input_chars_per_word":100,"vocab":{"[BOS]":0,"[EOS]":1,"[UNK]":2,"[CLS]":3,"[SEP]":4,"[PAD]":5,"[MASK]":6,"!":7,"\"":8,"%":9,"(":10,")":11,"*":12,"+":13,",":14,"-":15,".":16,"/":17,"0":18,"1":19,"2":20,"3":21,"4":22,"5":23,"6":24,"7":25,"8":26,"9":27,":":28,";":29,"<":30,"=":31,">":32,"[":33,"]":34,"_":35,"a":36,"b":37,"c":38,"d":39,"e":40,"f":41,"g":42,"h":43,"i":44,"j":45,"k":46,"l":47,"m":48,"n":49,"o":50,"p":51,"q":52,"r":53,"s":54,"t":55,"u":56,"v":57,"w":58,"x":59,"y":60,"z":61,"|":62,"§":63,"«":64,"­":65,"°":66,"±":67,"²":68,"³":69,"º":70,"»":71,"¾":72,"×":73,"÷":74,"ƒ":75,"ơ":76,"˚":77,"̶":78,";":79,"δ":80,"π":81,"σ":82,"υ":83,"φ":84,"а":85,"б":86,"в":87,"г":88,"д":89,"е":90,"ж":91,"з":92,"и":93,"й":94,"к":95,"л":96,"м":97,"н":98,"о":99,"п":100,"р":101,"с":102,"т":103,"у":104,"ф":105,"х":106,"ц":107,"ч":108,"ш":109,"щ":110,"ъ":111,"ы":112,"ь":113,"э":114,"ю":115,"я":116,"ё":117,"ᶯ":118,"‒":119,"–":120,"—":121,"’":122,"…":123,"№":124,"∆":125,"−":126,"≈":127,"≤":128,"≥":129,"─":130,"▫":131,"":132,"":133,"":134,"":135,"":136,"##р":137,"##о":138,"##а":139,"##б":140,"##т":141,"##к":142,"##д":143,"##е":144,"##л":145,"##ь":146,"##ш":147,"##п":148,"##м":149,"##и":150,"##с":151,"##ч":152,"##в":153,"##я":154,"##н":155,"##ю":156,"##3":157,"##7":158,"##щ":159,"##у":160,"##ф":161,"##з":162,"##ц":163,"##х":164,"##й":165,"##ы":166,"##г":167,"##ъ":168,"##2":169,"##6":170,"##0":171,"##h":172,"##ж":173,"##8":174,"##u":175,"##i":176,"##d":177,"##e":178,"##э":179,"##o":180,"##s":181,"##t":182,"##1":183,"##4":184,"##5":185,"##9":186,"##)":187,"##:":188,"##a":189,"##r":190,"##m":191,"##n":192,"##c":193,"##p":194,"##ё":195,"##.":196,"##l":197,"##y":198,"##x":199,"##,":200,"##»":201,"##b":202,"##–":203,"##f":204,"##g":205,"##;":206,"##v":207,"##k":208,"##q":209,"##j":210,"##%":211,"##/":212,"##]":213,"##*":214,"##-":215,"##w":216,"##(":217,"##∆":218,"##+":219,"##±":220,"##=":221,"##;":222,"##≥":223,"##«":224,"##ни":225,"##ст":226,"##ов":227,"##но":228,"##ны":229,"пр":230,"##ния":231,"##ен":232,"##че":233,"##ор":234,"##ер":235,"##од":236,"##ат":237,"##ол":238,"##ки":239,"##ова":240,"##ле":241,"##ет":242,"##на":243,"##го":244,"##ци":245,"##ре":246,"об":247,"##ра":248,"##ль":249,"##ли":250,"##ем":251,"на":252,"##ка":253,"##ост":254,"##ом":255,"##чес":256,"##ств":257,"##кт":258,"##от":259,"при":260,"##ру":261,"##сп":262,"##ля":263,"##ит":264,"##он":265,"ра":266,"##ования":267,"##ных":268,"за":269,"##чески":270,"##ние":271,"##та":272,"##ност":273,"##оп":274,"##ед":275,"##ла":276,"##ные":277,"##ми":278,"из":279,"##ой":280,"про":281,"##ех":282,"по":283,"##мен":284,"##щи":285,"##реб":286,"от":287,"##ной":288,"##ель":289,"##ного":290,"##ения":291,"со":292,"треб":293,"##ции":294,"##за":295,"##ар":296,"для":297,"не":298,"##олж":299,"##де":300,"##ок":301,"долж":302,"##ности":303,"требования":304,"тех":305,"##оз":306,"##ав":307,"##лов":308,"гост":309,"##ив":310,"##ся":311,"##ний":312,"##ас":313,"##ир":314,"##не":315,"##ез":316,"##ист":317,"##ект":318,"##тов":319,"вы":320,"техни":321,"##ть":322,"кон":323,"##ос":324,"##вод":325,"##ически":326,"##ору":327,"##об":328,"##аб":329,"##тр":330,"##ан":331,"##ей":332,"мет":333,"ус":334,"ре":335,"##ия":336,"##ная":337,"##им":338,"##вет":339,"##опас":340,"20":341,"услов":342,"##ож":343,"оп":344,"без":345,"##ать":346,"уст":347,"##оруд":348,"##из":349,"##аль":350,"##наче":351,"##ирова":352,"##оч":353,"раз":354,"технически":355,"исп":356,"##лект":357,"##ления":358,"##истем":359,"##ров":360,"##ры":361,"систем":362,"оборуд":363,"безопас":364,"##ный":365,"##ветств":366,"##ческ":367,"##ва":368,"##нии":369,"##стру":370,"сп":371,"##ран":372,"метод":373,"##ответств":374,"соответств":375,"##ция":376,"проект":377,"##лу":378,"##ого":379,"##да":380,"ука":381,"пред":382,"##итель":383,"##оку":384,"ос":385,"##ак":386,"под":387,"##готов":388,"должны":389,"##нию":390,"указа":391,"##ное":392,"##ющи":393,"##ии":394,"##орм":395,"##ще":396,"##ус":397,"безопасности":398,"##ства":399,"##том":400,"##ду":401,"##ти":402,"##ход":403,"доку":404,"докумен":405,"изготов":406,"##лен":407,"##ло":408,"бы":409,"##же":410,"##бот":411,"##ным":412,"##ность":413,"##щит":414,"##остав":415,"констру":416,"оборудования":417,"воз":418,"быть":419,"или":420,"##ерж":421,"методически":422,"ст":423,"##ых":424,"ста":425,"##ери":426,"##оя":427,"##мет":428,"##анов":429,"##ора":430,"эк":431,"защит":432,"##ые":433,"##лектр":434,"##ип":435,"##ара":436,"электр":437,"##ата":438,"обоз":439,"обозначе":440,"##нием":441,"таб":442,"##ин":443,"табли":444,"##лю":445,"##оль":446,"##мер":447,"технические":448,"##пол":449,"пер":450,"документа":451,"##ке":452,"рас":453,"тру":454,"таблиц":455,"ком":456,"##есп":457,"произ":458,"201":459,"га":460,"##ется":461,"производ":462,"ав":463,"ин":464,"##спор":465,"##щие":466,"##ис":467,"##еспе":468,"выпол":469,"##ред":470,"##еле":471,"обеспе":472,"объ":473,"эксп":474,"##мат":475,"##фи":476,"мат":477,"матери":478,"уп":479,"##ме":480,"##ыш":481,"##ствен":482,"##стоя":483,"прав":484,"##реде":485,"10":486,"##рав":487,"##клю":488,"##аст":489,"пол":490,"тран":491,"комп":492,"##ков":493,"##еп":494,"##ном":495,"эксплу":496,"установ":497,"тип":498,"##ну":499,"эксплуата":500,"##каз":501,"зак":502,"##ги":503,"пож":504,"система":505,"осн":506,"стр":507,"##тв":508,"настоя":509,"##рой":510,"прави":511,"##она":512,"работ":513,"неф":514,"част":515,"общие":516,"##ая":517,"##сс":518,"##ить":519,"кор":520,"соответствии":521,"фед":522,"федер":523,"##чи":524,"##ест":525,"сред":526,"##ку":527,"конструк":528,"материа":529,"##ости":530,"должна":531,"##тверж":532,"##ден":533,"нас":534,"опреде":535,"200":536,"испол":537,"##ее":538,"норм":539,"насос":540,"##дар":541,"св":542,"##ирован":543,"пожар":544,"труб":545,"условия":546,"##ование":547,"##ты":548,"объект":549,"пром":550,"##руз":551,"##оитель":552,"##бор":553,"указания":554,"постав":555,"транспор":556,"автом":557,"##ными":558,"федераль":559,"##пр":560,"##ющ":561,"##ид":562,"строитель":563,"##гла":564,"##ива":565,"##ют":566,"примен":567,"##дели":568,"##овать":569,"ка":570,"##га":571,"испы":572,"##еля":573,"издели":574,"##ышлен":575,"утверж":576,"##щих":577,"##ев":578,"промышлен":579,"##ня":580,"##цион":581,"проектирова":582,"испыта":583,"##щения":584,"правила":585,"необ":586,"##тель":587,"##су":588,"##ерат":589,"##ходим":590,"##онта":591,"завод":592,"необходим":593,"##оду":594,"##ое":595,"эксплуатации":596,"стан":597,"автомат":598,"контр":599,"си":600,"нефт":601,"##ий":602,"##сы":603,"обозначения":604,"##ческого":605,"##ление":606,"документации":607,"каб":608,"##руж":609,"##опров":610,"##ческой":611,"устрой":612,"техно":613,"транспорт":614,"##аты":615,"##ча":616,"техноло":617,"пара":618,"##опровод":619,"методических":620,"возду":621,"таблица":622,"утвержден":623,"основ":624,"##ющих":625,"предус":626,"##ог":627,"##мот":628,"##атель":629,"##кла":630,"##нения":631,"защиты":632,"##зации":633,"##ах":634,"##работ":635,"##чения":636,"указаний":637,"##нение":638,"пом":639,"##ций":640,"##ди":641,"пров":642,"парамет":643,"стандар":644,"кли":645,"пов":646,"комплект":647,"акт":648,"раб":649,"##елей":650,"должен":651,"изготовле":652,"хара":653,"характ":654,"характер":655,"##атив":656,").":657,"ли":658,"##ение":659,"##00":660,"##ство":661,"условного":662,"системы":663,"кот":664,"управ":665,"##лки":666,"##оля":667,"##жения":668,"состав":669,"##груз":670,"##кой":671,"ок":672,"до":673,"фз":674,"##ам":675,"настоящих":676,"прив":677,"##али":678,"доп":679,"».":680,"##еж":681,"эле":682,"обозначение":683,"воздух":684,"обеспеч":685,"методические":686,"12":687,"климат":688,"трубопровод":689,"##емп":690,"ссы":691,"требованиям":692,"газ":693,"элемен":694,"##ических":695,"##ключ":696,"##ерату":697,"##емперату":698,"расче":699,"##кры":700,"ссылки":701,"##уп":702,"проду":703,"температу":704,"производствен":705,"поме":706,"##ейс":707,"мест":708,"##ина":709,"##лей":710,"пере":711,"##кции":712,"##ком":713,"##ющие":714,"бол":715,"##форм":716,"привед":717,"##юще":718,"управления":719,"вод":720,"##клад":721,"разработ":722,"конструкт":723,"##пор":724,"измер":725,"15":726,"##ви":727,"пожарной":728,"пот":729,"размер":730,"должно":731,"»,":732,"таблице":733,"прот":734,"изготовит":735,"##ал":736,"зда":737,"##исти":738,"котор":739,"##гра":740,"##ются":741,"##ован":742,"##ими":743,"рез":744,"кла":745,"монта":746,"материалов":747,"##ена":748,"характеристи":749,"##ун":750,"##лива":751,"так":752,"соответствовать":753,"ма":754,"предусмот":755,"##ольз":756,"расп":757,"сх":758,"##дей":759,"##рет":760,"##ивать":761,"схем":762,"кв":763,"##ожения":764,"##рыв":765,"##фика":766,"дав":767,"вс":768,"##ений":769,"проектированию":770,"вер":771,"##ирования":772,"##аз":773,"##дз":774,"##ели":775,"пос":776,"##овой":777,"исполнения":778,"##ласт":779,"изготовлению":780,"значе":781,"соед":782,"вз":783,"##леду":784,"##ним":785,"##ований":786,"##ока":787,"мен":788,"##ную":789,"##раз":790,"##иф":791,"использ":792,"изделия":793,"##гор":794,"##ации":795,"##ющей":796,"условное":797,"поставке":798,"приказ":799,"##ойк":800,"##ейств":801,"ном":802,"взрыв":803,"па":804,"##пп":805,"электро":806,"##мент":807,"ис":808,"сейс":809,"##ены":810,"од":811,"##дзора":812,"##оче":813,"мак":814,"требований":815,"напр":816,"##уска":817,"кабель":818,"среды":819,"ввод":820,"следу":821,"их":822,"согла":823,"ох":824,"тер":825,"##цию":826,"сталь":827,"),":828,"##яже":829,"сни":830,"соглас":831,"действ":832,"##особ":833,"##ществ":834,"ск":835,"уче":836,"##чен":837,"ор":838,"бл":839,"прием":840,"##атыва":841,"также":842,"##ированная":843,"объектов":844,"приказом":845,"требованиями":846,"##емых":847,"рабоче":848,"более":849,"менее":850,"##лы":851,"##нутр":852,"##чение":853,"##ве":854,"##ость":855,"транспортирова":856,"##ющего":857,"##гна":858,"##ами":859,"##уст":860,"сигна":861,"испытания":862,"еди":863,"дру":864,"часть":865,"применя":866,"наз":867,"закон":868,"промышленной":869,"##ализ":870,"11":871,"##нитель":872,"воздуха":873,"##гу":874,"##ться":875,"технолог":876,"##действ":877,"орга":878,"##ани":879,"мар":880,"##яз":881,"внутр":882,"регла":883,"метал":884,"инстру":885,"воздейств":886,"##ружа":887,"определя":888,"дв":889,"автомати":890,"окружа":891,"размеры":892,"против":893,"##жим":894,"##кая":895,"технических":896,"##реть":897,"вре":898,"измен":899,"теп":900,"труда":901,"вне":902,"##ана":903,"кол":904,"##уществ":905,"##реп":906,"органи":907,"утвержденные":908,"##роз":909,"##ек":910,"оборудование":911,"##ту":912,"предусмотреть":913,"проклад":914,"##жд":915,"##ране":916,"##овании":917,"контроль":918,"ред":919,"мм":920,"ток":921,"##гре":922,"класс":923,"##нер":924,"федеральный":925,"##луж":926,"ар":927,"област":928,"##опож":929,"свар":930,"регламент":931,"##опожар":932,"пост":933,"##ические":934,"конструкции":935,"##остойк":936,"снип":937,"согласно":938,"##ровка":939,"после":940,"тт":941,"соору":942,"учетом":943,"##очных":944,"типов":945,"работы":946,"##лан":947,"##ехна":948,"необходимо":949,"методы":950,"осуществ":951,"определения":952,"##ща":953,"документация":954,"акту":955,"##емые":956,"строительства":957,"##ализированная":958,"актуализированная":959,"##иа":960,"##ехнадзора":961,"##ками":962,"уз":963,"##рос":964,"редак":965,"гор":966,"стандартов":967,"редакция":968,"назначе":969,"##мостойк":970,"опас":971,"##ческое":972,"рф":973,"установки":974,"##одерж":975,"технический":976,"вход":977,"##мож":978,"реш":979,"сет":980,"типа":981,"испытаний":982,"параметры":983,"дет":984,"##ческие":985,"режим":986,"части":987,"маш":988,"заз":989,"прибор":990,"положения":991,"провод":992,"фун":993,"основные":994,"##оров":995,"выполня":996,"каче":997,"форм":998,"##фици":999,"нормы":1000,"##влива":1001,"опор":1002,"##енного":1003,"содерж":1004,"##це":1005,"##ческих":1006,"##ро":1007,"дан":1008,"##50":1009,"##нить":1010,"рем":1011,"##аться":1012,"##иль":1013,"##ита":1014,"рай":1015,"возмож":1016,"номина":1017,"пу":1018,"изготовителя":1019,"##со":1020,"схема":1021,"ру":1022,"##са":1023,"##вис":1024,"исполнение":1025,"характеристики":1026,"##лот":1027,"ви":1028,"потреб":1029,"номиналь":1030,"внутрен":1031,"##ней":1032,"разме":1033,"завода":1034,"гра":1035,"технологи":1036,"изделий":1037,"##пус":1038,"монтаж":1039,"##цев":1040,"2013":1041,"##оза":1042,"норматив":1043,"повер":1044,"области":1045,"##ым":1046,"##ент":1047,"вид":1048,"терми":1049,"информ":1050,"##еци":1051,"фа":1052,"други":1053,"проектирования":1054,"##яд":1055,"газа":1056,"##лением":1057,"##ской":1058,"18":1059,"обеспечения":1060,"##нир":1061,"##нос":1062,"##очные":1063,"уров":1064,"устана":1065,"14":1066,"01":1067,"##лож":1068,"устройства":1069,"имет":1070,"иметь":1071,"##щая":1072,"##ников":1073,"регу":1074,"конструкций":1075,"продукции":1076,"сейсмостойк":1077,"дост":1078,"##ате":1079,"производственных":1080,"зазем":1081,"сов":1082,"помеще":1083,"де":1084,"заказ":1085,"##опр":1086,"##деж":1087,"марки":1088,"##ному":1089,"включ":1090,"надеж":1091,"контроля":1092,"зданий":1093,"регули":1094,"насоса":1095,"23":1096,"##ыва":1097,"допуска":1098,"##мм":1099,"##цией":1100,"##ималь":1101,"противопожар":1102,"13":1103,"флан":1104,"##тия":1105,"##раб":1106,"соответству":1107,"рост":1108,"##ниц":1109,"##инения":1110,"вл":1111,"защита":1112,"специ":1113,"производства":1114,"##иру":1115,"выс":1116,"приведены":1117,"промышленности":1118,"внеш":1119,"##цесс":1120,"##енных":1121,"распол":1122,"термины":1123,"условий":1124,"элементов":1125,"верс":1126,"##зна":1127,"##ый":1128,"способ":1129,"помещения":1130,"##висим":1131,"груз":1132,"чер":1133,"наи":1134,"автоматиз":1135,"процесс":1136,"##емой":1137,"##ках":1138,"нефтеп":1139,"диа":1140,"##дель":1141,"##енти":1142,"покры":1143,"пане":1144,"ни":1145,"нагруз":1146,"рабочей":1147,"сер":1148,"параметров":1149,"##ющий":1150,"установлен":1151,"##ур":1152,"предна":1153,"мас":1154,"##па":1155,"корпус":1156,"##ую":1157,"содержа":1158,"венти":1159,"гру":1160,"##кция":1161,"ростехнадзора":1162,"##ких":1163,"##ие":1164,"макс":1165,"##рабатыва":1166,"меж":1167,"##ателя":1168,"##ехани":1169,"тр":1170,"конструкция":1171,"максималь":1172,"##ателей":1173,"температуры":1174,"гос":1175,"##наб":1176,"##бы":1177,"армат":1178,"устанавлива":1179,"19":1180,");":1181,"##ион":1182,"вентиля":1183,"все":1184,"24":1185,"блок":1186,"металли":1187,"##ппар":1188,"##ел":1189,"аппар":1190,"реком":1191,"проектной":1192,"выполнить":1193,"рекомен":1194,"креп":1195,"выполн":1196,"##елем":1197,"03":1198,"##ощ":1199,"##овых":1200,"##овые":1201,"безопасность":1202,"армату":1203,"кате":1204,"##кат":1205,"##ше":1206,"корроз":1207,"воздействия":1208,"##соед":1209,"категор":1210,"ми":1211,"##ческая":1212,"технического":1213,"поверх":1214,"энер":1215,"устройств":1216,"его":1217,"корпор":1218,"нефтя":1219,"корпоратив":1220,"огра":1221,"бло":1222,"##вер":1223,"обеспечивать":1224,"##бора":1225,"проч":1226,"соб":1227,"конструктив":1228,"см":1229,"ат":1230,"##ника":1231,"рис":1232,"##ера":1233,"##тий":1234,"22":1235,"обс":1236,"расш":1237,"##ющая":1238,"измерений":1239,"пор":1240,"##оопас":1241,"16":1242,"##ивания":1243,"##ух":1244,"присоед":1245,"агре":1246,"механи":1247,"уплот":1248,"материалы":1249,"обслуж":1250,"слу":1251,"показ":1252,"во":1253,"ср":1254,"расчет":1255,"пла":1256,"##ранения":1257,"##ич":1258,"##став":1259,"##лизации":1260,"##матр":1261,"соединения":1262,"##ко":1263,"30":1264,"тока":1265,"##му":1266,"##литель":1267,"откры":1268,"федерального":1269,"опасных":1270,"кл":1271,"##ераб":1272,"101":1273,"закона":1274,"##емого":1275,"програ":1276,"насосов":1277,"дета":1278,"хими":1279,"упак":1280,"зна":1281,"отдель":1282,"наруж":1283,"##зация":1284,"между":1285,"##ени":1286,"климати":1287,"района":1288,"срабатыва":1289,"рабоч":1290,"соеди":1291,"].":1292,"##дов":1293,"##держ":1294,"2011":1295,"объем":1296,"хране":1297,"##еры":1298,"лист":1299,"представ":1300,"напряже":1301,"аб":1302,"кд":1303,"конструктор":1304,"значения":1305,"##ифровка":1306,"транспортировании":1307,"сооруже":1308,"расшифровка":1309,"сбор":1310,"средств":1311,"чис":1312,"##вля":1313,"##сур":1314,"тс":1315,"##осс":1316,"актив":1317,"электрооб":1318,"##ально":1319,"окружающего":1320,"приня":1321,"се":1322,"факт":1323,"агрег":1324,"упаков":1325,"уч":1326,"2015":1327,"доступ":1328,"предназна":1329,"приме":1330,"зап":1331,"ресур":1332,"##кс":1333,"изоля":1334,"постанов":1335,"##них":1336,"##енные":1337,"##оснаб":1338,"##ключения":1339,"нефти":1340,"допускается":1341,"климатических":1342,"##лены":1343,"трубопроводов":1344,"резер":1345,"сооружений":1346,"кра":1347,"##ермет":1348,"выб":1349,"устройство":1350,"автоматизирован":1351,"разработки":1352,"методическим":1353,"стальные":1354,"ко":1355,"##яжения":1356,"##уле":1357,"##25":1358,"##лив":1359,"изготовления":1360,"расс":1361,"необходимые":1362,"функ":1363,"пита":1364,"##мя":1365,"##лич":1366,"указаниям":1367,"##циона":1368,"##ческом":1369,"50":1370,"85":1371,"##фикация":1372,"грузов":1373,"##онт":1374,"граф":1375,"обеспечива":1376,"случа":1377,"электрооборуд":1378,"##оны":1379,"##ацион":1380,"монтаже":1381,"тепло":1382,"срабатывания":1383,"хранении":1384,"151":1385,"##ины":1386,"##ностью":1387,"##него":1388,"регулир":1389,"ки":1390,"перечен":1391,"перечень":1392,"цен":1393,"##лоща":1394,"##виг":1395,"использу":1396,"наимен":1397,"мощ":1398,"шту":1399,"предусматр":1400,"35":1401,"жид":1402,"##иче":1403,"гермет":1404,"площа":1405,"##тор":1406,"##хл":1407,"зависим":1408,"##ехими":1409,"эксплуатацион":1410,"нефтехими":1411,"##ень":1412,"расчета":1413,"кз":1414,"прилож":1415,"проектировании":1416,"определяется":1417,"лю":1418,"##ится":1419,"предпр":1420,"напряжения":1421,"решения":1422,"качества":1423,"##ут":1424,"центр":1425,"пуэ":1426,"явля":1427,"выполне":1428,"обеспече":1429,"деталей":1430,"резерв":1431,"тре":1432,"##то":1433,"стор":1434,"##мени":1435,"транс":1436,"помещений":1437,"нефтяной":1438,"##прав":1439,"применение":1440,"газовой":1441,"заказчи":1442,"##уль":1443,"сейсмостойкости":1444,"нес":1445,"силов":1446,"25":1447,"хранения":1448,"##ерераб":1449,"##фикации":1450,"предназначен":1451,"##ращения":1452,"выход":1453,"ттт":1454,"##рат":1455,"##оне":1456,"здания":1457,"следует":1458,"машин":1459,"ба":1460,"##лит":1461,"##абар":1462,"##очно":1463,"2012":1464,"2003":1465,"класси":1466,"ас":1467,"мин":1468,"документы":1469,"100":1470,"осуществля":1471,"##щей":1472,"##орми":1473,"располож":1474,"где":1475,"##нс":1476,"изготовитель":1477,"зависимости":1478,"##жен":1479,"площад":1480,"##ему":1481,"##ющим":1482,"случае":1483,"##абарит":1484,"##эф":1485,"общая":1486,"распор":1487,"##тар":1488,"##еров":1489,"поставки":1490,"через":1491,"89":1492,"ms":1493,"##сив":1494,"назначения":1495,"##нд":1496,"##or":1497,"##одного":1498,"средства":1499,"программ":1500,"##циональ":1501,"##ере":1502,"##остоя":1503,"##ющими":1504,"размещения":1505,"поряд":1506,"60":1507,"##уг":1508,"##огре":1509,"составе":1510,"стен":1511,"фланцев":1512,"15150":1513,"штуц":1514,"ухл":1515,"##84":1516,"##овая":1517,"давление":1518,"версия":1519,"98":1520,"##формат":1521,"воды":1522,"примеча":1523,"##их":1524,"материально":1525,"##оопасных":1526,"низ":1527,"##ении":1528,"##ыв":1529,"уг":1530,"##щен":1531,"##способ":1532,"##ическим":1533,"возможность":1534,"ее":1535,"там":1536,"##ировать":1537,"##ерерабатыва":1538,"зж":1539,"##рован":1540,"##ыми":1541,"##атов":1542,"зад":1543,"давления":1544,"мож":1545,"миним":1546,"уни":1547,"##ям":1548,"гаран":1549,"элементы":1550,"время":1551,"31":1552,"действия":1553,"жидк":1554,"##нений":1555,"сейсми":1556,"ремонта":1557,"габарит":1558,"##атели":1559,"приним":1560,"##руб":1561,"отоп":1562,"провед":1563,"##лению":1564,"##щим":1565,"линии":1566,"рекоменду":1567,"##мос":1568,"##удар":1569,"##ъем":1570,"##стве":1571,"выбор":1572,"групп":1573,"##ба":1574,"##ерва":1575,"зам":1576,"проектиру":1577,"количе":1578,"типового":1579,"государ":1580,"трансформат":1581,"обол":1582,"действу":1583,"окружающей":1584,"сети":1585,"надежности":1586,"96":1587,"##жа":1588,"##енерат":1589,"сох":1590,"21":1591,"электрод":1592,"транспортирование":1593,"времени":1594,"диамет":1595,"перем":1596,"правил":1597,"атмос":1598,"коэф":1599,"может":1600,"атмосф":1601,"коэффици":1602,"##шения":1603,"##эк":1604,"паспор":1605,"назначение":1606,"##оснабжения":1607,"примечание":1608,".)":1609,"##строй":1610,"выдерж":1611,"разде":1612,"строительных":1613,"применения":1614,"##устим":1615,"wor":1616,"пар":1617,"##30":1618,"опоры":1619,"word":1620,"##ачи":1621,"##точ":1622,"подраз":1623,"##вич":1624,"80":1625,"точ":1626,"##20":1627,"##обы":1628,"##ального":1629,"40":1630,"##ира":1631,"##жде":1632,"##ованием":1633,"110":1634,"ремонт":1635,"панели":1636,"государствен":1637,"ен":1638,"##ове":1639,"обяз":1640,"основании":1641,"двух":1642,"включая":1643,"обслуживания":1644,"53":1645,"87":1646,"ип":1647,"##гс":1648,"##емая":1649,"2014":1650,"объектах":1651,"составля":1652,"приведена":1653,"охран":1654,"приборы":1655,"противопожарной":1656,"нагрузки":1657,"##образ":1658,"##окуп":1659,"перед":1660,"организации":1661,"совокуп":1662,"сани":1663,"##ителей":1664,"кана":1665,"оболоч":1666,"вн":1667,"жи":1668,"состоя":1669,"##ум":1670,"##ждения":1671,"приборов":1672,"формуле":1673,"##юза":1674,"##оженного":1675,"взрывоза":1676,"одно":1677,"кабельных":1678,"таможенного":1679,"обязатель":1680,"привод":1681,"поз":1682,"союза":1683,"повыш":1684,"вводные":1685,"нефтеперерабатыва":1686,"функциональ":1687,"подразде":1688,"санитар":1689,"уд":1690,"##пи":1691,"##нич":1692,"над":1693,"работа":1694,"которые":1695,"росс":1696,"##фект":1697,"образ":1698,"серти":1699,"кабелей":1700,"резуль":1701,"другие":1702,"высот":1703,"##онир":1704,"соответствия":1705,"компле":1706,"закры":1707,"результ":1708,"81":1709,"##тств":1710,"##нес":1711,"ресив":1712,"документов":1713,"##щение":1714,"требованиях":1715,"указан":1716,"информацион":1717,"электродвиг":1718,"цель":1719,"цвет":1720,"##шип":1721,"прин":1722,"единая":1723,"инструкции":1724,"виде":1725,"подготов":1726,"линий":1727,"значение":1728,"пери":1729,"тол":1730,"принци":1731,"кип":1732,"строительные":1733,"измерения":1734,"предусматривать":1735,"ан":1736,"кр":1737,"пл":1738,"рд":1739,"сохран":1740,"ii":1741,"ог":1742,"пат":1743,"##ением":1744,"##ической":1745,"##серва":1746,"##46":1747,"##ник":1748,"других":1749,"электрооборудование":1750,"герметич":1751,"##аг":1752,"##тс":1753,"##нит":1754,"требу":1755,"несу":1756,"##ковод":1757,"##ести":1758,"##газ":1759,"сигнализации":1760,"прокладки":1761,"помещениях":1762,"энерг":1763,"прочность":1764,"наименование":1765,"ана":1766,"свет":1767,"повре":1768,"допол":1769,"единиц":1770,"применять":1771,"руковод":1772,"пп":1773,"##ционир":1774,"технической":1775,"подшип":1776,"проектирование":1777,"отк":1778,"осве":1779,"транспортирования":1780,"которых":1781,"##яжением":1782,"поверхности":1783,"ист":1784,"мэк":1785,"хол":1786,"ступ":1787,"установка":1788,"2002":1789,"дат":1790,"прев":1791,"погруз":1792,"настоящим":1793,"охране":1794,"коле":1795,"превыш":1796,"17":1797,"патруб":1798,"форми":1799,"опове":1800,"##альные":1801,"техническим":1802,"стандарты":1803,"допустим":1804,"##женер":1805,"период":1806,"ци":1807,"факторов":1808,"рассч":1809,"том":1810,"##очного":1811,"спис":1812,"инженер":1813,"##сутств":1814,"организация":1815,"сооружения":1816,"маркировка":1817,"блока":1818,"распоряжением":1819,"сме":1820,"##оги":1821,"контрол":1822,"выполнен":1823,"мтр":1824,"пс":1825,"##орож":1826,"разгруз":1827,"частот":1828,"связ":1829,"##56":1830,"обеспечение":1831,"целью":1832,"##жда":1833,"##олог":1834,"реле":1835,"расстоя":1836,"##ключение":1837,"макрос":1838,"мод":1839,"обеспечить":1840,"толщи":1841,"##те":1842,"техническом":1843,"числе":1844,"баз":1845,"##аны":1846,"##дин":1847,"неп":1848,"производить":1849,"материала":1850,"изготовителем":1851,"распреде":1852,"давлением":1853,"##ятель":1854,"##альной":1855,"таблич":1856,"##оры":1857,"степ":1858,"##ключа":1859,"утвержденных":1860,"деятель":1861,"служ":1862,"2009":1863,"заводом":1864,"стальных":1865,"##установ":1866,"информации":1867,"источ":1868,"##ски":1869,"##сят":1870,"инструкция":1871,"изменя":1872,"коррозион":1873,"желе":1874,"эва":1875,"##рования":1876,"правитель":1877,"полож":1878,"задан":1879,"желез":1880,"эваку":1881,"те":1882,"ящи":1883,"##ического":1884,"направ":1885,"рам":1886,"провер":1887,"измеритель":1888,"кабельные":1889,"##ентра":1890,"покрытия":1891,"трех":1892,"деятельности":1893,"правительства":1894,"##нг":1895,"##ому":1896,"##ктов":1897,"##иятий":1898,"масс":1899,"показателей":1900,"##дователь":1901,"ост":1902,"шка":1903,"##ять":1904,"##кам":1905,"33":1906,"##фаз":1907,"##ический":1908,"##фикат":1909,"##ственно":1910,"сэ":1911,"##ющее":1912,"199":1913,"датчи":1914,"лест":1915,"отсутств":1916,"неза":1917,"воздуш":1918,"асн":1919,"27":1920,"##уф":1921,"##меня":1922,"короб":1923,"технологического":1924,"принять":1925,"91":1926,"вели":1927,"зтс":1928,"тра":1929,"шир":1930,"##ехни":1931,"кажд":1932,"коррозии":1933,"климатическое":1934,"питания":1935,"генерат":1936,"сам":1937,"эд":1938,"##ри":1939,"основания":1940,"заземления":1941,"корпоративного":1942,"зтсх":1943,"ги":1944,"ес":1945,"кров":1946,"##льные":1947,"нанес":1948,"прир":1949,"продукция":1950,"технологических":1951,"маркиров":1952,"ниже":1953,"присоеди":1954,"лока":1955,"справ":1956,"федеральные":1957,"электроустанов":1958,"изменения":1959,"коэффициент":1960,"если":1961,"26":1962,"че":1963,"##тп":1964,"##мк":1965,"##гота":1966,"##щего":1967,"месте":1968,"арматуры":1969,"рекомендуется":1970,"иден":1971,"##дание":1972,"подтверж":1973,"изготовление":1974,"##мест":1975,"категории":1976,"конструкторской":1977,"запас":1978,"санитарно":1979,"шкаф":1980,"иденти":1981,"то":1982,"##ят":1983,"защи":1984,"устав":1985,"##иня":1986,"дополнитель":1987,"дли":1988,"един":1989,"##ec":1990,"##чек":1991,"изгота":1992,"отход":1993,"##обеж":1994,"2007":1995,"изготовлением":1996,"узлов":1997,"знаки":1998,"##ию":1999,"##ованию":2000,"##оту":2001,"отно":2002,"различ":2003,"федеральных":2004,"абз":2005,"регулировании":2006,"комплекс":2007,"76":2008,"нн":2009,"##ды":2010,"##79":2011,"прям":2012,"объекта":2013,"123":2014,"разработаны":2015,"автоматизации":2016,"потребления":2017,"##носится":2018,"срок":2019,"центробеж":2020,"но":2021,"##лом":2022,"##арий":2023,"выполняться":2024,"высок":2025,"бов":2026,"вза":2027,"сопр":2028,"этом":2029,"##пуска":2030,"##онов":2031,"##лаж":2032,"потребителей":2033,"184":2034,"принцип":2035,"сан":2036,"##ода":2037,"предостав":2038,"ввода":2039,"типовые":2040,"напряжение":2041,"нд":2042,"тп":2043,"##сона":2044,"единства":2045,"муф":2046,"##кор":2047,"##енци":2048,"##ресс":2049,"обогре":2050,"консерва":2051,"соответствие":2052,"персона":2053,"корпуса":2054,"ресурсы":2055,"взрывозащи":2056,"кг":2057,"##ания":2058,"обмот":2059,"профи":2060,"газов":2061,"##розион":2062,"взаим":2063,"34":2064,"##26":2065,"##иров":2066,"установок":2067,"свой":2068,"69":2069,"кле":2070,"мпа":2071,"та":2072,"тор":2073,"цнс":2074,"##ложения":2075,"##ская":2076,"##емый":2077,"##осред":2078,"непосред":2079,"асу":2080,"ва":2081,"##оно":2082,"##кон":2083,"##рас":2084,"##отехни":2085,"##лах":2086,"##ительная":2087,"детали":2088,"нефтепр":2089,"графу":2090,"вносится":2091,"сд":2092,"сре":2093,"##цов":2094,"напор":2095,"##альных":2096,"##ключить":2097,"всех":2098,"приемки":2099,"иных":2100,"##ях":2101,"релей":2102,"клап":2103,"применяться":2104,"выполнять":2105,"фланц":2106,"##стройки":2107,"списков":2108,"нефтепроду":2109,"име":2110,"изве":2111,"##ленных":2112,"защиту":2113,"компресс":2114,"пожароту":2115,"фунда":2116,"версий":2117,"зем":2118,"##71":2119,"сварные":2120,"гид":2121,"кф":2122,"##ью":2123,"##лад":2124,"сосу":2125,"значений":2126,"кфк":2127,"600":2128,"##ск":2129,"##оян":2130,"##ключе":2131,"основных":2132,"уровня":2133,"панелей":2134,"ве":2135,"##чив":2136,"##лиз":2137,"отде":2138,"##езопас":2139,"##обезопас":2140,"указ":2141,"инв":2142,"нефтехимической":2143,"бнг":2144,"моду":2145,"##ских":2146,"стру":2147,"исо":2148,"жил":2149,"ку":2150,"##теп":2151,"избы":2152,"относ":2153,"выше":2154,"##акет":2155,"аппарат":2156,"химической":2157,"рабочих":2158,"ресурс":2159,"совокупности":2160,"справоч":2161,"тек":2162,"##рост":2163,"##щий":2164,"выключ":2165,"##ированием":2166,"данных":2167,"постановлением":2168,"текст":2169,"мер":2170,"##ойчив":2171,"2016":2172,"трубопроводы":2173,"местах":2174,"верх":2175,"взрывоопасных":2176,"последователь":2177,"режиме":2178,"монтажа":2179,"корпоративный":2180,"##ывать":2181,"минималь":2182,"99":2183,"iec":2184,"ргс":2185,"пример":2186,"инт":2187,"выполнения":2188,"конструктивные":2189,"агрегата":2190,"участ":2191,"нефтеперерабатывающей":2192,"гиги":2193,"приложения":2194,"электротехни":2195,"условиях":2196,"температуре":2197,"содержанию":2198,"крепления":2199,"диаметр":2200,"анти":2201,"огне":2202,"физ":2203,"##дения":2204,"##льных":2205,"##отив":2206,"ответств":2207,"##обмен":2208,"##фицирован":2209,"##ндвич":2210,"удг":2211,"сэндвич":2212,"лестниц":2213,"величи":2214,"пласт":2215,"##лон":2216,"надзора":2217,"проекта":2218,"##жение":2219,"строп":2220,"настоящей":2221,"лиц":2222,"температур":2223,"данные":2224,"климатического":2225,"погрузочно":2226,"структ":2227,"384":2228,"##бо":2229,"##ящих":2230,"стали":2231,"сейсмостойкость":2232,"заказной":2233,"конструкторская":2234,"предприятий":2235,"подготовки":2236,"извещ":2237,"ап":2238,"ну":2239,"центра":2240,"##зм":2241,"##ыр":2242,"выполнение":2243,"насосного":2244,"машины":2245,"руч":2246,"принима":2247,"проведения":2248,"течение":2249,"избыточ":2250,"гигиени":2251,"кар":2252,"пи":2253,"пус":2254,"##технадзора":2255,"##пит":2256,"##ологи":2257,"##гортехнадзора":2258,"охла":2259,"токов":2260,"госгортехнадзора":2261,"порядок":2262,"др":2263,"##03":2264,"прод":2265,"огражда":2266,"221":2267,"россий":2268,"превышать":2269,"сопротив":2270,"эти":2271,"заг":2272,"##ари":2273,"разре":2274,"конструированием":2275,"резь":2276,"инструмен":2277,"автоматика":2278,"осуществлению":2279,"внешней":2280,"вентиляции":2281,"связи":2282,"гигиенические":2283,"51":2284,"75":2285,"много":2286,"запол":2287,"поставля":2288,"арматура":2289,"блоки":2290,"ме":2291,"мол":2292,"пакет":2293,"утеп":2294,"##59":2295,"трубопровода":2296,"металл":2297,"активных":2298,"изоляцией":2299,"##пин":2300,"##ники":2301,"обще":2302,"федерации":2303,"трубы":2304,"автомоб":2305,"##ционной":2306,"кабеля":2307,"распрост":2308,"гориз":2309,"покрыти":2310,"приложение":2311,"ящики":2312,"российской":2313,"бу":2314,"шр":2315,"##ическое":2316,"##47":2317,"издание":2318,"комплектации":2319,"использовать":2320,"фай":2321,"энерго":2322,"механизм":2323,"соединитель":2324,"мощности":2325,"эксплуатационных":2326,"количество":2327,"службы":2328,"отходах":2329,"бм":2330,"рот":2331,"чу":2332,"выде":2333,"бытов":2334,"внес":2335,"уровень":2336,"совмест":2337,"открытом":2338,"санпин":2339,"пожаротушения":2340,"длитель":2341,"##вы":2342,"##аточные":2343,"ради":2344,"##олько":2345,"исполне":2346,"номер":2347,"изменений":2348,"выполнена":2349,"соединений":2350,"выбира":2351,"заказчиком":2352,"##уголь":2353,"антикор":2354,"оз":2355,"##бра":2356,"##кцию":2357,"пре":2358,"запор":2359,"##нев":2360,"##ительно":2361,"настоящие":2362,"качестве":2363,"крепеж":2364,"теплообмен":2365,"массой":2366,"горизонта":2367,"добы":2368,"кп":2369,"сва":2370,"##крет":2371,"##льная":2372,"##щик":2373,"ответ":2374,"комму":2375,"гало":2376,"взрывопожар":2377,"обеспечению":2378,"принципы":2379,"персонала":2380,"компрессор":2381,"90":2382,"ак":2383,"иск":2384,"рабочее":2385,"нормативная":2386,"планир":2387,"людей":2388,"классификация":2389,"подшипников":2390,"##ырь":2391,"гл":2392,"как":2393,"цеп":2394,"##ика":2395,"##влив":2396,"##ыка":2397,"##стро":2398,"##кач":2399,"аварий":2400,"условиям":2401,"организа":2402,"постоян":2403,"обслужива":2404,"штуцер":2405,"взрывозащищен":2406,"антикоррозион":2407,"ip":2408,"кк":2409,"##оспособ":2410,"##91":2411,"##лении":2412,"конди":2413,"##тика":2414,"вертика":2415,"оповещения":2416,"дости":2417,"емк":2418,"##тра":2419,"##того":2420,"##вств":2421,"приспособ":2422,"##лами":2423,"производство":2424,"капит":2425,"теплов":2426,"решений":2427,"прочности":2428,"упаковка":2429,"изоляции":2430,"челов":2431,"(«":2432,"бпи":2433,"влаж":2434,"##вп":2435,"##энер":2436,"опис":2437,"перев":2438,"##ющиеся":2439,"металлические":2440,"габаритные":2441,"проектируемых":2442,"распределитель":2443,"электроустановок":2444,"чувств":2445,"чувствитель":2446,"нц":2447,"##отки":2448,"электроп":2449,"типы":2450,"собой":2451,"собствен":2452,"представля":2453,"жидкости":2454,"ннвп":2455,"нефтепродуктов":2456,"##дв":2457,"##24":2458,"##никами":2459,"##ольш":2460,"работоспособ":2461,"месторож":2462,"010":2463,"автоматизированные":2464,"ресиверов":2465,"##агнит":2466,"независим":2467,"озз":2468,"29":2469,"фак":2470,"филь":2471,"##тз":2472,"##тиру":2473,"электром":2474,"##чие":2475,"стандарт":2476,"комплекта":2477,"либо":2478,"воздухе":2479,"нужд":2480,"шриф":2481,"нцдв":2482,"вари":2483,"кры":2484,"##нем":2485,"##гист":2486,"##11":2487,"выпуска":2488,"системе":2489,"##дания":2490,"##щиты":2491,"электроснабжения":2492,"номинальное":2493,"видов":2494,"постановки":2495,"кипиа":2496,"непосредственно":2497,"шрифтом":2498,"кру":2499,"нса":2500,"##люс":2501,"пожарная":2502,"смес":2503,"кондиционир":2504,"00":2505,"88":2506,"поп":2507,"##емости":2508,"проход":2509,"техническая":2510,"##ическими":2511,"устойчив":2512,"##виж":2513,"следующие":2514,"внутри":2515,"отопления":2516,"электродвигателя":2517,"консервации":2518,"95":2519,"##аре":2520,"##акт":2521,"##датель":2522,"##ового":2523,"##тами":2524,"стат":2525,"конструктора":2526,"номинальный":2527,"##урб":2528,"листа":2529,"макросов":2530,"обогрев":2531,"файл":2532,"галочек":2533,"умер":2534,"##еч":2535,"##ению":2536,"конкрет":2537,"закреп":2538,"комплекту":2539,"использования":2540,"режима":2541,"форме":2542,"зат":2543,"эц":2544,"##рок":2545,"##бой":2546,"##нов":2547,"##одный":2548,"##ческую":2549,"объед":2550,"насосы":2551,"необходимости":2552,"контрольно":2553,"внутренней":2554,"технологической":2555,"наиб":2556,"доступа":2557,"рассчита":2558,"среда":2559,"разреш":2560,"автомобиль":2561,"добычи":2562,"эцв":2563,"500":2564,"зоны":2565,"только":2566,"эта":2567,"рав":2568,"опера":2569,"аво":2570,"пожаре":2571,"нефте":2572,"приемо":2573,"горя":2574,"##озаменя":2575,"классификат":2576,"электромагнит":2577,"мог":2578,"су":2579,"##ством":2580,"##иятия":2581,"проектных":2582,"##ющему":2583,"продукцию":2584,"двер":2585,"горю":2586,"поврежде":2587,"отсутствии":2588,"взаимозаменя":2589,"взаимозаменяемости":2590,"ле":2591,"мтз":2592,"плюс":2593,"##ойки":2594,"##дении":2595,"производственной":2596,"схемы":2597,"116":2598,"опасности":2599,"регулиру":2600,"представлены":2601,"сборочных":2602,"кром":2603,"клемм":2604,"ответствен":2605,"могут":2606,"топ":2607,"##уэ":2608,"##фра":2609,"отключение":2610,"сок":2611,"соз":2612,"частей":2613,"производственно":2614,"гарантий":2615,"электротехнические":2616,"##гистра":2617,"##рокли":2618,"*.":2619,"фи":2620,"##исп":2621,"##вой":2622,"##левод":2623,"##ария":2624,"пода":2625,"##жении":2626,"материал":2627,"##огов":2628,"дефект":2629,"##опри":2630,"уплотнения":2631,"срока":2632,"различных":2633,"взрывозащищенное":2634,"##леводор":2635,"втор":2636,"##пн":2637,"операт":2638,"##ющую":2639,"стороны":2640,"замыка":2641,"карка":2642,"рассчитаны":2643,"сокращения":2644,"зип":2645,"##ву":2646,"налич":2647,"##ителя":2648,"отвер":2649,"разработке":2650,"виды":2651,"соответствует":2652,"установленных":2653,"углеводор":2654,"паспорт":2655,"присоединитель":2656,"изготавлива":2657,"крыш":2658,"отверст":2659,"глу":2660,"прокат":2661,"##окон":2662,"преде":2663,"промышленных":2664,"129":2665,"перекач":2666,"предусмотр":2667,"##ойкости":2668,"двери":2669,"##роки":2670,"устройству":2671,"учит":2672,"унифицирован":2673,"меропр":2674,"перевоз":2675,"лен":2676,"##кос":2677,"##енным":2678,"##раны":2679,"конта":2680,"##тизации":2681,"защитного":2682,"терм":2683,"аппараты":2684,"повышения":2685,"энергет":2686,"производиться":2687,"вариан":2688,"300":2689,"##ён":2690,"##ерт":2691,"проб":2692,"##очной":2693,"2004":2694,"стандартизации":2695,"пут":2696,"химических":2697,"атмосфер":2698,"цвета":2699,"фундамен":2700,"час":2701,"##ад":2702,"##ага":2703,"##чис":2704,"нали":2705,"систему":2706,"подбора":2707,"полу":2708,"линия":2709,"места":2710,"приемка":2711,"##вес":2712,"узла":2713,"выдерживать":2714,"требуется":2715,"инвести":2716,"последовательности":2717,"иб":2718,"сроки":2719,"теле":2720,"##70":2721,"##so":2722,"##овки":2723,"##ентов":2724,"##наруж":2725,"##рения":2726,"##лизация":2727,"##кта":2728,"##отв":2729,"##имер":2730,"технологические":2731,"ниж":2732,"отдел":2733,"указыва":2734,"огнест":2735,"заглу":2736,"вру":2737,"##мп":2738,"##вар":2739,"##ца":2740,"##цен":2741,"##изоля":2742,"производств":2743,"работниками":2744,"транспортных":2745,"блочно":2746,"класса":2747,"проводников":2748,"возможности":2749,"внутренние":2750,"133":2751,"плани":2752,"60079":2753,"pn":2754,"код":2755,"мп":2756,"##енной":2757,"##линд":2758,"предель":2759,"подключения":2760,"##ционных":2761,"потенци":2762,"которой":2763,"тепл":2764,"автоматизированная":2765,"крас":2766,"выполнены":2767,"гарант":2768,"освещения":2769,"базе":2770,"величина":2771,"структур":2772,"факель":2773,"вол":2774,"сбора":2775,"##чат":2776,"##эс":2777,"##ём":2778,"##етель":2779,"разв":2780,"проектная":2781,"##ленной":2782,"расход":2783,"авто":2784,"климатические":2785,"решениям":2786,"унификации":2787,"информационная":2788,"молние":2789,"приспособления":2790,"классификатор":2791,"са":2792,"склад":2793,"##ранение":2794,"налива":2795,"##иви":2796,"##очным":2797,"##важ":2798,"##ерий":2799,"##фикацию":2800,"скваж":2801,"присоединя":2802,"используемая":2803,"являются":2804,"цикла":2805,"глосс":2806,"работоспособность":2807,"iso":2808,"##тест":2809,"##даться":2810,"##ека":2811,"##сти":2812,"техническое":2813,"услу":2814,"##раня":2815,"проектиров":2816,"объекты":2817,"основной":2818,"марка":2819,"определяют":2820,"аттест":2821,"##фектив":2822,"прямо":2823,"нефтегаз":2824,"ибп":2825,"07":2826,"56":2827,"го":2828,"##лер":2829,"##чист":2830,"транспорта":2831,"##работки":2832,"трубопроводная":2833,"данного":2834,"заказчика":2835,".),":2836,"относят":2837,"##роклимат":2838,"13330":2839,"02":2840,"54":2841,"зона":2842,"эст":2843,"##яж":2844,"##год":2845,"камер":2846,"утвержденным":2847,"нормативные":2848,"нагрузок":2849,"металлических":2850,"осуществляться":2851,"отопление":2852,"инженерно":2853,"степени":2854,"фланцы":2855,"фикс":2856,"глоссария":2857,"##тей":2858,"##69":2859,"##стр":2860,"метр":2861,"опрос":2862,"##альный":2863,"установить":2864,"2008":2865,"скор":2866,"осуществления":2867,"вибра":2868,"надежность":2869,"внешних":2870,"блоков":2871,"состояния":2872,"анало":2873,"таблички":2874,"положение":2875,"измерительные":2876,"утеплит":2877,"взрывопожароопасных":2878,"##жиль":2879,"##80":2880,"обрат":2881,"соуэ":2882,"##нее":2883,"реали":2884,"подле":2885,"перех":2886,"##онапор":2887,"место":2888,"следующих":2889,"времен":2890,"прокладка":2891,"проводить":2892,"механических":2893,"напряжением":2894,"площадки":2895,"формир":2896,"капитального":2897,"наличии":2898,"наличие":2899,"впн":2900,"пун":2901,"сб":2902,"##ено":2903,"##йки":2904,"##856":2905,"##овь":2906,"наг":2907,"##имость":2908,"##идетель":2909,"применением":2910,"водоснабжения":2911,"прокладке":2912,"узл":2913,"помещении":2914,"устанавливают":2915,"показатели":2916,"автоматизированных":2917,"силового":2918,"порядке":2919,"вновь":2920,"природного":2921,"месторожде":2922,"84":2923,"нер":2924,"очист":2925,"сек":2926,"##тых":2927,"##коп":2928,"##емое":2929,"##спла":2930,"##вания":2931,"##лена":2932,"основе":2933,"##ейсмостойк":2934,"характеристика":2935,"одной":2936,"одного":2937,"воздействии":2938,"районов":2939,"заземля":2940,"##259":2941,"несейсмостойк":2942,"принимать":2943,"степень":2944,"относительная":2945,"человек":2946,"39":2947,"##66":2948,"##льной":2949,"оборудованию":2950,"подъем":2951,"##орам":2952,"экра":2953,"эксперт":2954,"102":2955,"указаниях":2956,"##евого":2957,"150":2958,"технология":2959,"грун":2960,"регулирования":2961,"точности":2962,"ступени":2963,"колеба":2964,"меся":2965,"##энерг":2966,"ув":2967,"##зы":2968,"##ким":2969,"##льным":2970,"##руш":2971,"##онные":2972,"отключения":2973,"ней":2974,"##изу":2975,"осна":2976,"##ольт":2977,"пола":2978,"транспортом":2979,"расчеты":2980,"температура":2981,"болтов":2982,"взрывобезопас":2983,"мощность":2984,"герметичность":2985,"33259":2986,"кровли":2987,"свойств":2988,"релейная":2989,"чувствительности":2990,"прямоуголь":2991,"04":2992,"догов":2993,"эф":2994,"##рит":2995,"оборудованием":2996,"предотв":2997,"эксплуатацию":2998,"автоматические":2999,"использованием":3000,"друг":3001,"машина":3002,"них":3003,"рисун":3004,"уплотнитель":3005,"##ума":3006,"сохранность":3007,"несущая":3008,"трасс":3009,"генератора":3010,"сдаточные":3011,"нераз":3012,"оцен":3013,"уда":3014,"щит":3015,"подачи":3016,"2017":3017,"##денс":3018,"строительного":3019,"##класс":3020,"взрывоопас":3021,"вентиляция":3022,"низк":3023,"##образов":3024,"заглуш":3025,"сау":3026,"лак":3027,"ути":3028,"хоз":3029,"##тые":3030,"проп":3031,"##вода":3032,"подкласс":3033,"электрической":3034,"закуп":3035,"заводе":3036,"помощ":3037,"потол":3038,"макроклимат":3039,"сигнальные":3040,"спецификация":3041,"аппаратов":3042,"програм":3043,"выполнением":3044,"стенки":3045,"составляет":3046,"внтп":3047,"рассчит":3048,"разгрузочных":3049,"влажность":3050,"фильтр":3051,"ответственность":3052,"несейсмостойкое":3053,"помощью":3054,"асп":3055,"бесп":3056,"ним":3057,"роз":3058,"удар":3059,"##ох":3060,"##ака":3061,"##яй":3062,"пог":3063,"вычис":3064,"##ственное":3065,"элемент":3066,"изготовителе":3067,"электроэнерг":3068,"террит":3069,"противопожарного":3070,"131":3071,"ограни":3072,"знак":3073,"люб":3074,"позд":3075,"результатов":3076,"избыточным":3077,"молниеза":3078,"сауиз":3079,"хозяй":3080,"территор":3081,"41":3082,"ша":3083,"шиф":3084,"##мата":3085,"##29":3086,"##орон":3087,"##еред":3088,"##ительных":3089,"утверждении":3090,"##ционные":3091,"предусмотре":3092,"единич":3093,"вида":3094,"заземление":3095,"категория":3096,"отдельных":3097,"трансформатора":3098,"охранной":3099,"выполненная":3100,"предоставления":3101,"распространя":3102,"изготавливающая":3103,"инвестиционной":3104,"326":3105,"встро":3106,"ик":3107,"сж":3108,"##би":3109,"##жности":3110,"##ностей":3111,"электрических":3112,"работу":3113,"сетей":3114,"спецификацию":3115,"является":3116,"россии":3117,"формирования":3118,"датчиков":3119,"##ологической":3120,"месторождений":3121,"250":3122,"вос":3123,"коз":3124,"мел":3125,"нг":3126,"##гать":3127,"##струкции":3128,"##огра":3129,"перекры":3130,"следующему":3131,"единые":3132,"технологическая":3133,"240":3134,"24856":3135,"соблю":3136,"теплоизоля":3137,"обеспечении":3138,"сохранять":3139,"##ятся":3140,"защища":3141,"справочника":3142,"огнестойкости":3143,"опросного":3144,"36":3145,"вед":3146,"##пис":3147,"##ией":3148,"##92":3149,"##ором":3150,"##лений":3151,"##каза":3152,"##ству":3153,"прибора":3154,"изы":3155,"изол":3156,"##ительные":3157,"##ированной":3158,"разработан":3159,"автоматики":3160,"область":3161,"##нирован":3162,"1425":3163,"активировать":3164,"сечения":3165,"сертификации":3166,"частоты":3167,"изменяемые":3168,"муфты":3169,"ресурсам":3170,"текстовые":3171,"коммуника":3172,"средах":3173,"операций":3174,"12971":3175,"красным":3176,"эстака":3177,"78":3178,"»)":3179,"вин":3180,"дор":3181,"зоне":3182,"нуле":3183,"фаз":3184,"целей":3185,"##ьш":3186,"##77":3187,"отключить":3188,"##аса":3189,"конц":3190,"рекон":3191,"методи":3192,"поддерж":3193,"##ходя":3194,"пожарный":3195,"комплектность":3196,"сигнализация":3197,"применяемые":3198,"безопасностью":3199,"графические":3200,"3156":3201,"переменные":3202,"составлять":3203,"##фазного":3204,"кпг":3205,"планиров":3206,"подклассу":3207,"31565":3208,"ад":3209,"мед":3210,"шта":3211,"##щему":3212,"##значе":3213,"##льный":3214,"призна":3215,"указаны":3216,"определение":3217,"##горю":3218,"процессов":3219,"032":3220,"районах":3221,"предусматрива":3222,"проверка":3223,"подтверждаться":3224,"ротора":3225,"постоянного":3226,"описания":3227,"кондиционирование":3228,"сброс":3229,"поздних":3230,"52":3231,"dn":3232,"чт":3233,"##ряд":3234,"##овод":3235,"##нок":3236,"##орта":3237,"##льно":3238,"непр":3239,"условию":3240,"##ительной":3241,"защите":3242,"пожара":3243,"##ционный":3244,"характерных":3245,"сварных":3246,"процесса":3247,"предназначе":3248,"сторон":3249,"силовых":3250,"группы":3251,"привода":3252,"энергии":3253,"повреждения":3254,"электроэнергии":3255,"бок":3256,"всп":3257,"нед":3258,"плот":3259,"среде":3260,"эм":3261,"##ацией":3262,"##ватель":3263,"##нет":3264,"##чер":3265,"##чей":3266,"##орот":3267,"##льного":3268,"##емыми":3269,"нагре":3270,"##ровых":3271,"экологической":3272,"авр":3273,"установку":3274,"строительство":3275,"элемента":3276,"всем":3277,"технологическим":3278,"технологическими":3279,"содержат":3280,"нефтеперерабатывающих":3281,"охлаждения":3282,"дрена":3283,"организаций":3284,"##ерийного":3285,"макроклиматического":3286,"14254":3287,"чтобы":3288,"турб":3289,"ук":3290,"шар":3291,"##рими":3292,"##ерф":3293,"##етра":3294,"##опод":3295,"##окрас":3296,"техники":3297,"##обет":3298,"##щены":3299,"##куму":3300,"учета":3301,"нормативы":3302,"агрегатов":3303,"группе":3304,"государственная":3305,"плос":3306,"цилинд":3307,"расстояние":3308,"широк":3309,"металлокон":3310,"##косерийного":3311,"лакокрас":3312,"единичного":3313,"мелкосерийного":3314,"двиг":3315,"пить":3316,"тэ":3317,"##паз":3318,"##зем":3319,"##олет":3320,"##лия":3321,"##ития":3322,"конденс":3323,"##очная":3324,"##рых":3325,"указанием":3326,"компен":3327,"##ковольт":3328,"изделие":3329,"исключить":3330,"испытаниям":3331,"диапаз":3332,"отдельности":3333,"низковольт":3334,"железобет":3335,"интерф":3336,"ограждающих":3337,"свай":3338,"контакт":3339,"формировании":3340,"нейтра":3341,"##ередачи":3342,"05":3343,"включа":3344,"даты":3345,"ест":3346,"хранение":3347,"эп":3348,"##теж":3349,"##иб":3350,"##ием":3351,"##се":3352,"##вяз":3353,"##ями":3354,"##ура":3355,"##83":3356,"##енный":3357,"##ованы":3358,"отстройки":3359,"негорю":3360,"проектным":3361,"предох":3362,"определенных":3363,"кабели":3364,"перегруз":3365,"рабочего":3366,"контрольные":3367,"включать":3368,"чертеж":3369,"процессе":3370,"категорией":3371,"наружного":3372,"нефтехимических":3373,"минус":3374,"расположение":3375,"паров":3376,"передачи":3377,"высоте":3378,"сопротивление":3379,"длительного":3380,"автомобильным":3381,"потенциа":3382,"колебания":3383,"эффектив":3384,"вращения":3385,"иные":3386,"##ес":3387,"##иэ":3388,"##енными":3389,"##омог":3390,"законо":3391,"##ированных":3392,"##ированного":3393,"##борные":3394,"заводской":3395,"управление":3396,"газо":3397,"кабельной":3398,"автоматического":3399,"внутреннего":3400,"смаз":3401,"приложений":3402,"стороне":3403,"##еребой":3404,"ремонтопри":3405,"государственные":3406,"позв":3407,"торцев":3408,"сосуды":3409,"нагнет":3410,"очистки":3411,"бесперебой":3412,"вспомог":3413,"##кумуля":3414,"законодатель":3415,"ремонтопригод":3416,"вспомогатель":3417,"коль":3418,"ряд":3419,"чем":3420,"швы":3421,"##оект":3422,"##диви":3423,"##чно":3424,"##нные":3425,"##олож":3426,"##окол":3427,"сто":3428,"экран":3429,"защитные":3430,"таблицей":3431,"индиви":3432,"##ыше":3433,"комприми":3434,"свыше":3435,"153":3436,"протокол":3437,"##ованности":3438,"блочного":3439,"транспортированию":3440,"012":3441,"оболочки":3442,"функциональный":3443,"аналит":3444,"холодного":3445,"коррозионно":3446,"лестницы":3447,"продоль":3448,"покрытием":3449,"достигать":3450,"электропередачи":3451,"дефектов":3452,"унифицированного":3453,"энергетической":3454,"взрывобезопасности":3455,"позволя":3456,"индивиду":3457,"67":3458,"каса":3459,"##вов":3460,"##онных":3461,"##осн":3462,"перераб":3463,"##ственных":3464,"полит":3465,"настоящего":3466,"своб":3467,"окра":3468,"котором":3469,"магистра":3470,"##ываться":3471,"освещение":3472,"эвакуацион":3473,"апс":3474,"соединительных":3475,"гарантии":3476,"развития":3477,"есте":3478,"аналитических":3479,"»;":3480,"ач":3481,"слива":3482,"##яв":3483,"##овер":3484,"##ремен":3485,"уси":3486,"##альное":3487,"перим":3488,"средство":3489,"утвержденное":3490,"климата":3491,"перегор":3492,"разработку":3493,"формы":3494,"номинальной":3495,"номинальная":3496,"монтажных":3497,"достат":3498,"соответствующих":3499,"крепление":3500,"присоединения":3501,"расчетами":3502,"неск":3503,"сейсмических":3504,"канализации":3505,"удоб":3506,"надё":3507,"##ология":3508,"эвакуацией":3509,"##ского":3510,"планирования":3511,"программи":3512,"ачр":3513,"перегород":3514,"61":3515,"аг":3516,"бал":3517,"жест":3518,"они":3519,"тон":3520,"трос":3521,"##кости":3522,"##ступ":3523,"##нод":3524,"##овар":3525,"загаз":3526,"##орами":3527,"1000":3528,"##ированный":3529,"поставщик":3530,"котл":3531,"характеристик":3532,"один":3533,"охраны":3534,"узлы":3535,"##ерыв":3536,"эксплуатационные":3537,"атмосферы":3538,"533":3539,"пози":3540,"указанных":3541,"##ские":3542,"уставки":3543,"таких":3544,"выбирается":3545,"выпускаемой":3546,"лег":3547,"гарантийный":3548,"перекачива":3549,"вычислитель":3550,"молниезащиты":3551,"касающиеся":3552,"вред":3553,"офици":3554,"сырь":3555,"ту":3556,"шп":3557,"опт":3558,"стой":3559,"старения":3560,"документацией":3561,"производитель":3562,"производится":3563,"типовой":3564,"##ссив":3565,"##чик":3566,"станция":3567,"устанавливающие":3568,"доступные":3569,"электрооборудования":3570,"штуцеров":3571,"выборе":3572,"совместимость":3573,"исполнению":3574,"емкост":3575,"кругу":3576,"предназначены":3577,"широкому":3578,"загазованности":3579,"официальные":3580,")-":3581,"45":3582,"79":3583,"дист":3584,"пт":3585,"удов":3586,"шина":3587,"##бя":3588,"##станов":3589,"##ента":3590,"##летв":3591,"##цин":3592,"зада":3593,"зажим":3594,"проем":3595,"предуп":3596,"стены":3597,"полы":3598,"окна":3599,"расчетом":3600,"исключа":3601,"внутренних":3602,"деталя":3603,"рабочие":3604,"себя":3605,"краны":3606,"используется":3607,"резерву":3608,"патрубки":3609,"оповещ":3610,"##актив":3611,"неразборные":3612,"##ограф":3613,"бесперебойного":3614,"окраш":3615,"надёжности":3616,"сырья":3617,"дистан":3618,"удовлетв":3619,"удовлетвор":3620,"рэ":3621,"чист":3622,"##ание":3623,"##кость":3624,"##уз":3625,"##ована":3626,"##ческим":3627,"прож":3628,"контей":3629,"подвод":3630,"документ":3631,"##метка":3632,"первич":3633,"свидетель":3634,"##ционного":3635,"производственное":3636,"характеристикам":3637,"уплотнений":3638,"5046":3639,"программное":3640,"идентификация":3641,"клапана":3642,"энергос":3643,"аккумуля":3644,"##вливаться":3645,"умеренного":3646,"повреждений":3647,"учитывать":3648,"мероприятия":3649,"подлежа":3650,"экрана":3651,"прямоугольные":3652,"договора":3653,"розет":3654,"непрерыв":3655,"70":3656,"визу":3657,"дни":3658,"дер":3659,"доб":3660,"плит":3661,"##иков":3662,"##чая":3663,"##яда":3664,"##32":3665,"##ником":3666,"##овое":3667,"обвяз":3668,"##емому":3669,"отве":3670,"выз":3671,"вывод":3672,"##имости":3673,"насосных":3674,"##евя":3675,"допус":3676,"здание":3677,"расположения":3678,"##верд":3679,"160":3680,"наружной":3681,".).":3682,"совокупность":3683,"холод":3684,"заданное":3685,"центробежных":3686,"искус":3687,"##вливать":3688,"обогревателей":3689,"горяче":3690,"утеплителя":3691,"реализации":3692,"переход":3693,"390":3694,"рисунке":3695,"компенс":3696,"интерфейс":3697,"переработки":3698,"контейнер":3699,"деревя":3700,"28":3701,"диф":3702,"лот":3703,"мно":3704,"нем":3705,"пуска":3706,"##той":3707,"##кован":3708,"##ших":3709,"##сн":3710,"##чную":3711,"##фер":3712,"##цеп":3713,"##64":3714,"##енно":3715,"##емым":3716,"заме":3717,"##зацию":3718,"##ожух":3719,"обозначении":3720,"привар":3721,"снижения":3722,"узел":3723,"входной":3724,"выполняется":3725,"141":3726,"помещение":3727,"включительно":3728,"процессом":3729,"197":3730,"край":3731,"жидкост":3732,"трансформатор":3733,"атмосфере":3734,"запасные":3735,"обслуживание":3736,"углеводородного":3737,"атмосферного":3738,"другим":3739,"вяз":3740,"гот":3741,"дуг":3742,"пв":3743,"рт":3744,"сн":3745,"утр":3746,"чет":3747,"что":3748,"это":3749,"##347":3750,"нап":3751,"условном":3752,"предпол":3753,"осмот":3754,"защитных":3755,"гайки":3756,"корот":3757,"линей":3758,"##устрой":3759,"арх":3760,"типовых":3761,"данным":3762,"размещение":3763,"2311":3764,"корпусе":3765,"##ателям":3766,"выбир":3767,"рассматр":3768,"предпроект":3769,"работающих":3770,"отклон":3771,"34347":3772,"модулей":3773,"апв":3774,"принимается":3775,"территории":3776,"##иэти":3777,"23118":3778,"59":3779,"дня":3780,"же":3781,"кожух":3782,"тверд":3783,"##бель":3784,"##лле":3785,"##лой":3786,"##уш":3787,"##гран":3788,"##гора":3789,"##98":3790,"##чет":3791,"обе":3792,"эконо":3793,"авт":3794,"##равни":3795,"##чих":3796,"2001":3797,"строительная":3798,"##оваться":3799,"паралле":3800,"сигнальная":3801,"##щается":3802,"максимальной":3803,"нефтяных":3804,"нефтехимии":3805,"оболочками":3806,"клапан":3807,"##ключением":3808,"инструменты":3809,"выделены":3810,"затв":3811,"##вуков":3812,"путем":3813,"вручную":3814,"экспертиз":3815,"козырь":3816,"ремонтопригодности":3817,"14192":3818,"предполага":3819,"экономи":3820,"ге":3821,"ква":3822,"тяже":3823,"шлей":3824,"юр":3825,"##гности":3826,"##ческий":3827,"неиз":3828,"##очное":3829,"разметка":3830,"##лектив":3831,"правилами":3832,"газовых":3833,"током":3834,"арм":3835,"груза":3836,"##ателями":3837,"агрегат":3838,"мощностью":3839,"осуществляется":3840,"высота":3841,"воздушных":3842,"носят":3843,"планирование":3844,"конкретного":3845,"наибольш":3846,"электромагнитная":3847,"присоединительные":3848,"отверстия":3849,"аспс":3850,"шлейф":3851,"юрид":3852,"09":3853,"86":3854,"дым":3855,"крат":3856,"##инение":3857,"##св":3858,"##уется":3859,"##остан":3860,"конту":3861,"##дающих":3862,"##ленные":3863,"сты":3864,"##орах":3865,"компонов":3866,"трубах":3867,"сеть":3868,"монтажу":3869,"2366":3870,"содержание":3871,"наружных":3872,"эксплуатационная":3873,"углер":3874,"плат":3875,"светиль":3876,"единицы":3877,"ступен":3878,"разгрузочные":3879,"железнод":3880,"свойства":3881,"ваго":3882,"релейной":3883,"веще":3884,"выбираются":3885,"ответных":3886,"независимо":3887,"комплектующих":3888,"пределах":3889,"автоном":3890,"погруж":3891,"восстанов":3892,"предохра":3893,"##цинкован":3894,"23660":3895,"железнодорож":3896,"32":3897,"48":3898,"зон":3899,"им":3900,"меры":3901,"##си":3902,"##on":3903,"##стан":3904,"##олов":3905,"обустрой":3906,"##еми":3907,"приём":3908,"##менные":3909,"##альная":3910,"разбор":3911,"подзем":3912,"старых":3913,"электрические":3914,"##ированные":3915,"параметра":3916,"болты":3917,"регламен":3918,"входит":3919,"районы":3920,"процессами":3921,"диагности":3922,"переме":3923,"точке":3924,"охранно":3925,"ступень":3926,"рамках":3927,"самоза":3928,"физическое":3929,"преобразов":3930,"этап":3931,"ленты":3932,"проектировщик":3933,"дренаж":3934,"пвх":3935,"55":3936,"гр":3937,"шаб":3938,"##бу":3939,"##кл":3940,"##кол":3941,"##кого":3942,"##чности":3943,"выпа":3944,"особ":3945,"##фик":3946,"##ственным":3947,"полностью":3948,"##гиб":3949,"##идеми":3950,"##инами":3951,"размеров":3952,"которого":3953,"стальной":3954,"##пуск":3955,"устанавливается":3956,"осуществлять":3957,"##ироваться":3958,"раздела":3959,"сертификат":3960,"патрубков":3961,"расстоянии":3962,"модель":3963,"модели":3964,"уставок":3965,"каркаса":3966,"аттестации":3967,"вибрации":3968,"##онапорных":3969,"##оподъем":3970,"эпидеми":3971,"диффер":3972,"дифференци":3973,"94":3974,"гц":3975,"год":3976,"ктп":3977,"слож":3978,"тя":3979,"##at":3980,"обосн":3981,"##лав":3982,"отказ":3983,"методом":3984,"##ленность":3985,"электри":3986,"электростан":3987,"установлены":3988,"работе":3989,"комплекте":3990,"климатология":3991,"##ованных":3992,"воздействию":3993,"виду":3994,"вентилят":3995,"соединение":3996,"предназначенное":3997,"##огрева":3998,"##стройка":3999,"ремонте":4000,"функциональным":4001,"сертифик":4002,"моди":4003,"толщина":4004,"каждого":4005,"отноше":4006,"веществ":4007,"справочник":4008,"строповки":4009,"лицо":4010,"продолж":4011,"бытовых":4012,"кроме":4013,"замыкания":4014,"##спламеня":4015,"коммуникаций":4016,"потенциалов":4017,"позиций":4018,"осмотра":4019,"пан":4020,"саль":4021,"циф":4022,"шин":4023,"шум":4024,"этого":4025,"##вед":4026,"##31":4027,"обработки":4028,"пони":4029,"погре":4030,"предвар":4031,"стол":4032,"материальное":4033,"промышленная":4034,"##няя":4035,"повтор":4036,"комплектности":4037,"приведен":4038,"например":4039,"технологический":4040,"случая":4041,"3024":4042,"10198":4043,"обеспечивающие":4044,"действующий":4045,"подразделения":4046,"трап":4047,"обмоток":4048,"профили":4049,"##скатель":4050,"заполнение":4051,"увели":4052,"предотвращения":4053,"изыскатель":4054,"##иэтилен":4055,"погреш":4056,"400":4057,"77":4058,"гну":4059,"дисп":4060,"кгс":4061,"оформ":4062,"##чных":4063,"##уры":4064,"##етр":4065,"обнаруж":4066,"выбора":4067,"технико":4068,"опти":4069,"##очном":4070,"компон":4071,"температурой":4072,"которое":4073,"посад":4074,"приемку":4075,"токовая":4076,"горлов":4077,"максимальное":4078,"##ческому":4079,"обеспечиваемые":4080,"площадок":4081,"диаметра":4082,"обязательными":4083,"сосудов":4084,"жилых":4085,"выключателя":4086,"охлажде":4087,"подача":4088,"предусмотрены":4089,"ведом":4090,"нулевой":4091,"политика":4092,"агентов":4093,"резервуар":4094,"деревянные":4095,"готов":4096,"влия":4097,"нв":4098,"цел":4099,"язы":4100,"##ация":4101,"##дён":4102,"##сь":4103,"настройки":4104,"раст":4105,"опн":4106,"системой":4107,"104":4108,"##равли":4109,"2005":4110,"пожарные":4111,"указаниями":4112,"утверждён":4113,"##ционная":4114,"основного":4115,"водопровод":4116,"изделиям":4117,"одном":4118,"друго":4119,"применяемых":4120,"контрольных":4121,"сварка":4122,"качество":4123,"графи":4124,"внешнего":4125,"металлической":4126,"огранич":4127,"учё":4128,"##оснабжение":4129,"автоматизированной":4130,"средствами":4131,"герметичности":4132,"допустимых":4133,"##ологические":4134,"профиля":4135,"фундамент":4136,"гидравли":4137,"извещатель":4138,"сопротивления":4139,"структурные":4140,"зонах":4141,"сжи":4142,"птк":4143,"проживания":4144,"юридическое":4145,"вещества":4146,"предохранитель":4147,"вит":4148,"вклад":4149,"дз":4150,"клю":4151,"нп":4152,"оказ":4153,"ур":4154,"##тных":4155,"##ини":4156,"##34":4157,"прост":4158,"##олее":4159,"отмет":4160,"##сящие":4161,"##вая":4162,"##тие":4163,"##атаный":4164,"гал":4165,"##редством":4166,"##елях":4167,"##огенерат":4168,"воздухом":4169,"размерам":4170,"посредством":4171,"масля":4172,"масса":4173,"##шего":4174,"объемно":4175,"силовые":4176,"минер":4177,"выбором":4178,"одножиль":4179,"обязательны":4180,"закрыты":4181,"инженерных":4182,"генератор":4183,"нанесена":4184,"смесей":4185,"объединя":4186,"наиболее":4187,"гофра":4188,"случаях":4189,")/":4190,"дис":4191,"сев":4192,"сорта":4193,"##ром":4194,"##23":4195,"##44":4196,"обна":4197,"обли":4198,"общему":4199,"##отреб":4200,"отправ":4201,"подвер":4202,"##ораз":4203,"перена":4204,"станов":4205,"станций":4206,"воздуху":4207,"расчетов":4208,"схеме":4209,"исходя":4210,"действие":4211,"назем":4212,"поверки":4213,"внешние":4214,"способом":4215,"установленным":4216,"установленными":4217,"рекоменда":4218,"мик":4219,"рабочая":4220,"численность":4221,"сейсмичности":4222,"переменного":4223,"разделов":4224,"переда":4225,"работающего":4226,"образцов":4227,"комплек":4228,"крит":4229,"руководство":4230,"ппк":4231,"толщиной":4232,"источник":4233,"рамного":4234,"основаниях":4235,"изготавливаться":4236,"исполнении":4237,"2991":4238,"устойчивость":4239,"горюче":4240,"топлив":4241,"##весных":4242,"машинам":4243,"штамп":4244,"периметра":4245,"несколь":4246,"рассматрива":4247,"облицов":4248,"перенапр":4249,"%.":4250,"64":4251,"больш":4252,"ген":4253,"два":4254,"исс":4255,"снаруж":4256,"целях":4257,"##бина":4258,"##шнев":4259,"##чена":4260,"##вс":4261,"##ваться":4262,"##гов":4263,"##эг":4264,"##].":4265,"##аточных":4266,"##емом":4267,"##ава":4268,"системат":4269,"возник":4270,"##метры":4271,"системами":4272,"##иться":4273,"2006":4274,"2000":4275,"объекту":4276,"транспортиру":4277,"изготовлении":4278,"водо":4279,"##ованного":4280,"маг":4281,"##нима":4282,"вводы":4283,"согласования":4284,"действий":4285,"сигнал":4286,"противор":4287,"устанавливать":4288,"устройствами":4289,"сервис":4290,"##ющийся":4291,"поверхность":4292,"поверхностей":4293,"конструктивных":4294,"селектив":4295,"запре":4296,"сейсмического":4297,"паспорте":4298,"несущие":4299,"ширина":4300,"локальные":4301,"обмотки":4302,"пусков":4303,"общественных":4304,"запорной":4305,"статического":4306,"объединение":4307,"скважин":4308,"камеры":4309,"пункт":4310,"взрывоопасной":4311,"утилизации":4312,"цилиндр":4313,"компримирован":4314,"множе":4315,"крайнего":4316,"предполагает":4317,"разборки":4318,"модифика":4319,"диспет":4320,"нвг":4321,"севера":4322,"обнару":4323,"иссле":4324,"снаружи":4325,"325":4326,"биб":4327,"ипр":4328,"мв":4329,"оцинкован":4330,"тар":4331,"шт":4332,"##иной":4333,"##сов":4334,"##явля":4335,"##раща":4336,"##лиограф":4337,"##мини":4338,"##изированный":4339,"методика":4340,"подстан":4341,"строя":4342,"корид":4343,"промеж":4344,"утвержденный":4345,"комплектное":4346,"1584":4347,"протека":4348,"последу":4349,"использование":4350,"технологии":4351,"изменению":4352,"коллект":4353,"входить":4354,"проводов":4355,"максимальная":4356,"сборки":4357,"упаковки":4358,"жидкость":4359,"действующих":4360,"работающее":4361,"электродвигатель":4362,"эвакуации":4363,"##рическая":4364,"идентификации":4365,"длина":4366,"пуск":4367,"ограждающие":4368,"инструментов":4369,"крепежных":4370,"приборам":4371,"админи":4372,"признаку":4373,"сброса":4374,"экранов":4375,"программиру":4376,"тонкол":4377,"удовлетворять":4378,"добав":4379,"##равнивания":4380,"сложных":4381,"панель":4382,"готовности":4383,"объединяемых":4384,"сортамент":4385,"систематизированный":4386,"множество":4387,"библиограф":4388,"мвт":4389,"промежут":4390,"тонколист":4391,"библиография":4392,"06":4393,"83":4394,"»].":4395,"даль":4396,"оди":4397,"сч":4398,"сня":4399,"тм":4400,"цист":4401,"##пв":4402,"##яза":4403,"##жных":4404,"##ar":4405,"##ателем":4406,"налив":4407,"##иту":4408,"неисп":4409,"##нением":4410,"технике":4411,"конце":4412,"##очный":4413,"указание":4414,"электриче":4415,"##равн":4416,"необходимость":4417,"пересе":4418,"клапа":4419,"##ланса":4420,"функции":4421,"форму":4422,"соответствующего":4423,"устанавливающий":4424,"предназначена":4425,"приложении":4426,"фланцевых":4427,"количества":4428,"трансформаторов":4429,"образом":4430,"руководящих":4431,"превыша":4432,"расстояния":4433,"материалами":4434,"изменяются":4435,"воздушного":4436,"каждой":4437,"обогрева":4438,"##консерва":4439,"5147":4440,"кпд":4441,"сваи":4442,"тепловой":4443,"разрешительная":4444,"второй":4445,"перевозки":4446,"линиях":4447,"месяцев":4448,"шай":4449,"перекрытия":4450,"индивидуальный":4451,"предупре":4452,"приёмку":4453,"сальников":4454,"гофрами":4455,"становятся":4456,"противореч":4457,"запрещается":4458,"администр":4459,"цистер":4460,"электричества":4461,"51474":4462,"82":4463,"»:":4464,"бк":4465,"дем":4466,"ол":4467,"оче":4468,"пли":4469,"план":4470,"сим":4471,"смет":4472,"сух":4473,"##ооб":4474,"##воз":4475,"##81":4476,"##529":4477,"##стить":4478,"##ерации":4479,"##рем":4480,"##омб":4481,"##лага":4482,"##щика":4483,"осв":4484,"##ленным":4485,"перв":4486,"##матель":4487,"полной":4488,"полиэтилен":4489,"условиями":4490,"##евид":4491,"##ционное":4492,"испытание":4493,"##огда":4494,"входя":4495,"решет":4496,"град":4497,"##ециевид":4498,"включить":4499,"внешним":4500,"способное":4501,"содержащий":4502,"рекомендатель":4503,"показателям":4504,"305":4505,"химически":4506,"факторы":4507,"предприни":4508,"предназначенных":4509,"60529":4510,"обязательном":4511,"результаты":4512,"свету":4513,"природ":4514,"земле":4515,"поставляться":4516,"бук":4517,"собственных":4518,"представляющий":4519,"топлива":4520,"волс":4521,"закупке":4522,"32603":4523,"шаровые":4524,"трапециевид":4525,"изыскательские":4526,"15846":4527,"административ":4528,"рекомендательный":4529,"предприниматель":4530,"вд":4531,"мом":4532,"пн":4533,"счет":4534,"шва":4535,"##чать":4536,"##ню":4537,"##унок":4538,"##нист":4539,"пролож":4540,"##ствоваться":4541,"предъ":4542,"подключ":4543,"подвиж":4544,"##лендар":4545,"гаек":4546,"инте":4547,"полимер":4548,"##куля":4549,"поставить":4550,"##ивации":4551,"календар":4552,"окрас":4553,"приемно":4554,"сигнала":4555,"законных":4556,"сварки":4557,"##504":4558,"1491":4559,"##ница":4560,"специализ":4561,"специального":4562,"располаг":4563,"три":4564,"максимального":4565,"рисунок":4566,"16504":4567,"секции":4568,"графических":4569,"распоряд":4570,"##баланса":4571,"##образования":4572,"повышенной":4573,"руководствоваться":4574,"контроле":4575,"толщины":4576,"центробежные":4577,"предоставля":4578,"резьбы":4579,"распространения":4580,"выделя":4581,"цепи":4582,"созда":4583,"фундаментов":4584,"тепловая":4585,"факельных":4586,"встроенных":4587,"концентра":4588,"обеча":4589,"выпадающих":4590,"32569":4591,"противоречить":4592,"14918":4593,"020":4594,"ал":4595,"зп":4596,"лет":4597,"мор":4598,"уточ":4599,"##бив":4600,"##лок":4601,"##246":4602,"##кие":4603,"##начен":4604,"##лика":4605,"##отор":4606,"излож":4607,"отс":4608,"##зап":4609,"##нении":4610,"##анк":4611,"условии":4612,"##альном":4613,"##ирование":4614,"##очки":4615,"стойки":4616,"необходимых":4617,"силами":4618,"##висящие":4619,"который":4620,"приема":4621,"определяются":4622,"автоматическое":4623,"провода":4624,"##ывается":4625,"установленной":4626,"устанавливаются":4627,"конструктивным":4628,"принятых":4629,"факторам":4630,"являющийся":4631,"##щенности":4632,"оболочкой":4633,"взрывозащиты":4634,"надпис":4635,"указанные":4636,"принципи":4637,"плк":4638,"холодный":4639,"контролл":4640,"выполненными":4641,"1998":4642,"коробки":4643,"коробок":4644,"электроустановки":4645,"земли":4646,"гидро":4647,"резьб":4648,"резьба":4649,"внесения":4650,"крепежные":4651,"собственными":4652,"комплектацию":4653,"сумм":4654,"часов":4655,"реконструкции":4656,"тэр":4657,"##839":4658,"53325":4659,"интерфейса":4660,"отклонение":4661,"5959":4662,"отношению":4663,"распорядительные":4664,"лсу":4665,"ош":4666,"пб":4667,"##кну":4668,"##ики":4669,"##вол":4670,"##вых":4671,"##нему":4672,"##».":4673,"##атор":4674,"##лью":4675,"##емую":4676,"наход":4677,"##отурб":4678,"присв":4679,"##опор":4680,"выда":4681,"спэ":4682,"##метр":4683,"##инх":4684,"##ственной":4685,"##ственного":4686,"основой":4687,"##000":4688,"управля":4689,"125":4690,"##алли":4691,"мано":4692,"исключения":4693,"дву":4694,"сетях":4695,"пути":4696,"покрытий":4697,"корпусов":4698,"отдельному":4699,"упаковку":4700,"сейсмическую":4701,"замкну":4702,"проектируемому":4703,"ипт":4704,"заданных":4705,"трехфазного":4706,"19903":4707,"маркировки":4708,"таким":4709,"вала":4710,"текстовых":4711,"механизмы":4712,"аварийного":4713,"оператив":4714,"мероприятий":4715,"кодек":4716,"присоединяемого":4717,"хозяйственно":4718,"разработанной":4719,"предусматривается":4720,"перегрузки":4721,"шинах":4722,"шаблон":4723,"нескольких":4724,"демонта":4725,"):":4726,"..":4727,"42":4728,"65":4729,"бума":4730,"вла":4731,"года":4732,"мк":4733,"шс":4734,"##рон":4735,"##es":4736,"##овыми":4737,"##ентар":4738,"##оло":4739,"нау":4740,"настройка":4741,"##ческими":4742,"##едения":4743,"показа":4744,"отвод":4745,"отвода":4746,"выпуск":4747,"концев":4748,"##анных":4749,"регистра":4750,"2020":4751,"##ированы":4752,"указано":4753,"##ленная":4754,"электрическим":4755,"##ину":4756,"эксплика":4757,"полез":4758,"комплектных":4759,"окон":4760,"газотурб":4761,"элементами":4762,"##ованные":4763,"##горит":4764,"действием":4765,"блочных":4766,"сигналов":4767,"воздействий":4768,"классы":4769,"входе":4770,"достаточные":4771,"соответствующей":4772,"несанк":4773,"выходе":4774,"##ереч":4775,"проектируемого":4776,"переменных":4777,"закрыть":4778,"указанного":4779,"коррозионной":4780,"маркировку":4781,"инвентар":4782,"поставляемого":4783,"кондиционирования":4784,"отверстий":4785,"скорости":4786,"аналоги":4787,"грунта":4788,"винтов":4789,"подлежащие":4790,"визуальной":4791,"жидкостей":4792,"учётом":4793,"бкнс":4794,"предъявля":4795,"алгорит":4796,"газотурбин":4797,"несанкционир":4798,")»":4799,"93":4800,"ему":4801,"звуков":4802,"торм":4803,"умен":4804,"##шед":4805,"##ико":4806,"##хож":4807,"##ion":4808,"##45":4809,"##ro":4810,"##ёт":4811,"##атые":4812,"##рект":4813,"обработ":4814,"##льт":4815,"настро":4816,"##ометр":4817,"приточ":4818,"##ители":4819,"##мента":4820,"##асыва":4821,"##ези":4822,"опции":4823,"безопасной":4824,"предел":4825,"методическими":4826,"защитное":4827,"инду":4828,"системам":4829,"20000":4830,"##ющем":4831,"##евой":4832,"##оением":4833,"местности":4834,"разработчик":4835,"исключением":4836,"назначен":4837,"двой":4838,"поступ":4839,"входящих":4840,"располага":4841,"черным":4842,"серовод":4843,"установленном":4844,"рекоменд":4845,"конструктивному":4846,"открыть":4847,"абс":4848,"активной":4849,"выбору":4850,"являться":4851,"выполнено":4852,"предназначенная":4853,"предназначенный":4854,"низкая":4855,"211":4856,"ипд":4857,"высотой":4858,"ресивера":4859,"ппкоп":4860,"списка":4861,"источников":4862,"источника":4863,"изменяемых":4864,"##фазных":4865,"датчика":4866,"независящие":4867,"маркировке":4868,"минимальным":4869,"пакеты":4870,"механизмов":4871,"внесении":4872,"дверей":4873,"предусмотрена":4874,"заземляющие":4875,"уплотнительной":4876,"оценки":4877,"ограничение":4878,"конденсата":4879,"стоимости":4880,"шпиль":4881,"энергоснаб":4882,"##горания":4883,"неизменные":4884,"возникнов":4885,"очеред":4886,"пнр":4887,"экспликация":4888,"настроить":4889,"сероводор":4890,"вмест":4891,"дэс":4892,"довер":4893,"зу":4894,"когда":4895,"шести":4896,"…».":4897,"##изации":4898,"##ском":4899,"##чу":4900,"##зн":4901,"##01":4902,"##сть":4903,"##енсив":4904,"##одейств":4905,"##ляемая":4906,"замен":4907,"##щиком":4908,"небаланса":4909,"##озна":4910,"опцию":4911,"##ленного":4912,"возв":4913,"##ипт":4914,"электрон":4915,"комф":4916,"2010":4917,"производстве":4918,"##епро":4919,"нормами":4920,"насосные":4921,"сво":4922,"объектной":4923,"активации":4924,"состава":4925,"перезап":4926,"##иваться":4927,"всасыва":4928,"##устить":4929,"выполняющая":4930,"потребуется":4931,"деактив":4932,"грузоподъем":4933,"максимальный":4934,"расчетного":4935,"токам":4936,"##ционар":4937,"выхода":4938,"штуцеры":4939,"действующими":4940,"макросы":4941,"источником":4942,"длине":4943,"высокого":4944,"землю":4945,"интенсив":4946,"покрытие":4947,"компрессорного":4948,"цепей":4949,"попереч":4950,"вторич":4951,"углеводород":4952,"ленту":4953,"варианта":4954,"3000":4955,"фиксированного":4956,"шифра":4957,"естественное":4958,"отвечать":4959,"искусственное":4960,"немет":4961,"аспсипт":4962,"компоновка":4963,"вкладка":4964,"масляной":4965,"добавить":4966,"трапециевидными":4967,"присвоением":4968,"шпильки":4969,"доверять":4970,"##епроница":4971,"перезапустить":4972,"деактивировать":4973,"47":4974,"деж":4975,"жиз":4976,"пено":4977,"рус":4978,"сопровод":4979,"слив":4980,"съем":4981,"ситу":4982,"товар":4983,"эпр":4984,"##шей":4985,"##щатые":4986,"##in":4987,"прек":4988,"##аторов":4989,"##рез":4990,"общего":4991,"##лить":4992,"нача":4993,"надз":4994,"##спреде":4995,"##онепроница":4996,"задания":4997,"##ловых":4998,"метрическая":4999,"опозна":5000,"##щению":5001,"возбу":5002,"стационар":5003,"электропри":5004,"##ственные":5005,"эксплуатация":5006,"заклад":5007,"поставщика":5008,"##евых":5009,"транспортные":5010,"оконные":5011,"дощатые":5012,"120":5013,"производственные":5014,"квт":5015,"кабельная":5016,"следующим":5017,"стального":5018,"возможностью":5019,"внутренний":5020,"монтажные":5021,"способы":5022,"всего":5023,"аппарата":5024,"ограждения":5025,"пламени":5026,"рабочим":5027,"агрегаты":5028,"государственных":5029,"подшипники":5030,"физико":5031,"коммута":5032,"компрессорных":5033,"антикоррозионная":5034,"распределительных":5035,"умеренный":5036,"повреждение":5037,"скважины":5038,"услуги":5039,"обратной":5040,"поддержания":5041,"металлоконструкции":5042,"диапазоне":5043,"эффективности":5044,"баллах":5045,"перекачиваемой":5046,"производительность":5047,"экспертизы":5048,"ппкп":5049,"клапаны":5050,"двумя":5051,"научно":5052,"дежур":5053,"опознаватель":5054,"526":5055,"включения":5056,"сле":5057,"уклад":5058,"швов":5059,"##оном":5060,"##тяж":5061,"##кций":5062,"##вести":5063,"##364":5064,"##хв":5065,"##ъект":5066,"##овка":5067,"##овым":5068,"облад":5069,"##лиза":5070,"##итект":5071,"##щими":5072,"##дение":5073,"устра":5074,"##вание":5075,"возника":5076,"работах":5077,"##тым":5078,"федеральными":5079,"автоматический":5080,"составу":5081,"около":5082,"продукта":5083,"производственного":5084,"марок":5085,"горел":5086,"входа":5087,"решение":5088,"220":5089,"уплотнение":5090,"отдельные":5091,"функций":5092,"обеспечивающих":5093,"заказчику":5094,"гарантиру":5095,"216":5096,"сооружениях":5097,"сэв":5098,"природный":5099,"защищены":5100,"высоконапорных":5101,"торцов":5102,"среду":5103,"извещатели":5104,"централиз":5105,"ручной":5106,"этих":5107,"блокиров":5108,"горизонтальных":5109,"статора":5110,"суб":5111,"##705":5112,"недоп":5113,"металлоконстру":5114,"лакокрасочные":5115,"низковольтные":5116,"котлован":5117,"50462":5118,"непрерывных":5119,"короткого":5120,"архитект":5121,"простран":5122,"диспетчер":5123,"исследователь":5124,"неисправ":5125,"шестигран":5126,"кпа":5127,"ман":5128,"пм":5129,"снаб":5130,"сгорания":5131,"##ощи":5132,"##74":5133,"##цы":5134,"##85":5135,"##гона":5136,"##ращение":5137,"##лях":5138,"заключения":5139,"##обра":5140,"рек":5141,"опций":5142,"техническими":5143,"стад":5144,"расч":5145,"установке":5146,"определить":5147,"##пром":5148,"испыт":5149,"помощи":5150,"вода":5151,"##яжений":5152,"скс":5153,"блочное":5154,"приемочном":5155,"##усторон":5156,"двусторон":5157,"конструкциях":5158,"огражде":5159,"агрессив":5160,"листовой":5161,"выходы":5162,"программного":5163,"задвиж":5164,"минимальной":5165,"трансформаторы":5166,"жилами":5167,"коррозионност":5168,"проверке":5169,"лестнич":5170,"2777":5171,"нанесены":5172,"взрывозащищ":5173,"##ладочные":5174,"заполнении":5175,"антикоррозионного":5176,"стандартных":5177,"попа":5178,"дефекты":5179,"проектировщиком":5180,"метрологи":5181,"потолков":5182,"1312":5183,"13130":5184,"распространяются":5185,"эстакады":5186,"реконстру":5187,"нейтралью":5188,"дуговая":5189,"выбираться":5190,"этапе":5191,"грк":5192,"вентилятора":5193,"30244":5194,"магнит":5195,"30546":5196,"букв":5197,"окраска":5198,"мкм":5199,"интенсивности":5200,"неметалли":5201,"архитектур":5202,"27772":5203,"92":5204,"дре":5205,"динами":5206,"жур":5207,"клей":5208,"норми":5209,"сол":5210,"убор":5211,"##агре":5212,"##торов":5213,"##кцией":5214,"##шение":5215,"##слой":5216,"##ыс":5217,"##ово":5218,"##енз":5219,"##енкл":5220,"общих":5221,"реализ":5222,"спира":5223,"##чики":5224,"исполнитель":5225,"пожарного":5226,"федеральным":5227,"строительстве":5228,"трубопроводной":5229,"температуру":5230,"потер":5231,"потока":5232,"номера":5233,"номенкл":5234,"одност":5235,"##озаправ":5236,"видом":5237,"противопожарных":5238,"установленные":5239,"содержащих":5240,"максимальным":5241,"смонт":5242,"воспламеня":5243,"силовой":5244,"выдержкой":5245,"ремонтных":5246,"обязательной":5247,"подразделе":5248,"образу":5249,"табличка":5250,"направление":5251,"относительно":5252,"выключатели":5253,"кабелями":5254,"внесение":5255,"узлам":5256,"##чатые":5257,"услуг":5258,"нефтегазовых":5259,"рассчитан":5260,"шифр":5261,"24045":5262,"»);":5263,"питьевого":5264,"свобод":5265,"эвакуационные":5266,"оптималь":5267,"деталям":5268,"днищ":5269,"обвязки":5270,"вызв":5271,"электрическая":5272,"языке":5273,"витков":5274,"галочки":5275,"перенапряжений":5276,"дальней":5277,"алгоритм":5278,"##знп":5279,"русском":5280,"опознавательная":5281,"обладать":5282,"испытатель":5283,"журна":5284,"номенклат":5285,".,":5286,"44":5287,"бро":5288,"бес":5289,"включение":5290,"враща":5291,"гп":5292,"да":5293,"ов":5294,"пы":5295,"рза":5296,"уте":5297,"цин":5298,"##ска":5299,"##76":5300,"##зш":5301,"##ху":5302,"##68":5303,"##er":5304,"##54":5305,"##nd":5306,"##овый":5307,"##ерной":5308,"##атом":5309,"##овано":5310,"##лено":5311,"обращения":5312,"##остойки":5313,"прилага":5314,"##ителем":5315,"выступ":5316,"вытяж":5317,"разъем":5318,"разруш":5319,"безопасным":5320,"проектом":5321,"##ительских":5322,"стре":5323,"комби":5324,"инфра":5325,"##елесо":5326,"##денных":5327,"сведения":5328,"заводских":5329,"основным":5330,"##ющихся":5331,"комплектов":5332,"верт":5333,"исключ":5334,"##остью":5335,"послед":5336,"горение":5337,"потребительских":5338,"внутренняя":5339,"нормативным":5340,"другими":5341,"уровни":5342,"##ируемых":5343,"сервер":5344,"плав":5345,"активности":5346,"сече":5347,"упаковке":5348,"функционир":5349,"питание":5350,"выполнении":5351,"выдержки":5352,"подразделение":5353,"результата":5354,"сохранности":5355,"3359":5356,"велич":5357,"длины":5358,"центробежного":5359,"консервация":5360,"имеющих":5361,"избыточное":5362,"горячек":5363,"клеммных":5364,"присоединяемых":5365,"проводиться":5366,"турбогенерат":5367,"законодательства":5368,"магистральных":5369,"горячего":5370,"утраты":5371,"геометр":5372,"наибольшее":5373,"особен":5374,"эпидемиологические":5375,"цифровых":5376,"гнутые":5377,"селективности":5378,"выдачи":5379,"5264":5380,"недопустим":5381,"комбинирован":5382,"##елесообраз":5383,"алю":5384,"голов":5385,"имп":5386,"кран":5387,"мф":5388,"пора":5389,"шума":5390,"##ряз":5391,"##шов":5392,"##вива":5393,"##72":5394,"##фт":5395,"##цатель":5396,"##лек":5397,"##гом":5398,"##реза":5399,"накоп":5400,"##ота":5401,"##отвод":5402,"зану":5403,"завис":5404,"застройки":5405,"излу":5406,"отри":5407,"##оков":5408,"конфи":5409,"##имых":5410,"спла":5411,"осад":5412,"##уск":5413,"##лент":5414,"##жены":5415,"##еримента":5416,"##орая":5417,"защитой":5418,"электрос":5419,"расцеп":5420,"инст":5421,"##еспечения":5422,"эксперимента":5423,"полости":5424,"##чий":5425,"конструкцию":5426,"свер":5427,"объектам":5428,"##щихся":5429,"##оек":5430,"станции":5431,"помех":5432,"продуктов":5433,"резист":5434,"одним":5435,"применяются":5436,"определяться":5437,"колод":5438,"##уществу":5439,"входят":5440,"опорной":5441,"уровнем":5442,"соответствующим":5443,"специальных":5444,"масла":5445,"категорий":5446,"наименования":5447,"обеспечением":5448,"проведении":5449,"подраздела":5450,"цветовое":5451,"ппу":5452,"измерительных":5453,"шкафа":5454,"клапанов":5455,"верхней":5456,"загряз":5457,"теплообменный":5458,"человека":5459,"##энерго":5460,"этаж":5461,"указывается":5462,"предельно":5463,"расхода":5464,"562":5465,"месяца":5466,"фильтров":5467,"медными":5468,"смазки":5469,"зажимы":5470,"грузами":5471,"восстановления":5472,"обнаружении":5473,"изложить":5474,"##метрич":5475,"21130":5476,"субъект":5477,"задвижки":5478,"импуль":5479,"отрицатель":5480,"63":5481,"97":5482,"kc":5483,"вак":5484,"вах":5485,"включе":5486,"доз":5487,"рсу":5488,"ряда":5489,"сло":5490,"телем":5491,"шпи":5492,"##ряда":5493,"##они":5494,"##ацию":5495,"##лых":5496,"##плива":5497,"##гр":5498,"##эп":5499,"##40":5500,"##льном":5501,"приравн":5502,"##опом":5503,"техника":5504,"конс":5505,"##очен":5506,"##очными":5507,"##ительного":5508,"оси":5509,"подпис":5510,"##ленный":5511,"эквива":5512,"первой":5513,"упор":5514,"поля":5515,"полном":5516,"насосами":5517,"связа":5518,"##иваются":5519,"утвержденными":5520,"клин":5521,"изготовлены":5522,"приведено":5523,"водным":5524,"манев":5525,"меньш":5526,"вводе":5527,"вводов":5528,"скоб":5529,"металла":5530,"теплот":5531,"колон":5532,"входных":5533,"возможно":5534,"номинальным":5535,"размеще":5536,"разместить":5537,"уровней":5538,"специальные":5539,"арматуру":5540,"устройством":5541,"отдельно":5542,"наружные":5543,"хранению":5544,"листы":5545,"напряжению":5546,"число":5547,"выбран":5548,"расположенных":5549,"##остоятель":5550,"стенам":5551,"паспорта":5552,"##202":5553,"предусматриваться":5554,"колеса":5555,"##ологически":5556,"положении":5557,"теку":5558,"самостоятель":5559,"кровель":5560,"локальным":5561,"дополнительные":5562,"нефтепродукт":5563,"##обезопасность":5564,"интерва":5565,"строповые":5566,"использоваться":5567,"соединительные":5568,"взрывопожарной":5569,"вертикальных":5570,"емкость":5571,"представляют":5572,"004":5573,"фундамента":5574,"трассы":5575,"заглушками":5576,"нагреватель":5577,"железобетонных":5578,"заданию":5579,"аккумулятор":5580,"козырька":5581,"стыков":5582,"железнодорожным":5583,"отправляемая":5584,"компримированного":5585,"одина":5586,"снятия":5587,"##art":5588,"демонтажа":5589,"несанкционированного":5590,"гпэс":5591,"ваку":5592,"телемехани":5593,"шпилек":5594,"приравненные":5595,"779":5596,"ими":5597,"лэп":5598,"польз":5599,"сеп":5600,"##кер":5601,"##мо":5602,"##форми":5603,"обществ":5604,"нанос":5605,"навес":5606,"##омеры":5607,"##менения":5608,"отработ":5609,"невоз":5610,"##окор":5611,"##анской":5612,"электропровод":5613,"обозначений":5614,"документацию":5615,"полос":5616,"системах":5617,"работников":5618,"коррект":5619,"насосный":5620,"##евые":5621,"силу":5622,"кабелем":5623,"дочер":5624,"продув":5625,"водоснабжение":5626,"схемой":5627,"скреп":5628,"применяется":5629,"##росс":5630,"зазорам":5631,"размещ":5632,"поверке":5633,"надежно":5634,"соответствующие":5635,"поверхност":5636,"механическим":5637,"расчете":5638,"листов":5639,"напряжений":5640,"применить":5641,"зданиях":5642,"минэнерго":5643,"программно":5644,"31839":5645,"габариты":5646,"раздел":5647,"парн":5648,"точки":5649,"охранная":5650,"ресиверы":5651,"несущих":5652,"базовые":5653,"##ский":5654,"1997":5655,"локальная":5656,"муфт":5657,"клет":5658,"гидрат":5659,"примеры":5660,"участков":5661,"величины":5662,"извещателей":5663,"описание":5664,"месторождения":5665,"смеси":5666,"устойчивой":5667,"замыканий":5668,"учитыва":5669,"перевозок":5670,"указывающая":5671,"факельная":5672,"секций":5673,"##спламенения":5674,"удаления":5675,"плоскости":5676,"кольца":5677,"заменить":5678,"контуру":5679,"углерода":5680,"счит":5681,"административно":5682,"сопроводительной":5683,"электроприем":5684,"устранить":5685,"воспламеняющим":5686,"вызванных":5687,"горячекатаный":5688,"зануление":5689,"экспериментальным":5690,"эквивалент":5691,"обществе":5692,"дочернем":5693,"биз":5694,"бку":5695,"бмк":5696,"рвс":5697,"сне":5698,"току":5699,"трав":5700,"уравнивания":5701,"##рата":5702,"##дет":5703,"##чной":5704,"##чива":5705,"##стра":5706,"##енты":5707,"##чественным":5708,"##кид":5709,"##качественным":5710,"неб":5711,"некачественным":5712,"##нены":5713,"соответственно":5714,"документом":5715,"##ораспреде":5716,"##ированными":5717,"трубной":5718,"утверждения":5719,"поворот":5720,"##ованное":5721,"резин":5722,"всей":5723,"##устойчив":5724,"воздейству":5725,"контрольный":5726,"классу":5727,"опасность":5728,"проводники":5729,"форма":5730,"пуч":5731,"гражд":5732,"нормативных":5733,"14202":5734,"надежную":5735,"регулиров":5736,"производствах":5737,"24705":5738,"собран":5739,"соединениям":5740,"представлена":5741,"числа":5742,"сечение":5743,"обеспечивающими":5744,"герметиз":5745,"предприятия":5746,"обеспечены":5747,"коэффициента":5748,"выдержка":5749,"закрытых":5750,"патрубок":5751,"допустимые":5752,"контроллер":5753,"распределения":5754,"заданной":5755,"генераторов":5756,"самово":5757,"уставка":5758,"минимальный":5759,"будет":5760,"ротор":5761,"искр":5762,"тепловых":5763,"распределительное":5764,"9544":5765,"равной":5766,"кромок":5767,"5480":5768,"фиксации":5769,"предусмотрено":5770,"нагрева":5771,"нейтрали":5772,"нагнетатель":5773,"нагнетания":5774,"вредные":5775,"окрашива":5776,"допуски":5777,"обустройства":5778,"сертификаты":5779,"столовой":5780,"охлаждением":5781,"минеральной":5782,"подверг":5783,"шайбы":5784,"создании":5785,"зпд":5786,"замене":5787,"надзем":5788,"21650":5789,"попадания":5790,"односторон":5791,"алюми":5792,"поражения":5793,"подписью":5794,"вакуум":5795,"невозмож":5796,"бизнес":5797,"самовоспламенения":5798,"%;":5799,"()":5800,"630":5801,"ex":5802,"бли":5803,"бата":5804,"бри":5805,"вал":5806,"ворот":5807,"дож":5808,"дви":5809,"дросс":5810,"км":5811,"ката":5812,"нку":5813,"она":5814,"пг":5815,"плен":5816,"риф":5817,"существу":5818,"##чного":5819,"##нных":5820,"##ыре":5821,"##93":5822,"##орной":5823,"##оли":5824,"##кими":5825,"##ляют":5826,"отра":5827,"##аварий":5828,"раздель":5829,"подбор":5830,"##услов":5831,"##лона":5832,"##лоуз":5833,"стойк":5834,"комбина":5835,"ингиб":5836,"полов":5837,"нормальном":5838,"насосом":5839,"поставка":5840,"утвержденной":5841,"комплектно":5842,"котель":5843,"газом":5844,"рабочему":5845,"противокор":5846,"реду":5847,"токопровод":5848,"выполняются":5849,"качеству":5850,"##роения":5851,"231":5852,"##ываемой":5853,"##рабаты":5854,"грузовые":5855,"низа":5856,"максимально":5857,"поверхностью":5858,"блоках":5859,"конструктивного":5860,"2223":5861,"расши":5862,"расчетное":5863,"объеме":5864,"изоляция":5865,"постановление":5866,"резерва":5867,"теплонос":5868,"выходных":5869,"msk":5870,"функционально":5871,"цветов":5872,"анкер":5873,"подшипника":5874,"##ждающие":5875,"материалам":5876,"направлении":5877,"отсутству":5878,"кровле":5879,"запаса":5880,"дополнительно":5881,"дополнительных":5882,"прямой":5883,"аппаратура":5884,"участках":5885,"диаметром":5886,"обслуживающего":5887,"создания":5888,"оператора":5889,"крышки":5890,"глуби":5891,"контакта":5892,"вариант":5893,"подлеж":5894,"подъема":5895,"теплоизоляции":5896,"котлована":5897,"вычислительной":5898,"вредных":5899,"аккумуляторов":5900,"ступеней":5901,"самозапуска":5902,"нпс":5903,"отметки":5904,"рекомендации":5905,"промежуточных":5906,"располагаться":5907,"товарный":5908,"реклоуз":5909,"взрывозащищенного":5910,"##агрессив":5911,"вертолет":5912,"##шовные":5913,"зависит":5914,"маневровых":5915,"батаре":5916,"дроссели":5917,"ингибит":5918,"противокоррозион":5919,"22235":5920,"49":5921,"74":5922,"бф":5923,"бпп":5924,"дж":5925,"жа":5926,"лаб":5927,"мву":5928,"срав":5929,"того":5930,"##ообразования":5931,"##дава":5932,"##шив":5933,"##штей":5934,"##пу":5935,"##чим":5936,"##ящего":5937,"##жер":5938,"##it":5939,"обшив":5940,"##онштей":5941,"##оперерабатыва":5942,"прошед":5943,"отгруз":5944,"выра":5945,"реакт":5946,"разрабаты":5947,"##ровод":5948,"##циях":5949,"электробезопасность":5950,"##люз":5951,"раскат":5952,"расконсерва":5953,"##ственный":5954,"поливи":5955,"насосная":5956,"пожарных":5957,"поставку":5958,"провол":5959,"трубопроводами":5960,"изделиями":5961,"исход":5962,"##очек":5963,"сколь":5964,"орг":5965,"инструкцией":5966,"определяющих":5967,"автоматической":5968,"окружающую":5969,"входного":5970,"режимах":5971,"размеща":5972,"технологическое":5973,"нормативно":5974,"нормативного":5975,"термина":5976,"##ываются":5977,"конструкциям":5978,"выполненные":5979,"конструктивное":5980,"расчетной":5981,"листовых":5982,"крана":5983,"используемых":5984,"площадке":5985,"##огрев":5986,"фланцевые":5987,"проведены":5988,"количестве":5989,"##ирания":5990,"состояние":5991,"работающие":5992,"сертифицирован":5993,"результате":5994,"указанным":5995,"электродвигателей":5996,"подготовку":5997,"ант":5998,"кронштей":5999,"трехжиль":6000,"трехслой":6001,"останов":6002,"присоединение":6003,"шкафов":6004,"сануз":6005,"муфта":6006,"выключателей":6007,"минимальном":6008,"молнии":6009,"бытовые":6010,"ответв":6011,"емкости":6012,"конкретных":6013,"предусмотрен":6014,"тележ":6015,"##идетельств":6016,"##ортабель":6017,"позволять":6018,"свидетельства":6019,"50460":6020,"четко":6021,"предпроектной":6022,"затворов":6023,"тяжести":6024,"обустройство":6025,"ктпо":6026,"электростанций":6027,"обнаруженные":6028,"целом":6029,"дзт":6030,"урсн":6031,"наземного":6032,"оцинкованная":6033,"тонколистовая":6034,"сухой":6035,"освидетельств":6036,"уточня":6037,"полезного":6038,"энергоснабжение":6039,"комфортабель":6040,"начала":6041,"возбуждения":6042,"металлоконструкций":6043,"стадии":6044,"буквенно":6045,"древесных":6046,"импульс":6047,"клиновые":6048,"телемеханики":6049,"брига":6050,"комбинация":6051,"бппг":6052,"жалюз":6053,"поливини":6054,"аз":6055,"бв":6056,"глав":6057,"лоп":6058,"лид":6059,"лам":6060,"мэг":6061,"нсп":6062,"тн":6063,"целесообраз":6064,"шины":6065,"##ога":6066,"##аций":6067,"##тези":6068,"##лхл":6069,"##шее":6070,"##ик":6071,"##ними":6072,"##носят":6073,"##орт":6074,"##оре":6075,"обуслов":6076,"наработ":6077,"наладочные":6078,"##ополож":6079,"проц":6080,"несо":6081,"##тового":6082,"реактив":6083,"устранения":6084,"##альным":6085,"разрабатыва":6086,"оборудованы":6087,"##ительность":6088,"##ительную":6089,"подключа":6090,"##тип":6091,"стм":6092,"сталей":6093,"экологически":6094,"электрического":6095,"труд":6096,"таблицы":6097,"инди":6098,"полный":6099,"законом":6100,"нормам":6101,"применению":6102,"##сып":6103,"лик":6104,"месту":6105,"##комп":6106,"кабельный":6107,"следующей":6108,"органа":6109,"противо":6110,"тепла":6111,"прокладку":6112,"артези":6113,"назначению":6114,"входом":6115,"проводами":6116,"проводника":6117,"содержать":6118,"границ":6119,"установленного":6120,"металлический":6121,"корпоративная":6122,"##верс":6123,"механические":6124,"объема":6125,"штучных":6126,"жидких":6127,"резервной":6128,"резервного":6129,"резервирования":6130,"осуществляет":6131,"сейсмической":6132,"каналах":6133,"состоящий":6134,"информационно":6135,"анализ":6136,"допустимое":6137,"##ским":6138,"направления":6139,"проверки":6140,"датчик":6141,"нанесения":6142,"маркировочные":6143,"подтверждения":6144,"длиной":6145,"взаимодейств":6146,"торц":6147,"сдаточных":6148,"жилой":6149,"верхним":6150,"пуско":6151,"распределительные":6152,"фильтра":6153,"фундаменты":6154,"трассе":6155,"щитки":6156,"изыска":6157,"планировочным":6158,"плотность":6159,"кольц":6160,"стойке":6161,"производительности":6162,"окрашены":6163,"розетки":6164,"замены":6165,"погружения":6166,"утверждённые":6167,"полиэтиленовой":6168,"кодекс":6169,"цинк":6170,"результатам":6171,"мфнс":6172,"излучения":6173,"конфигу":6174,"осадков":6175,"гпэсб":6176,"гидратообразования":6177,"электроприемников":6178,"реклоузеров":6179,"ингибитора":6180,"бригады":6181,"поливинилхл":6182,"мэгк":6183,"нспв":6184,"поливинилхлор":6185,"611":6186,"вся":6187,"вкс":6188,"ипп":6189,"куст":6190,"лог":6191,"нерж":6192,"рн":6193,"удель":6194,"этой":6195,"##род":6196,"##рать":6197,"##ья":6198,"##чаты":6199,"##вого":6200,"##371":6201,"##bu":6202,"##стер":6203,"##ноп":6204,"##атных":6205,"##олют":6206,"##цилинд":6207,"##цистер":6208,"обру":6209,"##ращ":6210,"наруш":6211,"находя":6212,"раств":6213,"отд":6214,"##аве":6215,"высо":6216,"##осве":6217,"##орука":6218,"подоб":6219,"подключение":6220,"стел":6221,"стоян":6222,"стойкости":6223,"произвести":6224,"авг":6225,"правильной":6226,"##чиков":6227,"##кую":6228,"##ционно":6229,"газопор":6230,"проточной":6231,"электрощит":6232,"электроосве":6233,"кабельным":6234,"противополож":6235,"прокладывать":6236,"классом":6237,"информацию":6238,"##ывает":6239,"допускаемые":6240,"максимальном":6241,"поршнев":6242,"уплотнением":6243,"восп":6244,"объемов":6245,"используются":6246,"60364":6247,"штуцера":6248,"действующей":6249,"паспорту":6250,"функционального":6251,"результатом":6252,"170":6253,"##ологических":6254,"направлению":6255,"измерительный":6256,"остальных":6257,"воздушной":6258,"272":6259,"верхнего":6260,"ручная":6261,"инструмента":6262,"металлорука":6263,"покрытию":6264,"буре":6265,"закреплены":6266,"подачей":6267,"перекачки":6268,"пробками":6269,"атмосферных":6270,"получения":6271,"нижнего":6272,"автоцистер":6273,"нефтегазоперерабатыва":6274,"гоф":6275,"обратные":6276,"пункта":6277,"газообраз":6278,"свободного":6279,"компенсации":6280,"1978":6281,"1975":6282,"выбирать":6283,"автот":6284,"светильников":6285,"погрешности":6286,"ведомость":6287,"комплекса":6288,"предупреждающие":6289,"плиты":6290,"надпись":6291,"суммар":6292,"тормоз":6293,"абсолют":6294,"ипдл":6295,"скрепления":6296,"искробезопас":6297,"бвк":6298,"несоответств":6299,"противоаварий":6300,"нержаве":6301,"стеллаж":6302,"стоянки":6303,"))":6304,"38":6305,"46":6306,"rs":6307,"ваты":6308,"вту":6309,"ромб":6310,"сы":6311,"скла":6312,"чда":6313,"##тии":6314,"##кое":6315,"##крас":6316,"##доров":6317,"##чить":6318,"##яс":6319,"##ящей":6320,"##73":6321,"##уб":6322,"##уж":6323,"##эта":6324,"##al":6325,"##низации":6326,"##носа":6327,"##чевич":6328,"##орга":6329,"##оратор":6330,"##одист":6331,"##аторами":6332,"##етов":6333,"нак":6334,"нане":6335,"наработки":6336,"приклад":6337,"##рушения":6338,"##итут":6339,"##мисс":6340,"прохож":6341,"вывер":6342,"выяв":6343,"разряд":6344,"##ровые":6345,"##щее":6346,"изготовленной":6347,"##жением":6348,"стоек":6349,"пожарную":6350,"объекте":6351,"промыс":6352,"необходимого":6353,"которая":6354,"расчету":6355,"##комму":6356,"водой":6357,"водонепроница":6358,"##вида":6359,"давлению":6360,"одну":6361,"однов":6362,"приемке":6363,"применяемый":6364,"металлов":6365,"сварочных":6366,"##одержа":6367,"технологий":6368,"нормативными":6369,"совме":6370,"способность":6371,"содержащая":6372,"расчетные":6373,"30246":6374,"открыва":6375,"автоматизированное":6376,"8568":6377,"наименьш":6378,"резервных":6379,"трансмисс":6380,"минт":6381,"расположением":6382,"##эффектив":6383,"фланцевым":6384,"универс":6385,"группа":6386,"##жай":6387,"государственной":6388,"каналов":6389,"состоянии":6390,"дополнение":6391,"колес":6392,"трехфаз":6393,"каждом":6394,"чечевич":6395,"шкафы":6396,"последовательность":6397,"пластин":6398,"горизонтальный":6399,"достижении":6400,"проходы":6401,"ответственности":6402,"пробное":6403,"путях":6404,"телекомму":6405,"скорость":6406,"утеплителем":6407,"реализацию":6408,"степенью":6409,"оснащены":6410,"оценка":6411,"заглушки":6412,"фильтры":6413,"шагом":6414,"32601":6415,"тэо":6416,"емкостного":6417,"чистым":6418,"отвеча":6419,"импор":6420,"регламентов":6421,"преобразователь":6422,"сертификата":6423,"горючесть":6424,"коридорах":6425,"цистерны":6426,"момент":6427,"приточной":6428,"исследовательский":6429,"серверной":6430,"институт":6431,"воздействующим":6432,"ближай":6433,"рифлением":6434,"лаборатор":6435,"ликвида":6436,"цинкования":6437,"нефтегазоперерабатывающих":6438,"автотран":6439,"ромбическим":6440,"##органи":6441,"нанести":6442,"одновремен":6443,"чечевичным":6444,"телекоммуника":6445,"380":6446,"559":6447,"66":6448,"вет":6449,"гту":6450,"дек":6451,"кан":6452,"новых":6453,"сопров":6454,"тун":6455,"тзнп":6456,"##роитель":6457,"##оу":6458,"##тной":6459,"##креп":6460,"##дительных":6461,"##евая":6462,"##сед":6463,"##сич":6464,"##яг":6465,"##щем":6466,"##ген":6467,"##ic":6468,"##16":6469,"пруж":6470,"##оратив":6471,"##лизацию":6472,"нач":6473,"завер":6474,"##лам":6475,"отлич":6476,"отключе":6477,"отобра":6478,"неоргани":6479,"##орую":6480,"условные":6481,"опы":6482,"спт":6483,"проектный":6484,"##лун":6485,"осевого":6486,"подт":6487,"быстр":6488,"##ыха":6489,"защитный":6490,"основание":6491,"нормальной":6492,"трубе":6493,"##ивают":6494,"##гания":6495,"необходимая":6496,"автоматически":6497,"комплектные":6498,"трубопроводах":6499,"##вига":6500,"соедин":6501,"##ифуг":6502,"вводом":6503,"определять":6504,"прокладками":6505,"прокладываться":6506,"уровню":6507,"устанавливаемых":6508,"металлическими":6509,"расчетным":6510,"сборе":6511,"сборке":6512,"заправ":6513,"центрифуг":6514,"трев":6515,"несм":6516,"604":6517,"рекомендуемые":6518,"замки":6519,"действующим":6520,"разделе":6521,"санитарные":6522,"информационных":6523,"информационные":6524,"требуемой":6525,"ппо":6526,"177":6527,"контролю":6528,"контролиру":6529,"частоте":6530,"каждый":6531,"шкафу":6532,"различными":6533,"валу":6534,"отделки":6535,"строповка":6536,"ручные":6537,"многогран":6538,"пакета":6539,"пакетах":6540,"радиус":6541,"ответные":6542,"обогреватели":6543,"крыши":6544,"глуб":6545,"пределы":6546,"гарантировать":6547,"##чатых":6548,"складских":6549,"##яжки":6550,"ударов":6551,"изолированной":6552,"дорог":6553,"сторону":6554,"диапазон":6555,"железобетонные":6556,"негорючий":6557,"чистого":6558,"лотках":6559,"вязкость":6560,"наполь":6561,"##ушки":6562,"светильники":6563,"параметрами":6564,"понижа":6565,"компонентов":6566,"целост":6567,"водопровода":6568,"одножильных":6569,"комплексы":6570,"горючести":6571,"тарно":6572,"строящихся":6573,"пересечения":6574,"интегра":6575,"отсеч":6576,"контроллеры":6577,"бумагу":6578,"показана":6579,"уменьш":6580,"возврата":6581,"гарантирует":6582,"архитектурные":6583,"сепара":6584,"считать":6585,"вертолетов":6586,"трехслойные":6587,"наработка":6588,"поливинилхлорид":6589,"##bus":6590,"декоратив":6591,"сопровож":6592,"тунне":6593,"пружин":6594,".;":6595,"and":6596,"uном":6597,"бе":6598,"бир":6599,"вносят":6600,"дол":6601,"диз":6602,"две":6603,"зра":6604,"зим":6605,"здоров":6606,"нат":6607,"нос":6608,"угла":6609,"уча":6610,"##ркуля":6611,"##тт":6612,"##тэг":6613,"##крат":6614,"##лён":6615,"##иг":6616,"##сии":6617,"##281":6618,"##жет":6619,"##ed":6620,"##et":6621,"##49":6622,"##96":6623,"##камер":6624,"прит":6625,"забив":6626,"##опро":6627,"изнутр":6628,"##ойти":6629,"нег":6630,"##дением":6631,"безопасного":6632,"##ваются":6633,"подвесных":6634,"стек":6635,"##оят":6636,"уппв":6637,"типу":6638,"##евым":6639,"необходимое":6640,"стандарта":6641,"актом":6642,"которую":6643,"обеспечена":6644,"водя":6645,"измерение":6646,"потери":6647,"которым":6648,"кабельного":6649,"испытаниях":6650,"автоматическая":6651,"прокладок":6652,"##грев":6653,"сварного":6654,"видном":6655,"дефици":6656,"##оприв":6657,"допускаются":6658,"соответствующее":6659,"корпусы":6660,"19281":6661,"металлического":6662,"энерги":6663,"1603":6664,"открываться":6665,"краской":6666,"герметизации":6667,"приложением":6668,"трещи":6669,"треуголь":6670,"##ереработки":6671,"расположены":6672,"действующие":6673,"двухфазного":6674,"составляющей":6675,"каналы":6676,"ресивер":6677,"информационной":6678,"дату":6679,"связь":6680,"толщину":6681,"положением":6682,"железных":6683,"рамы":6684,"датчики":6685,"2700":6686,"подтвержденных":6687,"высокой":6688,"обмотке":6689,"фланца":6690,"верхнее":6691,"участка":6692,"принимаемый":6693,"бытовой":6694,"радиопом":6695,"##брасы":6696,"запорную":6697,"акз":6698,"электропита":6699,"работоспособности":6700,"независимый":6701,"разрешение":6702,"регулирующего":6703,"перевозке":6704,"отделке":6705,"аспт":6706,"хозяйства":6707,"методики":6708,"методике":6709,"турбины":6710,"низковольтного":6711,"вспомогательные":6712,"ряды":6713,"удобство":6714,"допуск":6715,"утратив":6716,"обнаружения":6717,"оказать":6718,"уртэг":6719,"топливо":6720,"симметрич":6721,"календарных":6722,"регистрация":6723,"ситуаций":6724,"шестигранные":6725,"неметаллические":6726,"нормиру":6727,"##озаправочных":6728,"размещении":6729,"алюминие":6730,"подбором":6731,"несмываемой":6732,"вносятся":6733,"дизель":6734,"изнутри":6735,"16037":6736,"радиопомех":6737,"37":6738,"584":6739,"68":6740,"en":6741,"бет":6742,"боль":6743,"гроз":6744,"дх":6745,"ини":6746,"ином":6747,"ними":6748,"пгс":6749,"пес":6750,"плун":6751,"сф":6752,"синх":6753,"туп":6754,"уф":6755,"фоне":6756,"ход":6757,"эски":6758,"##ош":6759,"##бед":6760,"##биль":6761,"##дать":6762,"##даточных":6763,"##инима":6764,"##сар":6765,"##чки":6766,"##виз":6767,"##яжен":6768,"##ящий":6769,"##нних":6770,"##улов":6771,"##хими":6772,"##89":6773,"##dbus":6774,"##номи":6775,"пройти":6776,"##аторы":6777,"обор":6778,"##льное":6779,"ранних":6780,"##еду":6781,"отказа":6782,"требование":6783,"него":6784,"##оком":6785,"##сями":6786,"выкид":6787,"оплом":6788,"##альную":6789,"раздели":6790,"##ровать":6791,"оборудовать":6792,"оборудовании":6793,"##циями":6794,"подогрева":6795,"стоя":6796,"ствол":6797,"стоков":6798,"коман":6799,"##ково":6800,"эксплуат":6801,"настоящий":6802,"промышленного":6803,"##чай":6804,"утвержденного":6805,"параметр":6806,"комплектная":6807,"ссылок":6808,"использовании":6809,"инструмент":6810,"сварным":6811,"##ланс":6812,"осуществить":6813,"потребителя":6814,"номинального":6815,"заземлит":6816,"деформ":6817,"противопожарными":6818,"внешнему":6819,"диафра":6820,"нагрузкой":6821,"содержащие":6822,"содержащей":6823,"металлическая":6824,"листовые":6825,"питанием":6826,"регулирование":6827,"наименований":6828,"выходов":6829,"диаметры":6830,"разделом":6831,"точках":6832,"высоту":6833,"освещенности":6834,"патрубками":6835,"пск":6836,"толщине":6837,"1999":6838,"нижестоя":6839,"запасов":6840,"защищенности":6841,"прямого":6842,"центробежный":6843,"профилей":6844,"напорного":6845,"аппаратуры":6846,"лиценз":6847,"блокиру":6848,"пакетов":6849,"бытового":6850,"совместно":6851,"электропотреб":6852,"факел":6853,"закрепление":6854,"равно":6855,"лебед":6856,"регулирующий":6857,"создава":6858,"расходом":6859,"аналога":6860,"временная":6861,"увш":6862,"дорога":6863,"питьевая":6864,"усилия":6865,"достаточным":6866,"перегородки":6867,"проемы":6868,"холоднок":6869,"экспертизе":6870,"квад":6871,"углеродист":6872,"485":6873,"другой":6874,"нпб":6875,"коллектора":6876,"программируемые":6877,"символ":6878,"интегр":6879,"выделяться":6880,"мороз":6881,"ошин":6882,"ошиб":6883,"влаги":6884,"инвентаря":6885,"реконструируемых":6886,"клеймо":6887,"бесшовные":6888,"исключать":6889,"головкой":6890,"уровнемера":6891,"самостоятельное":6892,"наносить":6893,"скольжения":6894,"освидетельствования":6895,"изысканий":6896,"61131":6897,"газопоршнев":6898,"17769":6899,"участву":6900,"дхш":6901,"опломб":6902,"диафраг":6903,"%,":6904,"620":6905,"73":6906,"72":6907,"750":6908,"hart":6909,"ls":6910,"аэ":6911,"близ":6912,"брон":6913,"вв":6914,"греб":6915,"галь":6916,"глад":6917,"дар":6918,"кс":6919,"коп":6920,"кноп":6921,"нк":6922,"серий":6923,"сбрасы":6924,"това":6925,"фла":6926,"чр":6927,"эр":6928,"##аемых":6929,"##бир":6930,"##бере":6931,"##ец":6932,"##шим":6933,"##щую":6934,"##земп":6935,"##10":6936,"##стри":6937,"##орных":6938,"##кий":6939,"##гономи":6940,"##емость":6941,"##остой":6942,"##остроитель":6943,"##ктор":6944,"##ляется":6945,"замер":6946,"задание":6947,"засып":6948,"проче":6949,"отключ":6950,"неагрессив":6951,"##ози":6952,"##нец":6953,"##вани":6954,"сптп":6955,"подвода":6956,"подряд":6957,"подогрев":6958,"стабиль":6959,"##ериру":6960,"##орай":6961,"экземп":6962,"электроснабжение":6963,"электроприв":6964,"1074":6965,"##ковремен":6966,"насе":6967,"исполнений":6968,"промыв":6969,"строительно":6970,"заводского":6971,"транспортной":6972,"акты":6973,"характера":6974,"составные":6975,"1200":6976,"трубопроводе":6977,"трубопроводом":6978,"приведенных":6979,"измеря":6980,"характеристиками":6981,"марш":6982,"изменение":6983,"организ":6984,"токовой":6985,"сварочные":6986,"сварочного":6987,"режимов":6988,"проводят":6989,"##фициру":6990,"потребля":6991,"внутреннему":6992,"размещен":6993,"##пуске":6994,"противопожарные":6995,"способами":6996,"нагрузка":6997,"2429":6998,"расчетный":6999,"соединениях":7000,"отдельными":7001,"электрообогрева":7002,"обеспечивается":7003,"люк":7004,"люков":7005,"выполнению":7006,"сторона":7007,"программа":7008,"программному":7009,"примечания":7010,"углом":7011,"##рованные":7012,"габаритным":7013,"приводом":7014,"пломб":7015,"энергорай":7016,"колец":7017,"периода":7018,"частотой":7019,"техническому":7020,"табличке":7021,"шириной":7022,"локального":7023,"токи":7024,"защищен":7025,"напорной":7026,"имеющие":7027,"имеющими":7028,"модуля":7029,"участке":7030,"огнеза":7031,"физическим":7032,"пластового":7033,"структуры":7034,"пищи":7035,"автомоби":7036,"энергоэффектив":7037,"длительно":7038,"подшипниковых":7039,"аварийных":7040,"теплового":7041,"круг":7042,"001":7043,"клеммные":7044,"гарантийного":7045,"каркас":7046,"глубина":7047,"телеф":7048,"услугу":7049,"548":7050,"грунтов":7051,"низконапор":7052,"утилиз":7053,"любым":7054,"дороги":7055,"штаб":7056,"бокса":7057,"уклон":7058,"контактные":7059,"негорючих":7060,"чертежам":7061,"газоулов":7062,"вспомогательных":7063,"продольными":7064,"легково":7065,"оптических":7066,"деталями":7067,"оповещатели":7068,"затворы":7069,"кратковремен":7070,"платформ":7071,"вагон":7072,"вагоны":7073,"посадочных":7074,"горловины":7075,"резервуаров":7076,"сжиж":7077,"генериру":7078,"протекании":7079,"тонколистовой":7080,"##ообеспечения":7081,"градостроитель":7082,"##нюю":7083,"##оторного":7084,"маномет":7085,"предъявляемыми":7086,"газотурбинного":7087,"индустри":7088,"назначенный":7089,"возникновения":7090,"сероводорода":7091,"углеводородов":7092,"слесар":7093,"манжет":7094,"расчё":7095,"коррозионностойки":7096,"солне":7097,"инфракрас":7098,"сечением":7099,"величин":7100,"расцепителя":7101,"пользов":7102,"дожде":7103,"движения":7104,"уточняется":7105,"отдыха":7106,"воспр":7107,"неорганические":7108,"холоднокатаный":7109,"дхшхв":7110,"гальвани":7111,"фланец":7112,"чрп":7113,"эргономи":7114,"экземпля":7115,"24297":7116,"легковоспламеня":7117,"08":7118,":*":7119,"fr":7120,"kv":7121,"бар":7122,"дно":7123,"жел":7124,"кос":7125,"лотки":7126,"мост":7127,"мал":7128,"ота":7129,"пя":7130,"печ":7131,"рол":7132,"фут":7133,"щита":7134,"эс":7135,"##рование":7136,"##ающего":7137,"##близ":7138,"##дле":7139,"##ине":7140,"##ящие":7141,"##ятств":7142,"##ык":7143,"##жи":7144,"##an":7145,"##стрем":7146,"прор":7147,"преп":7148,"##енную":7149,"##лем":7150,"##надле":7151,"##отруб":7152,"присутств":7153,"принадле":7154,"##онтиру":7155,"заготов":7156,"закач":7157,"изб":7158,"изги":7159,"износ":7160,"отда":7161,"собы":7162,"выд":7163,"ускор":7164,"опору":7165,"операции":7166,"##ировании":7167,"осушки":7168,"подп":7169,"подве":7170,"##ленном":7171,"##жению":7172,"экстрем":7173,"защитными":7174,"коммер":7175,"полного":7176,"транше":7177,"закле":7178,"##онагрев":7179,"конструкцией":7180,"материалом":7181,"нормальные":7182,"##принима":7183,"##ивается":7184,"применении":7185,"правилам":7186,"автоматических":7187,"таблицах":7188,"климатическим":7189,"газораз":7190,"производственный":7191,"переконсерва":7192,"1520":7193,"изготовителей":7194,"всн":7195,"соединя":7196,"электрохими":7197,"##лый":7198,"определяет":7199,"автоматизация":7200,"токсич":7201,"гранич":7202,"надежной":7203,"соответствующими":7204,"спецификации":7205,"способности":7206,"массу":7207,"вентилятор":7208,"арматурой":7209,"минист":7210,"уплотня":7211,"знаками":7212,"наружный":7213,"наружным":7214,"срабатывании":7215,"объемом":7216,"выброс":7217,"рассмот":7218,"питающих":7219,"используемые":7220,"резервирование":7221,"предназначенные":7222,"баланс":7223,"асду":7224,"асинх":7225,"площадь":7226,"угол":7227,"габаритами":7228,"паспортом":7229,".);":7230,"оболочке":7231,"однотип":7232,"высоты":7233,"подготовка":7234,"##нителя":7235,"колеи":7236,"формиру":7237,"допустимой":7238,"табличках":7239,"ящике":7240,"остат":7241,"1995":7242,"воздушная":7243,"6000":7244,"текстовой":7245,"ответственные":7246,"энергопринима":7247,"закреплена":7248,"затрат":7249,"горючих":7250,"предельного":7251,"потенциально":7252,"перехода":7253,"неразруш":7254,"низконапорных":7255,"потолки":7256,"ударной":7257,"ограничения":7258,"вось":7259,"приборами":7260,"эстакад":7261,"эстакада":7262,"»).":7263,"фазы":7264,"планировочные":7265,"недост":7266,"дренажа":7267,"железобетон":7268,"включающая":7269,"чертежей":7270,"торцевых":7271,"усили":7272,"программирования":7273,"перегородок":7274,"проема":7275,"предупред":7276,"вязкости":7277,"архив":7278,"отверстиями":7279,"подземных":7280,"дифференциальная":7281,"##ation":7282,"продолжительность":7283,"предварительно":7284,"погрешность":7285,"передаче":7286,"входящая":7287,"обечайки":7288,"манометры":7289,"рекомендованные":7290,"сероводород":7291,"всасывания":7292,"жизни":7293,"пенообразов":7294,"блокировки":7295,"ограждение":7296,"лестничных":7297,"плавного":7298,"##онитор":7299,"полномоч":7300,"скобках":7301,"нефтепродуктообеспечения":7302,"продувки":7303,"герметизиру":7304,"невозможности":7305,"стойкость":7306,"расширения":7307,"дросселирования":7308,"лопат":7309,"реактивной":7310,"##ращена":7311,"абсолютной":7312,"тэои":7313,"подтовар":7314,"60446":7315,"электропитания":7316,"больше":7317,"иници":7318,"сфере":7319,"промывки":7320,"восприятия":7321,"отаплива":7322,"препятств":7323,"изгиба":7324,"министер":7325,"mo":7326,"аст":7327,"бд":7328,"брос":7329,"гзш":7330,"дом":7331,"дном":7332,"жц":7333,"кнс":7334,"лв":7335,"лить":7336,"монитор":7337,"пе":7338,"рос":7339,"сост":7340,"хром":7341,"ча":7342,"чрез":7343,"##оит":7344,"##еф":7345,"##ьше":7346,"##мас":7347,"##иност":7348,"##чность":7349,"##вит":7350,"##78":7351,"##щать":7352,"##зрыв":7353,"##tu":7354,"##55":7355,"##енная":7356,"##чении":7357,"##атором":7358,"##етру":7359,"##циркуля":7360,"##рес":7361,"обмен":7362,"обез":7363,"общей":7364,"набор":7365,"прикреп":7366,"запр":7367,"заключ":7368,"##лаго":7369,"изгиб":7370,"появ":7371,"отпа":7372,"сои":7373,"требованию":7374,"вывода":7375,"выравнивания":7376,"рециркуля":7377,"##очаст":7378,"оборудован":7379,"оборудовано":7380,"спаз":7381,"проектироваться":7382,"##ительное":7383,"полное":7384,"полуп":7385,"##ковый":7386,"##гиру":7387,"##чика":7388,"##чими":7389,"труба":7390,"утвержда":7391,"##ционному":7392,"заводов":7393,"сибир":7394,"составленным":7395,"привяз":7396,"газы":7397,"одному":7398,"11371":7399,"классов":7400,"постро":7401,"сетям":7402,"опорож":7403,"номинальные":7404,"информация":7405,"сейсмостойкое":7406,"совпа":7407,"соответствующем":7408,"массы":7409,"максимальные":7410,"устанавливаемой":7411,"вентиляционных":7412,"блоке":7413,"##шением":7414,"корпоративных":7415,"знаком":7416,"наружу":7417,"рабочий":7418,"представлен":7419,"кдфт":7420,"сборочные":7421,"рассе":7422,"обеспечивает":7423,"обеспечивающий":7424,"случаев":7425,"расположенными":7426,"площадках":7427,"низким":7428,"минимального":7429,"замком":7430,"пары":7431,"534":7432,"охранные":7433,"канализация":7434,"взрывозащит":7435,"повышение":7436,"образование":7437,"погрузка":7438,"колесо":7439,"1731":7440,"смеж":7441,"разгрузки":7442,"модер":7443,"служить":7444,"направля":7445,"отсутствие":7446,"гиб":7447,"кровлю":7448,"присоединений":7449,"261":7450,"отходящих":7451,"различного":7452,"газового":7453,"непосредственным":7454,"##контр":7455,"сосуда":7456,"жилые":7457,"участки":7458,"пластовой":7459,"пластмас":7460,"принимаются":7461,"мебель":7462,"##вычай":7463,"прегра":7464,"теплообменные":7465,"круп":7466,"прохода":7467,"равным":7468,"замыкание":7469,"присоединительных":7470,"нефтегазод":7471,"пунктов":7472,"удара":7473,"погру":7474,"любого":7475,"теплоизоляция":7476,"винты":7477,"укреп":7478,"двигателя":7479,"негорючим":7480,"потенциала":7481,"торцевым":7482,"достаточен":7483,"несколько":7484,"исключающие":7485,"оповещателей":7486,"подводом":7487,"свидетельство":7488,"энергосбере":7489,"##322":7490,"вызыва":7491,"эпидемиологи":7492,"отказов":7493,"30245":7494,"гнутого":7495,"охлаждение":7496,"ключа":7497,"микр":7498,"тары":7499,"подстанция":7500,"программируемый":7501,"превышает":7502,"предоставлять":7503,"концевых":7504,"грузоподъемное":7505,"поперечными":7506,"##ing":7507,"стационарных":7508,"закладных":7509,"неисправности":7510,"метрологическое":7511,"потерь":7512,"бронирован":7513,"kcu":7514,"интервала":7515,"учитывающий":7516,"снега":7517,"отсутствует":7518,"разрабатываться":7519,"комфортабельная":7520,"жалюзи":7521,"логический":7522,"подобрать":7523,"автоцистерны":7524,"гофр":7525,"промысловых":7526,"ликвидации":7527,"центрифугированной":7528,"отсечка":7529,"сепарации":7530,"сбрасыва":7531,"автомобилей":7532,"барь":7533,"асдуэ":7534,"энергопринимающих":7535,"астуэ":7536,"чрезвычай":7537,"##очастот":7538,"17314":7539,"%)":7540,"426":7541,"464":7542,"ac":7543,"tn":7544,"вт":7545,"влож":7546,"гол":7547,"ди":7548,"деп":7549,"довод":7550,"логи":7551,"мости":7552,"нет":7553,"пд":7554,"сут":7555,"суг":7556,"фра":7557,"цир":7558,"шас":7559,"шну":7560,"шари":7561,"##оору":7562,"##агиру":7563,"##лли":7564,"##мыка":7565,"##чков":7566,"##вать":7567,"##вые":7568,"##овзрыв":7569,"##ентом":7570,"##орные":7571,"##ером":7572,"##одым":7573,"##нах":7574,"обращение":7575,"нам":7576,"##ктив":7577,"прину":7578,"пригод":7579,"рациональ":7580,"заде":7581,"##ностоя":7582,"##миуголь":7583,"изв":7584,"издания":7585,"отпуска":7586,"##арки":7587,"неот":7588,"##авших":7589,"концов":7590,"##обмот":7591,"##анских":7592,"ревиз":7593,"реагиру":7594,"2091":7595,"опорами":7596,"спло":7597,"проектно":7598,"предп":7599,"подвес":7600,"##ускат":7601,"##ленности":7602,"электрический":7603,"документально":7604,"##щиеся":7605,"объём":7606,"упру":7607,"типораз":7608,"конструкционных":7609,"применены":7610,"основными":7611,"актами":7612,"климатическими":7613,"газопровод":7614,"производственными":7615,"размером":7616,"размерами":7617,"здании":7618,"##ованным":7619,"характеристиках":7620,"схему":7621,"давлении":7622,"действовать":7623,"двускат":7624,"противодым":7625,"сварке":7626,"сооружа":7627,"##росопровод":7628,"решением":7629,"ремон":7630,"##озащит":7631,"газами":7632,"уровне":7633,"роствер":7634,"специальным":7635,"##ируются":7636,"##пад":7637,"корпусу":7638,"конструкциями":7639,"максимальных":7640,"оградительных":7641,"##ющаяся":7642,"механического":7643,"расчетных":7644,"планы":7645,"знач":7646,"знаку":7647,"наружная":7648,"приняты":7649,"запис":7650,"выбраны":7651,"питающей":7652,"выходной":7653,"классификации":7654,"расположен":7655,"536":7656,"8724":7657,"составляющая":7658,"оболочка":7659,"однофаз":7660,"руководителей":7661,"периодические":7662,"цик":7663,"инженерной":7664,"выполненный":7665,"разгрузка":7666,"частота":7667,"табличку":7668,"остры":7669,"отсутствия":7670,"идентифика":7671,"комплексная":7672,"высоконапор":7673,"персоналом":7674,"обмотка":7675,"сдвига":7676,"фланцами":7677,"гидр":7678,"##ключены":7679,"ресурсов":7680,"радиальной":7681,"запорно":7682,"теплообменных":7683,"организационной":7684,"перевоору":7685,"электромагнитного":7686,"горючие":7687,"уплотнениями":7688,"предела":7689,"унифицированные":7690,"термооб":7691,"нижний":7692,"нижнее":7693,"предельное":7694,"теплоснабжения":7695,"относятся":7696,"метрологические":7697,"аналогов":7698,"формирование":7699,"заземляющих":7700,"уплотнительных":7701,"пропуск":7702,"молниезащит":7703,"распространяется":7704,"защищаемого":7705,"планировочных":7706,"плотности":7707,"лакокрасочным":7708,"включает":7709,"рядов":7710,"периметру":7711,"жесткости":7712,"жесткость":7713,"##ступен":7714,"перекачивающих":7715,"первичной":7716,"плите":7717,"напора":7718,"предпроектных":7719,"днях":7720,"кожухотруб":7721,"твердых":7722,"шлейфов":7723,"стык":7724,"платиков":7725,"перемещения":7726,"самозапуске":7727,"вентиляторов":7728,"другого":7729,"подверга":7730,"критер":7731,"облицовок":7732,"цилиндрический":7733,"проложенных":7734,"полимерных":7735,"гидроцилинд":7736,"замкнутого":7737,"располагается":7738,"4759":7739,"дежурного":7740,"двустороннего":7741,"свободностоя":7742,"утечки":7743,"функционирование":7744,"электросвар":7745,"резистив":7746,"вахтового":7747,"одинар":7748,"##формированные":7749,"корректной":7750,"поверхностях":7751,"##ораспределения":7752,"собранном":7753,"подвергну":7754,"глубиной":7755,"подлежат":7756,"противокоррозионная":7757,"азота":7758,"процед":7759,"конфигура":7760,"электрощитовой":7761,"разрядов":7762,"целостности":7763,"здоровья":7764,"плунжер":7765,"равномер":7766,"квадрат":7767,"товаросопровод":7768,"населения":7769,"коррозионностойкими":7770,"роликов":7771,"прораб":7772,"экстремальные":7773,"восьмиуголь":7774,"полномочий":7775,"подтоварной":7776,"инициаторами":7777,"modbus":7778,"лвж":7779,"состоит":7780,"чапв":7781,"4640":7782,"депо":7783,"шасси":7784,"принуд":7785,"сплош":7786,"типоразмер":7787,"восьмиугольного":7788,"324":7789,"43":7790,"ei":7791,"аоп":7792,"её":7793,"жар":7794,"иное":7795,"кн":7796,"лаз":7797,"лвс":7798,"лзш":7799,"мд":7800,"монтиру":7801,"ом":7802,"пч":7803,"птв":7804,"пнг":7805,"смен":7806,"фон":7807,"##роб":7808,"##ающих":7809,"##ег":7810,"##повер":7811,"##систем":7812,"##771":7813,"##зу":7814,"##ыде":7815,"##em":7816,"##13":7817,"##ap":7818,"пролет":7819,"##чета":7820,"##ателе":7821,"##кин":7822,"##гой":7823,"##рески":7824,"##рах":7825,"##ляться":7826,"##онент":7827,"запад":7828,"вынос":7829,"техническую":7830,"##осодержа":7831,"реги":7832,"реаг":7833,"##иму":7834,"##альными":7835,"разрыв":7836,"подв":7837,"подход":7838,"##лоном":7839,"стаби":7840,"защитным":7841,"электроснаб":7842,"авз":7843,"##иссии":7844,"установках":7845,"насы":7846,"све":7847,"строительной":7848,"##ционном":7849,"##опроводу":7850,"утвержденная":7851,"основная":7852,"основном":7853,"основную":7854,"##клара":7855,"характеризу":7856,"лицев":7857,"##ежание":7858,"переч":7859,"приведенным":7860,"водоподъем":7861,"всю":7862,"взле":7863,"согласованию":7864,"рабочем":7865,"сигналы":7866,"друга":7867,"114":7868,"прокладыва":7869,"узо":7870,"горения":7871,"данными":7872,"рука":7873,"руба":7874,"виб":7875,"монтажной":7876,"180":7877,"18322":7878,"14771":7879,"совет":7880,"деклара":7881,"##ывания":7882,"##ируемого":7883,"способу":7884,"нефтепереработки":7885,"##урного":7886,"межповер":7887,"вентиляцию":7888,"##шении":7889,"обеспечиваться":7890,"конструктивной":7891,"присоедин":7892,"расчетная":7893,"##ичность":7894,"наружное":7895,"принятые":7896,"упаковываться":7897,"5089":7898,"резервный":7899,"8992":7900,"##ющимися":7901,"габаритов":7902,"замка":7903,"4032":7904,"передвиж":7905,"жилы":7906,"состоять":7907,"состоящая":7908,"повышении":7909,"подразделом":7910,"##писями":7911,"повреж":7912,"контролем":7913,"железные":7914,"коробе":7915,"чего":7916,"##ировки":7917,"напорный":7918,"имеет":7919,"пожаротушением":7920,"модульного":7921,"выключатель":7922,"разрешения":7923,"мелки":7924,"металлопр":7925,"общеж":7926,"файлов":7927,"теплообменного":7928,"искэ":7929,"цепь":7930,"аварийное":7931,"стандартная":7932,"автомобильный":7933,"равен":7934,"оператор":7935,"присоединительным":7936,"термом":7937,"вариантов":7938,"##704":7939,"нижней":7940,"отделка":7941,"камера":7942,"прямоугольного":7943,"взрывоопасные":7944,"программе":7945,"рассчитана":7946,"рассчитывается":7947,"любые":7948,"видах":7949,"распространяющей":7950,"сжат":7951,"2405":7952,"нулевого":7953,"адрес":7954,"уклоном":7955,"плоские":7956,"двигателями":7957,"смазкой":7958,"первичные":7959,"экранах":7960,"днище":7961,"выводах":7962,"16093":7963,"лотков":7964,"дуговой":7965,"четыре":7966,"электрическую":7967,"оформляют":7968,"языки":7969,"растрески":7970,"гидравлическим":7971,"предохранительного":7972,"пусковой":7973,"сальниковой":7974,"календарная":7975,"располагать":7976,"обечаек":7977,"морем":7978,"съемным":7979,"прекращена":7980,"##лизацией":7981,"снабжены":7982,"алгоритмов":7983,"разрушение":7984,"особенностей":7985,"кранов":7986,"нагревательных":7987,"отработавших":7988,"электропроводки":7989,"гражданской":7990,"exd":7991,"катания":7992,"анкерных":7993,"расконсервацию":7994,"орган":7995,"тележки":7996,"индикат":7997,"рнт":7998,"тормозной":7999,"противоаварийная":8000,"стекл":8001,"грозозащит":8002,"эскизы":8003,"разделитель":8004,"нкпр":8005,"энергоэффективности":8006,"кругл":8007,"экземпляре":8008,"косв":8009,"избежание":8010,"событий":8011,"выбросов":8012,"чрезвычайных":8013,"противодымной":8014,"свободностоящей":8015,"аопо":8016,"птво":8017,"рубаш":8018,"900":8019,"аосн":8020,"бара":8021,"вести":8022,"гар":8023,"дели":8024,"зде":8025,"зеле":8026,"зву":8027,"ктс":8028,"лк":8029,"маст":8030,"моно":8031,"нтт":8032,"ореб":8033,"паз":8034,"пнев":8035,"ря":8036,"ры":8037,"рпр":8038,"смот":8039,"треть":8040,"улож":8041,"укомп":8042,"чуг":8043,"##ровании":8044,"##ании":8045,"##анием":8046,"##бест":8047,"##шая":8048,"##шими":8049,"##ино":8050,"##сформат":8051,"##28":8052,"##is":8053,"##en":8054,"##51":8055,"##одат":8056,"##одвиж":8057,"##атическим":8058,"##оваку":8059,"##гомер":8060,"общий":8061,"навит":8062,"##отемперату":8063,"приле":8064,"##рут":8065,"залив":8066,"заряд":8067,"проез":8068,"отбора":8069,"сочета":8070,"##деформированные":8071,"опирания":8072,"спо":8073,"##ительными":8074,"подпит":8075,"подконтр":8076,"##щений":8077,"##щением":8078,"##ленными":8079,"стопор":8080,"защитно":8081,"переп":8082,"правовыми":8083,"полость":8084,"средой":8085,"##ированным":8086,"трубопроводу":8087,"кад":8088,"кажда":8089,"сик":8090,"##чания":8091,"##огруж":8092,"линию":8093,"трубопроводных":8094,"трубопроводам":8095,"продукт":8096,"##поромеры":8097,"##ованными":8098,"характеристике":8099,"меньше":8100,"кабельными":8101,"вводных":8102,"охра":8103,"##яжении":8104,"учесть":8105,"частью":8106,"115":8107,"органы":8108,"автоматическом":8109,"сваркой":8110,"город":8111,"сетевой":8112,"деталь":8113,"машиност":8114,"зазоры":8115,"проводом":8116,"возможных":8117,"номинальному":8118,"устанавливаться":8119,"покрыть":8120,"корпусом":8121,"устанавливает":8122,"выполненных":8123,"механической":8124,"309":8125,"токами":8126,"открыто":8127,"открытой":8128,"химические":8129,"принятым":8130,"обеспечивающей":8131,"площади":8132,"любой":8133,"трения":8134,"база":8135,"асбест":8136,"расположить":8137,"программной":8138,"тамб":8139,"минимально":8140,"действующее":8141,"965":8142,"210":8143,"диаметру":8144,"ремонтного":8145,"##овеш":8146,"функциональной":8147,"толчков":8148,"допустимого":8149,"смежных":8150,"ящик":8151,"проверя":8152,"ширины":8153,"нанесение":8154,"дополнительной":8155,"длин":8156,"##ect":8157,"торф":8158,"важных":8159,"напоромеры":8160,"фланцам":8161,"веса":8162,"указать":8163,"указывать":8164,"минимальное":8165,"минимальную":8166,"избыточного":8167,"многоступен":8168,"заполнения":8169,"механизма":8170,"исполнением":8171,"преиму":8172,"запорная":8173,"акп":8174,"взрывозащищенном":8175,"вертикальный":8176,"достижения":8177,"вариатив":8178,"005":8179,"комплектующие":8180,"дверях":8181,"создание":8182,"##роклимата":8183,"каркасу":8184,"наличия":8185,"1294":8186,"термоп":8187,"термостойки":8188,"заглуб":8189,"структурированные":8190,"волокон":8191,"##чатой":8192,"складировании":8193,"вибрационная":8194,"секционный":8195,"колебаний":8196,"взрывобезопасность":8197,"эффект":8198,"низкого":8199,"сжаты":8200,"концы":8201,"боковой":8202,"##оподготов":8203,"конденсат":8204,"перегрузок":8205,"компримирования":8206,"протоколы":8207,"эвакуационных":8208,"троса":8209,"шпун":8210,"емкостный":8211,"дистанционный":8212,"кожуха":8213,"параллельной":8214,"параметрам":8215,"диагностирования":8216,"преобразователи":8217,"модельные":8218,"тягона":8219,"тягомер":8220,"электростанции":8221,"цифров":8222,"понижен":8223,"повторное":8224,"профилирован":8225,"оптического":8226,"посадки":8227,"горловин":8228,"влияющих":8229,"графической":8230,"графическое":8231,"гидравлических":8232,"предохранительный":8233,"микроклимата":8234,"критически":8235,"перенапряжения":8236,"генерации":8237,"транспортируемой":8238,"водоотв":8239,"модификационные":8240,"подстанций":8241,"одино":8242,"##равновеш":8243,"природной":8244,"момента":8245,"подключенных":8246,"полимерным":8247,"специализированными":8248,"##бивки":8249,"кодекса":8250,"очереди":8251,"вместо":8252,"возврат":8253,"неисправность":8254,"шестигранной":8255,"мановаку":8256,"расчёт":8257,"реализу":8258,"спирально":8259,"исполнительный":8260,"смонтированных":8261,"накопления":8262,"сверху":8263,"слоем":8264,"теплоты":8265,"эквивалентное":8266,"небольш":8267,"54806":8268,"54805":8269,"вакуумметры":8270,"газомоторного":8271,"теплоносителя":8272,"выражен":8273,"торцовых":8274,"##чатый":8275,"находящиеся":8276,"##убли":8277,"автотранспор":8278,"отличаться":8279,"##494":8280,"дорогам":8281,"гребен":8282,"эргономические":8283,"коммерческого":8284,"неразруша":8285,"мониторин":8286,"мостиков":8287,"##обмоточного":8288,"идентификационное":8289,"критерии":8290,"##ыделением":8291,"подверж":8292,"межповерочного":8293,"здесь":8294,"укомплект":8295,"чугун":8296,"##отемператур":8297,"подконтроль":8298,"каждая":8299,"машиностроения":8300,"преимуще":8301,"тягонапоромеры":8302,"тягомеры":8303,"003":8304,"con":8305,"for":8306,"sap":8307,"амп":8308,"би":8309,"бск":8310,"благо":8311,"вст":8312,"вери":8313,"вблиз":8314,"гип":8315,"еп":8316,"зме":8317,"кис":8318,"лит":8319,"моб":8320,"он":8321,"той":8322,"ум":8323,"увер":8324,"фст":8325,"фас":8326,"хру":8327,"эласт":8328,"##оустойчив":8329,"##ается":8330,"##блю":8331,"##кр":8332,"##кред":8333,"##дств":8334,"##ьшения":8335,"##шие":8336,"##пы":8337,"##сей":8338,"##вм":8339,"##щер":8340,"##урой":8341,"##голет":8342,"##ъём":8343,"##жир":8344,"##st":8345,"##нипу":8346,"прези":8347,"##ерами":8348,"##оди":8349,"##атора":8350,"##лет":8351,"обяза":8352,"##омина":8353,"приб":8354,"задейств":8355,"заяв":8356,"##опакет":8357,"прок":8358,"поч":8359,"отп":8360,"отсе":8361,"выте":8362,"вывед":8363,"опорах":8364,"##очт":8365,"разогрева":8366,"разрушения":8367,"##рыва":8368,"оборудуется":8369,"##структ":8370,"##дают":8371,"##дающей":8372,"председ":8373,"осей":8374,"##усов":8375,"##тому":8376,"изготовленный":8377,"##ленное":8378,"быст":8379,"экраны":8380,"защитной":8381,"документами":8382,"авария":8383,"инерт":8384,"##исаны":8385,"106":8386,"компакт":8387,"типизации":8388,"настоящая":8389,"среднего":8390,"поставочных":8391,"##иваемые":8392,"необрабатыва":8393,"необходимый":8394,"транспорте":8395,"##огруз":8396,"комплекты":8397,"котлов":8398,"управлением":8399,"##ежных":8400,"обеспечен":8401,"элементом":8402,"переключ":8403,"водор":8404,"##ованной":8405,"резких":8406,"манипу":8407,"вероят":8408,"##разив":8409,"исключены":8410,"одна":8411,"следующими":8412,"приемос":8413,"##грева":8414,"ттэс":8415,"режиму":8416,"опорных":8417,"возможна":8418,"пуль":8419,"рук":8420,"##ателю":8421,"заземленной":8422,"1371":8423,"соответствующую":8424,"способных":8425,"процессах":8426,"содержания":8427,"атк":8428,"отдельной":8429,"представления":8430,"абразив":8431,"конструкторских":8432,"сборные":8433,"доступных":8434,"примесей":8435,"расположенным":8436,"программных":8437,"порядка":8438,"порядковый":8439,"608":8440,"601":8441,"стене":8442,"стеновых":8443,"угловых":8444,"3184":8445,"проведение":8446,"групповой":8447,"замков":8448,"оболочек":8449,"точка":8450,"##обычи":8451,"##умом":8452,"##умметры":8453,"приводной":8454,"повышенную":8455,"##ничивания":8456,"указанной":8457,"iii":8458,"оголов":8459,"герметичный":8460,"##агничивания":8461,"несущим":8462,"##газозаправочных":8463,"светоди":8464,"холода":8465,"допустимая":8466,"периодичность":8467,"связки":8468,"неподвиж":8469,"материалах":8470,"заданные":8471,"рама":8472,"шкафах":8473,"изготавливать":8474,"компрессоров":8475,"земель":8476,"минимальная":8477,"ответственных":8478,"нумер":8479,"ручных":8480,"токоведу":8481,"общепром":8482,"аккред":8483,"цепях":8484,"002":8485,"устойчивости":8486,"статические":8487,"##новения":8488,"классификатора":8489,"электромагнитным":8490,"кромки":8491,"подачу":8492,"глух":8493,"предусмотренные":8494,"термодат":8495,"получение":8496,"автогазозаправочных":8497,"приспособлениями":8498,"складов":8499,"складского":8500,"аттестация":8501,"временем":8502,"грунт":8503,"оснащ":8504,"оснащение":8505,"оснастить":8506,"болтовое":8507,"прописаны":8508,"ударная":8509,"ограничен":8510,"соблюдение":8511,"соблюдением":8512,"разработанные":8513,"предусматривают":8514,"бокс":8515,"всеми":8516,"кольцев":8517,"перегородками":8518,"615":8519,"вычислительная":8520,"оповещатель":8521,"дистанционного":8522,"розеток":8523,"многолет":8524,"приварку":8525,"наплы":8526,"короткое":8527,"отклонения":8528,"экономические":8529,"тяжелых":8530,"дымо":8531,"ступенями":8532,"дренажной":8533,"дренажная":8534,"модельных":8535,"увеличение":8536,"оформления":8537,"компоненты":8538,"10434":8539,"сжигания":8540,"штамповки":8541,"облицовка":8542,"модификационных":8543,"коридоров":8544,"входящие":8545,"специализированной":8546,"концентрационный":8547,"находиться":8548,"иптл":8549,"регистрации":8550,"аналогич":8551,"уменьшения":8552,"пределом":8553,"индуктив":8554,"рекомендованное":8555,"возникновении":8556,"электронно":8557,"диспетчерского":8558,"двусторонним":8559,"номенклатура":8560,"овального":8561,"пыли":8562,"##худ":8563,"инфраструкт":8564,"величину":8565,"турбогенераторов":8566,"геометрических":8567,"особенности":8568,"сплавов":8569,"помехам":8570,"субъектов":8571,"отрицательно":8572,"kcv":8573,"слоя":8574,"меньшей":8575,"одинаков":8576,"резиновые":8577,"окрашиванию":8578,"окрашиваемого":8579,"одностороннего":8580,"пленкой":8581,"23170":8582,"##ition":8583,"проволока":8584,"металлорукава":8585,"бурение":8586,"совмещен":8587,"одновременно":8588,"отключении":8589,"содержащейся":8590,"интегрируемого":8591,"прочего":8592,"электропривод":8593,"потребляемой":8594,"огнезащит":8595,"пяти":8596,"пенообразователя":8597,"министерства":8598,"литья":8599,"обезжир":8600,"диок":8601,"циркуля":8602,"предпочт":8603,"термообработки":8604,"кожухотрубчатые":8605,"стеклопакет":8606,"пневмат":8607,"вариативности":8608,"##оподготовки":8609,"мановакуумметры":8610,"вблизи":8611,"змеев":8612,"мобиль":8613,"уверенного":8614,"фстэк":8615,"хруп":8616,"президен":8617,"вытес":8618,"необрабатываемые":8619,"манипуля":8620,"13716":8621,"общепромышлен":8622,"аккредит":8623,"термодатчиков":8624,"58":8625,"62":8626,"800":8627,"946":8628,"iном":8629,"re":8630,"rtu":8631,"σt":8632,"аии":8633,"вч":8634,"вступ":8635,"гре":8636,"гиль":8637,"гси":8638,"дез":8639,"доля":8640,"кч":8641,"ла":8642,"лу":8643,"мем":8644,"нм":8645,"нему":8646,"нтс":8647,"рп":8648,"ульт":8649,"хра":8650,"хода":8651,"шеф":8652,"##оф":8653,"##оения":8654,"##оотвод":8655,"##тое":8656,"##тяже":8657,"##дат":8658,"##шему":8659,"##ненных":8660,"##376":8661,"##уру":8662,"##йп":8663,"##груж":8664,"##ii":8665,"##12":8666,"##ёст":8667,"##енном":8668,"##чению":8669,"##орит":8670,"##олег":8671,"##лее":8672,"##льную":8673,"##лись":8674,"националь":8675,"##отоп":8676,"##спе":8677,"##лять":8678,"##ляются":8679,"загруз":8680,"##тая":8681,"##лаб":8682,"проис":8683,"отключа":8684,"отстройка":8685,"нек":8686,"##истатическим":8687,"##ектра":8688,"##основ":8689,"##обеспечения":8690,"##тряс":8691,"реального":8692,"##имым":8693,"##очную":8694,"разных":8695,"исправ":8696,"спорт":8697,"спектра":8698,"проектов":8699,"##ительный":8700,"освет":8701,"подклад":8702,"подпор":8703,"подключе":8704,"подкос":8705,"подава":8706,"указана":8707,"##лог":8708,"сточных":8709,"комн":8710,"2018":8711,"##ись":8712,"полную":8713,"траншее":8714,"установкой":8715,"основанием":8716,"настоящему":8717,"настоящими":8718,"##онареза":8719,"средне":8720,"##куп":8721,"трубная":8722,"трубами":8723,"##ивание":8724,"##иваемых":8725,"качения":8726,"##ционным":8727,"##ционными":8728,"необходимой":8729,"сили":8730,"##ательный":8731,"элегаз":8732,"газоп":8733,"газовая":8734,"болот":8735,"приведения":8736,"разработка":8737,"разработать":8738,"протект":8739,"значению":8740,"значением":8741,"##развуков":8742,"электроотоп":8743,"вводами":8744,"согласовании":8745,"действии":8746,"изменении":8747,"##анализ":8748,"##репят":8749,"прокладочные":8750,"контрольного":8751,"токовых":8752,"опасными":8753,"входные":8754,"проводится":8755,"рулон":8756,"потребители":8757,"технологическому":8758,"230":8759,"противопожарный":8760,"1370":8761,"способностью":8762,"грузом":8763,"##кциям":8764,"максимальному":8765,"вентиляцией":8766,"вентиляционного":8767,"крепиться":8768,"арматуре":8769,"нефтяного":8770,"порогов":8771,"1696":8772,"открытые":8773,"отдельным":8774,"сборка":8775,"принятия":8776,"доступом":8777,"запира":8778,"50839":8779,"обеспечивающая":8780,"обеспечивающее":8781,"случай":8782,"теплоот":8783,"используемый":8784,"гермети":8785,"эксплуатационной":8786,"решениями":8787,"заказчик":8788,"несгора":8789,"предназначенной":8790,"##онеч":8791,"байп":8792,"минне":8793,"минпром":8794,"площадью":8795,"##абаритных":8796,"распорки":8797,"замок":8798,"количеством":8799,"сохранение":8800,"электроды":8801,"паровой":8802,"##203":8803,"53246":8804,"подразделов":8805,"образования":8806,"закрывания":8807,"закрытие":8808,"герметичным":8809,"единицу":8810,"руководящий":8811,"расстоянием":8812,"железным":8813,"направлений":8814,"рамки":8815,"покрытиям":8816,"воздушным":8817,"короба":8818,"коробка":8819,"коробах":8820,"каждое":8821,"самонареза":8822,"локализации":8823,"справочных":8824,"идентификат":8825,"идентификацию":8826,"дополнительного":8827,"высоков":8828,"газовый":8829,"газовыделением":8830,"имеют":8831,"электротехнического":8832,"пластик":8833,"температурно":8834,"блокировка":8835,"буро":8836,"радиальных":8837,"крепежа":8838,"горизонтальной":8839,"антикоррозионной":8840,"антикоррозионное":8841,"вертикальной":8842,"вертикальном":8843,"приспособлений":8844,"распределительной":8845,"представляющих":8846,"007":8847,"поправ":8848,"каркасы":8849,"крыша":8850,"глушения":8851,"##оконденс":8852,"перекачивания":8853,"энергетических":8854,"варианты":8855,"пробок":8856,"получа":8857,"планиру":8858,"волоком":8859,"эстет":8860,"вибрация":8861,"температурах":8862,"уплотнительные":8863,"низкотемператур":8864,"низколег":8865,"пропарки":8866,"беспрепят":8867,"ударный":8868,"встроенным":8869,"козыре":8870,"винтами":8871,"дораб":8872,"методику":8873,"поддержива":8874,"меди":8875,"предусматриваются":8876,"двигателей":8877,"свайных":8878,"законодательные":8879,"стоимость":8880,"протокола":8881,"удобном":8882,"проемов":8883,"резервуара":8884,"дистанционное":8885,"подлежащих":8886,"жидкостные":8887,"вязких":8888,"линейных":8889,"кожухи":8890,"параллельно":8891,"экономического":8892,"шлейфы":8893,"контур":8894,"свойствам":8895,"параметрах":8896,"регламента":8897,"регламентиру":8898,"555":8899,"продолжение":8900,"предварительного":8901,"оптико":8902,"ограничивают":8903,"ключ":8904,"оказывать":8905,"одножильного":8906,"дискрет":8907,"##отребления":8908,"рассматриваемые":8909,"рассматриваемой":8910,"большей":8911,"генер":8912,"цилиндрической":8913,"последующей":8914,"последующим":8915,"пересечении":8916,"формулы":8917,"предупрежде":8918,"сметы":8919,"землетряс":8920,"вдоль":8921,"швами":8922,"подвижной":8923,"грунтах":8924,"звукового":8925,"##шедших":8926,"обработан":8927,"##одейству":8928,"электронном":8929,"дежурном":8930,"возникающие":8931,"централизованных":8932,"коррозионностой":8933,"магнитных":8934,"утечек":8935,"стрел":8936,"функционирования":8937,"сплавы":8938,"электросет":8939,"включений":8940,"связанные":8941,"колонка":8942,"подвергаться":8943,"отгрузки":8944,"терминала":8945,"антистатическим":8946,"импульсных":8947,"искробезопасная":8948,"несоответствий":8949,"выверки":8950,"минтран":8951,"##генов":8952,"опытных":8953,"быстродейству":8954,"тревоги":8955,"понижающих":8956,"интеграции":8957,"энергию":8958,"трещин":8959,"утратившими":8960,"песча":8961,"заземлителей":8962,"нижестоящих":8963,"лицензию":8964,"электропотребителей":8965,"ошиновки":8966,"манометра":8967,"дождевой":8968,"печь":8969,"принадлежности":8970,"закачки":8971,"газораздат":8972,"переконсервации":8973,"асинхрон":8974,"недостат":8975,"хромат":8976,"появления":8977,"полупогруж":8978,"рассеивания":8979,"извле":8980,"двускатная":8981,"сооружаемых":8982,"острыми":8983,"пропускной":8984,"мдс":8985,"четырех":8986,"кадми":8987,"гребенки":8988,"мониторинга":8989,"##дствие":8990,"обязан":8991,"отпар":8992,"председателя":8993,"светодиод":8994,"индуктивное":8995,"манипуляционные":8996,"9467":8997,"аиис":8998,"дезин":8999,"ультразвуков":9000,"спортив":9001,"самонарезающими":9002,"беспрепятственный":9003,"козырек":9004,"землетрясения":9005,"газораздаточная":9006,"-(":9007,"000":9008,"57":9009,"ad":9010,"hb":9011,"iv":9012,"part":9013,"бест":9014,"буф":9015,"вата":9016,"впа":9017,"епп":9018,"зонир":9019,"кат":9020,"лив":9021,"пк":9022,"рр":9023,"риг":9024,"сед":9025,"син":9026,"скры":9027,"скин":9028,"уль":9029,"ухуд":9030,"фаль":9031,"це":9032,"шу":9033,"щеле":9034,"щсн":9035,"##бит":9036,"##лор":9037,"##ма":9038,"##мб":9039,"##сной":9040,"##во":9041,"##вн":9042,"##ящими":9043,"##уч":9044,"##зит":9045,"##цах":9046,"##генерат":9047,"##жные":9048,"##жена":9049,"##86":9050,"##эле":9051,"##15":9052,"##53":9053,"##500":9054,"##577":9055,"##ноле":9056,"##чений":9057,"##ордин":9058,"##ерным":9059,"##атной":9060,"##атики":9061,"##лег":9062,"обрабатыва":9063,"оборот":9064,"##либ":9065,"##емент":9066,"наклад":9067,"насти":9068,"примыка":9069,"приорит":9070,"##руда":9071,"заще":9072,"заключа":9073,"##опуск":9074,"отрас":9075,"соот":9076,"##зания":9077,"##озка":9078,"##ловые":9079,"##нению":9080,"вышедших":9081,"контра":9082,"условный":9083,"##ожного":9084,"опу":9085,"опора":9086,"##альному":9087,"##очист":9088,"развод":9089,"разность":9090,"разряда":9091,"безопасное":9092,"безопасную":9093,"осевым":9094,"ослаб":9095,"подсистем":9096,"изготовленных":9097,"ств":9098,"стяжки":9099,"обозначены":9100,"##получ":9101,"103":9102,"10704":9103,"основанию":9104,"строе":9105,"правило":9106,"##куэ":9107,"нормального":9108,"трубных":9109,"объектами":9110,"калиб":9111,"испыты":9112,"##евремен":9113,"автоматическим":9114,"линоле":9115,"газораспределения":9116,"болтами":9117,"потоков":9118,"протяжен":9119,"которому":9120,"резино":9121,"менед":9122,"вводятся":9123,"стальная":9124,"снижение":9125,"скобы":9126,"##ченных":9127,"##лыми":9128,"сигнализацию":9129,"единой":9130,"марку":9131,"металлы":9132,"инструкцию":9133,"определяемый":9134,"прокладкой":9135,"##жды":9136,"токе":9137,"поста":9138,"сетчатых":9139,"режимы":9140,"частиц":9141,"зазором":9142,"выполняют":9143,"выполняемых":9144,"опорные":9145,"##сад":9146,"номинальном":9147,"внутреннее":9148,"внутреннюю":9149,"нормативной":9150,"заземлении":9151,"допускающих":9152,"130":9153,"соответствующий":9154,"влз":9155,"способов":9156,"черда":9157,"диагона":9158,"нагрузках":9159,"установленный":9160,"##урных":9161,"максимальную":9162,"креплением":9163,"устройстве":9164,"плане":9165,"30494":9166,"открытых":9167,"объему":9168,"сооружение":9169,"кони":9170,"координ":9171,"расчетам":9172,"предназначенного":9173,"минут":9174,"расположенные":9175,"расположении":9176,"программы":9177,"задав":9178,"можно":9179,"приниматься":9180,"рекомендуемый":9181,"рекомендуемыми":9182,"парци":9183,"##204":9184,"870":9185,"однофазного":9186,"приводного":9187,"закрываются":9188,"герметичностью":9189,"##нителем":9190,"несущей":9191,"погрузку":9192,"инженерное":9193,"инженерными":9194,"выполненной":9195,"базы":9196,"служит":9197,"источники":9198,"проверку":9199,"измерительная":9200,"остан":9201,"тракт":9202,"ширину":9203,"гибель":9204,"запасных":9205,"дополнительный":9206,"дополнительную":9207,"отходами":9208,"комплексной":9209,"прямых":9210,"высокочастот":9211,"соприка":9212,"предоставлена":9213,"таре":9214,"валов":9215,"имеющая":9216,"##ское":9217,"990":9218,"ручным":9219,"принимаемая":9220,"51364":9221,"многофазных":9222,"общественные":9223,"соединительная":9224,"##невых":9225,"горизонтали":9226,"горизонтальные":9227,"галогенов":9228,"постоянным":9229,"антикоррозионным":9230,"тепловые":9231,"представляет":9232,"##245":9233,"независимой":9234,"стандартные":9235,"крыль":9236,"смесь":9237,"проходов":9238,"равными":9239,"операциях":9240,"дверь":9241,"клеммная":9242,"присоединительной":9243,"унифицированных":9244,"нижним":9245,"предельные":9246,"теплоп":9247,"теплопровод":9248,"##чатого":9249,"развозка":9250,"аттестованным":9251,"метрология":9252,"временной":9253,"временного":9254,"экспертный":9255,"договору":9256,"генераторах":9257,"взрывоопасными":9258,"утилизацией":9259,"закупаемых":9260,"любых":9261,"32600":9262,"встроенного":9263,"перекрытие":9264,"24054":9265,"соблюдать":9266,"защищаемом":9267,"поддержание":9268,"нагрев":9269,"цилиндровые":9270,"двигатель":9271,"газоанализ":9272,"законодательством":9273,"вспомогательного":9274,"продольной":9275,"позволяющий":9276,"6134":9277,"зажимов":9278,"удовлетворя":9279,"днища":9280,"обвязка":9281,"допусков":9282,"2891":9283,"лотка":9284,"приварные":9285,"твердостью":9286,"геологических":9287,"шлейфами":9288,"дымовые":9289,"свойствами":9290,"зону":9291,"##сида":9292,"перемещение":9293,"выпадения":9294,"отношении":9295,"предварительной":9296,"ведомости":9297,"влияние":9298,"растяжки":9299,"минеральная":9300,"критических":9301,"магни":9302,"пускового":9303,"пункту":9304,"обнаружение":9305,"исслед":9306,"пускона":9307,"превышающей":9308,"сальниковое":9309,"цистерн":9310,"##ремонт":9311,"первого":9312,"полиэтиленовым":9313,"градусов":9314,"природные":9315,"концентрации":9316,"надписи":9317,"гидроизоля":9318,"резьбовые":9319,"находится":9320,"замкнутые":9321,"оперативно":9322,"показаний":9323,"поступа":9324,"очередь":9325,"вместимость":9326,"своевремен":9327,"пеногенерат":9328,"сливо":9329,"возникающее":9330,"гарантируемых":9331,"агрессивных":9332,"архитектурно":9333,"журнал":9334,"журнала":9335,"брони":9336,"вращающиеся":9337,"далее":9338,"прилагаемые":9339,"вытяжной":9340,"разрушений":9341,"последств":9342,"геометрические":9343,"комбинированный":9344,"сверх":9345,"субъекта":9346,"отрицательного":9347,"связанных":9348,"кровельных":9349,"7798":9350,"пленки":9351,"##олиней":9352,"редуктор":9353,"глубине":9354,"прошедших":9355,"расконсервации":9356,"органов":9357,"трехжильного":9358,"ламелей":9359,"тнзнп":9360,"артезианской":9361,"обруча":9362,"склада":9363,"наконеч":9364,"прохождения":9365,"водонепроницаемой":9366,"минтруда":9367,"импортных":9368,"уменьшение":9369,"носит":9370,"углами":9371,"##опроиз":9372,"треугольником":9373,"радиопомехи":9374,"тупыми":9375,"углеродистой":9376,"участвующих":9377,"ксм":9378,"серийный":9379,"засыпка":9380,"неагрессивных":9381,"генерирующего":9382,"солнечного":9383,"желтого":9384,"отдаленные":9385,"##онагревателя":9386,"формируется":9387,"модернизации":9388,"пластмасс":9389,"нефтегазодобычи":9390,"погружении":9391,"гидроцилиндра":9392,"квадратные":9393,"роликовым":9394,"поврежден":9395,"мелким":9396,"общежит":9397,"термометра":9398,"мастер":9399,"ряду":9400,"##ent":9401,"подверженных":9402,"подконтрольном":9403,"преимущественно":9404,"благополуч":9405,"встык":9406,"задействованными":9407,"приемосдаточных":9408,"60870":9409,"диоксида":9410,"буроопуск":9411,"минтранса":9412,"отпаренных":9413,"дезинф":9414,"ультра":9415,"##элемент":9416,"защелки":9417,"линолеумом":9418,"соприкаса":9419,"(*":9420,"026":9421,"2856":9422,"co":9423,"pd":9424,"pro":9425,"st":9426,"um":9427,"ауст":9428,"блуж":9429,"встав":9430,"гла":9431,"диэ":9432,"душ":9433,"зм":9434,"иной":9435,"мо":9436,"оно":9437,"ору":9438,"остав":9439,"оказа":9440,"пэ":9441,"роу":9442,"свод":9443,"тк":9444,"тем":9445,"трет":9446,"фой":9447,"хоп":9448,"шла":9449,"эх":9450,"##рованы":9451,"##оцинкован":9452,"##бю":9453,"##бели":9454,"##блок":9455,"##тер":9456,"##кост":9457,"##електив":9458,"##пами":9459,"##ическая":9460,"##сер":9461,"##сид":9462,"##33":9463,"##физ":9464,"##злых":9465,"##цвет":9466,"##ыду":9467,"##гез":9468,"##ir":9469,"##электр":9470,"##ob":9471,"##tro":9472,"##52":9473,"##95":9474,"##ad":9475,"##net":9476,"##ch":9477,"##pa":9478,"##ls":9479,"##bat":9480,"##ge":9481,"##низ":9482,"##овом":9483,"##енное":9484,"##ерог":9485,"##ерыва":9486,"##начить":9487,"##реобразов":9488,"обы":9489,"обла":9490,"обруш":9491,"общую":9492,"##лича":9493,"нарушения":9494,"##остроения":9495,"притв":9496,"ранее":9497,"зале":9498,"заноса":9499,"##ехком":9500,"пояс":9501,"отчет":9502,"гостехком":9503,"##товой":9504,"выле":9505,"выгруз":9506,"вывести":9507,"конец":9508,"##осбор":9509,"##обальных":9510,"##имые":9511,"##имметрич":9512,"опс":9513,"усть":9514,"##изм":9515,"разгра":9516,"##вании":9517,"методов":9518,"##циям":9519,"проекту":9520,"предмет":9521,"предше":9522,"предыду":9523,"##ительным":9524,"##локи":9525,"стена":9526,"экране":9527,"электронных":9528,"обозначить":9529,"обозначением":9530,"документам":9531,"гашение":9532,"авиа":9533,"##матизм":9534,"##фиолет":9535,"упомина":9536,"108":9537,"105":9538,"1050":9539,"транзит":9540,"компози":9541,"##ковым":9542,"правильным":9543,"нефть":9544,"частные":9545,"определенные":9546,"определенного":9547,"определён":9548,"нормально":9549,"нормальных":9550,"насосной":9551,"##ированное":9552,"пожарным":9553,"пожароопас":9554,"##тый":9555,"объектом":9556,"##борных":9557,"##борной":9558,"испытаны":9559,"испытании":9560,"заводские":9561,"необходимую":9562,"транспортировать":9563,"проветр":9564,"комплектом":9565,"комплектоваться":9566,"газе":9567,"местный":9568,"перес":9569,"##формации":9570,"приведенными":9571,"воде":9572,"##виру":9573,"протяжении":9574,"таке":9575,"##ользу":9576,"взрывонепроница":9577,"снижении":9578,"скр":9579,"учетных":9580,"ори":9581,"приемного":9582,"применяемое":9583,"законсер":9584,"воздействие":9585,"изменением":9586,"колоно":9587,"сварку":9588,"##остойкого":9589,"входному":9590,"приборостроения":9591,"проводки":9592,"проводок":9593,"формате":9594,"опоре":9595,"##роион":9596,"##ронирован":9597,"вице":9598,"монтажными":9599,"информатики":9600,"1469":9601,"противопожарным":9602,"специфи":9603,"##ирующие":9604,"##ирующая":9605,"способа":9606,"способе":9607,"панелях":9608,"нагрузку":9609,"серия":9610,"масл":9611,"корпусных":9612,"содержанием":9613,"устанавливаемые":9614,"1940":9615,"##ералов":9616,"механическую":9617,"показателями":9618,"открывания":9619,"открытым":9620,"химический":9621,"междуна":9622,"рабочую":9623,"числом":9624,"принят":9625,"запирания":9626,"края":9627,"питающего":9628,"грузового":9629,"теплофиз":9630,"15180":9631,"используемого":9632,"зависимой":9633,"эксплуатационного":9634,"##утн":9635,"резервные":9636,"резервным":9637,"трансформации":9638,"неселектив":9639,"несимметрич":9640,"##онесу":9641,"минералов":9642,"площадка":9643,"стенах":9644,"фланцевого":9645,"коэффициенты":9646,"разделу":9647,"##201":9648,"5356":9649,"53245":9650,"составляющих":9651,"охранным":9652,"##образия":9653,"канале":9654,"канала":9655,"##ничной":9656,"надле":9657,"закрытого":9658,"электродвигателе":9659,"измерениях":9660,"герметичные":9661,"герметичными":9662,"требуемого":9663,"света":9664,"светового":9665,"превышения":9666,"патрубка":9667,"цикл":9668,"сооружениям":9669,"связок":9670,"базовый":9671,"##скими":9672,"ящикам":9673,"273":9674,"коробкам":9675,"##мкости":9676,"высоко":9677,"предоставить":9678,"стропов":9679,"структура":9680,"513":9681,"поставлять":9682,"поставляемых":9683,"мебели":9684,"длительности":9685,"преобраз":9686,"пресной":9687,"крепежом":9688,"коммуна":9689,"компрессорное":9690,"искро":9691,"глобальных":9692,"обслуживанию":9693,"антикоррозионную":9694,"вертикальная":9695,"приспособление":9696,"влажности":9697,"влажную":9698,"описанием":9699,"чувствительность":9700,"собственного":9701,"представлять":9702,"независимых":9703,"независимым":9704,"попут":9705,"закрепления":9706,"дверям":9707,"горючими":9708,"лес":9709,"лесов":9710,"регулирующая":9711,"наличи":9712,"линиям":9713,"указывает":9714,"огнестойк":9715,"структурное":9716,"скважиной":9717,"##роклимату":9718,"зонами":9719,"скорост":9720,"аналог":9721,"нагрет":9722,"секционир":9723,"подъеме":9724,"подъемно":9725,"технологиям":9726,"месяц":9727,"закупки":9728,"закупленной":9729,"розничной":9730,"видами":9731,"соблюдении":9732,"соблюдаться":9733,"теплоизоляцию":9734,"коммуникациям":9735,"адгез":9736,"признаются":9737,"52376":9738,"предназначено":9739,"плоского":9740,"компенса":9741,"низковольтное":9742,"интерфей":9743,"чертежи":9744,"эффективных":9745,"станциях":9746,"деталях":9747,"первичных":9748,"визуального":9749,"плиткой":9750,"горячее":9751,"горячеоцинкован":9752,"компенсаторов":9753,"линейного":9754,"линейный":9755,"параллельных":9756,"квали":9757,"8673":9758,"вагона":9759,"автономной":9760,"автономное":9761,"диагностировании":9762,"модельному":9763,"тягов":9764,"##ведения":9765,"увеличения":9766,"оптической":9767,"утверждёнными":9768,"фундаментные":9769,"ключей":9770,"диск":9771,"рекомендациями":9772,"микроклимату":9773,"компримированный":9774,"модификационному":9775,"диспетче":9776,"оцинкованный":9777,"штек":9778,"подстанции":9779,"последующего":9780,"снятие":9781,"формулам":9782,"шайб":9783,"решетки":9784,"административные":9785,"счетчики":9786,"подвижного":9787,"стойкими":9788,"принципиальные":9789,"принципиальный":9790,"принципиальная":9791,"контроллеров":9792,"окончания":9793,"##robat":9794,"назначенных":9795,"двойным":9796,"располагаются":9797,"комфорт":9798,"поперечном":9799,"ситуация":9800,"горелка":9801,"пространства":9802,"уборку":9803,"спиральный":9804,"дальнейшего":9805,"пыле":9806,"выступать":9807,"стрелы":9808,"расцепителем":9809,"колодцев":9810,"колодцы":9811,"##оченное":9812,"упорные":9813,"выбранного":9814,"навесом":9815,"размещенных":9816,"клеток":9817,"месторождениях":9818,"травматизм":9819,"небронирован":9820,"граждан":9821,"регулировки":9822,"предприятиями":9823,"обусловить":9824,"трудовой":9825,"границах":9826,"противоположной":9827,"17025":9828,"втул":9829,"сырых":9830,"выверка":9831,"наименьшие":9832,"трансмиссии":9833,"трансмиссион":9834,"отвечающих":9835,"отображение":9836,"соединенных":9837,"пружинный":9838,"приточных":9839,"дефицита":9840,"ствола":9841,"эксплуатиру":9842,"расходомер":9843,"морозоустойчив":9844,"газопоршневого":9845,"опломбированы":9846,"диафрагмен":9847,"62053":9848,"аэроион":9849,"маршевые":9850,"индустриальные":9851,"гальванического":9852,"легковоспламеняющиеся":9853,"frls":9854,"выдан":9855,"броска":9856,"утверждаются":9857,"опорожнения":9858,"совпадают":9859,"взрывозащите":9860,"энергосбережении":9861,"эпидемиологическом":9862,"acrobat":9863,"намагничивания":9864,"упруги":9865,"ремонту":9866,"электросварные":9867,"подвергнуты":9868,"конфигурации":9869,"3242":9870,"лазерным":9871,"фонд":9872,"региона":9873,"реагентов":9874,"стабилизации":9875,"электроснабжением":9876,"водоподъемной":9877,"бараб":9878,"вестибю":9879,"навитые":9880,"прилега":9881,"термопреобразов":9882,"волоконно":9883,"пониженной":9884,"contro":9885,"верификация":9886,"умыв":9887,"эластич":9888,"проката":9889,"компактность":9890,"переключатель":9891,"31842":9892,"наплывов":9893,"стеклопакетами":9894,"некотор":9895,"подкоса":9896,"силикон":9897,"байпас":9898,"минпромтор":9899,"высоковольт":9900,"обработанные":9901,"недостаточной":9902,"кадмирования":9903,"adob":9904,"приоритетов":9905,"калибров":9906,"диагонали":9907,"координаты":9908,"парциального":9909,"останова":9910,"благополучии":9911,"ультрафиолет":9912,"(*.":9913,"28567":9914,"pdf":9915,"аустени":9916,"диэлектр":9917,"ткз":9918,"третий":9919,"фойе":9920,"эхз":9921,"обрушений":9922,"гостехкомиссии":9923,"разграни":9924,"стенами":9925,"упоминание":9926,"законсерв":9927,"колонок":9928,"53561":9929,"горячеоцинкованный":9930,"морозоустойчивые":9931,"аэроионному":9932,"control":9933,"adobe":9934,"280":9935,"4203":9936,"in":9937,"ºс":9938,"бак":9939,"бере":9940,"бенз":9941,"брут":9942,"дм":9943,"дна":9944,"жёст":9945,"ид":9946,"кус":9947,"кутн":9948,"мг":9949,"мот":9950,"нтп":9951,"ро":9952,"рти":9953,"сш":9954,"снего":9955,"сэк":9956,"слой":9957,"сменные":9958,"снима":9959,"трой":9960,"уравновеш":9961,"ущер":9962,"хому":9963,"элли":9964,"##рована":9965,"##оци":9966,"##ано":9967,"##тного":9968,"##тир":9969,"##тены":9970,"##техни":9971,"##тящего":9972,"##елю":9973,"##ллю":9974,"##пен":9975,"##под":9976,"##сет":9977,"##ненного":9978,"##37":9979,"##38":9980,"##гда":9981,"##ur":9982,"##ul":9983,"##ee":9984,"##90":9985,"##99":9986,"##ab":9987,"##mp":9988,"##нике":9989,"##ста":9990,"##орб":9991,"##ерная":9992,"##ерти":9993,"##ервиру":9994,"##кис":9995,"##госу":9996,"##рение":9997,"##льности":9998,"##льными":9999,"##лик":10000,"##лищ":10001,"##лиру":10002,"нале":10003,"набора":10004,"наблю":10005,"##ствовать":10006,"##отка":10007,"##руг":10008,"заб":10009,"зас":10010,"загра":10011,"заруб":10012,"заключение":10013,"запуск":10014,"##тах":10015,"##опласт":10016,"прогиб":10017,"прогона":10018,"покуп":10019,"отсоед":10020,"оттяже":10021,"##авать":10022,"##необеспечения":10023,"##истые":10024,"выгруж":10025,"конус":10026,"консу":10027,"реген":10028,"##иях":10029,"##имого":10030,"условным":10031,"опуска":10032,"устал":10033,"##изированные":10034,"разные":10035,"##роваться":10036,"проектные":10037,"проектными":10038,"проектировать":10039,"##дая":10040,"предлож":10041,"подписями":10042,"##тием":10043,"##ленную":10044,"##жек":10045,"стать":10046,"защитная":10047,"защитном":10048,"электрогенерат":10049,"2019":10050,"гай":10051,"гашения":10052,"инде":10053,"упоры":10054,"право":10055,"полей":10056,"трансп":10057,"установочные":10058,"##чиком":10059,"среднее":10060,"средняя":10061,"##дена":10062,"определению":10063,"##дарственный":10064,"пожароопасных":10065,"пожаровзрыв":10066,"строительным":10067,"заводским":10068,"необходимым":10069,"сила":10070,"характеру":10071,"климатом":10072,"приведенного":10073,"водоподготовки":10074,"разработана":10075,"##ованный":10076,"давлений":10077,"напряжен":10078,"следующая":10079,"следующую":10080,"снижению":10081,"согласовать":10082,"сквоз":10083,"приемный":10084,"сигналом":10085,"другу":10086,"применяемого":10087,"металлу":10088,"сварной":10089,"свариваются":10090,"посты":10091,"опасного":10092,"входная":10093,"входную":10094,"зазора":10095,"##цевая":10096,"возможного":10097,"пульт":10098,"номинальных":10099,"технологичной":10100,"монтажный":10101,"нормативов":10102,"поверены":10103,"1815":10104,"016":10105,"устройствах":10106,"достовер":10107,"заземлению":10108,"деэта":10109,"232":10110,"##ывают":10111,"1311":10112,"специальной":10113,"##ирующих":10114,"процессы":10115,"панеля":10116,"установленное":10117,"содержащее":10118,"межремонт":10119,"межгосу":10120,"190":10121,"вентиляционная":10122,"категорию":10123,"миними":10124,"нефтяная":10125,"прочност":10126,"конструктивно":10127,"2246":10128,"##муль":10129,"наружному":10130,"напряжении":10131,"сборочными":10132,"учтены":10133,"запуска":10134,"краном":10135,"обеспечивающим":10136,"теплоустойчив":10137,"1516":10138,"регулированием":10139,"киус":10140,"используемое":10141,"центровки":10142,"классифициру":10143,"осуществляемой":10144,"площадками":10145,"стенд":10146,"тамбу":10147,"минимум":10148,"минимальные":10149,"проведению":10150,"проектируемом":10151,"количественные":10152,"2174":10153,"коэффициентов":10154,"разделения":10155,"разделы":10156,"партии":10157,"охранных":10158,"санитарной":10159,"закрытом":10160,"подготовке":10161,"подготовленных":10162,"анализа":10163,"световой":10164,"световое":10165,"единицами":10166,"руководством":10167,"периоды":10168,"периодической":10169,"организациями":10170,"смещение":10171,"выполненным":10172,"выполненную":10173,"разгрузку":10174,"##ологии":10175,"распределенная":10176,"изменяется":10177,"заданного":10178,"1993":10179,"коробках":10180,"трамб":10181,"самонесу":10182,"нанесением":10183,"##щегося":10184,"подтвержда":10185,"комплексов":10186,"принципу":10187,"341":10188,"##ировка":10189,"сосуд":10190,"указателя":10191,"модульная":10192,"жилого":10193,"кувн":10194,"справочный":10195,"электротехнических":10196,"##обменной":10197,"лестницам":10198,"величине":10199,"строповых":10200,"ручного":10201,"ручном":10202,"многократ":10203,"утеплены":10204,"утепленных":10205,"общеобменной":10206,"энергоп":10207,"соединительной":10208,"выделения":10209,"внесены":10210,"совместного":10211,"совместимости":10212,"преобразования":10213,"теплообменное":10214,"компрессорная":10215,"организационно":10216,"постоянно":10217,"штуцерами":10218,"вертикальные":10219,"вертикально":10220,"капитальных":10221,"капитальный":10222,"влажност":10223,"фильт":10224,"##немер":10225,"крутящего":10226,"обогревателя":10227,"умеренным":10228,"автомобильные":10229,"операционная":10230,"судов":10231,"клеммным":10232,"гарантийной":10233,"подаче":10234,"часа":10235,"планировка":10236,"красный":10237,"нефтегазового":10238,"560":10239,"опросный":10240,"скоростью":10241,"временном":10242,"месторождение":10243,"очистку":10244,"экранир":10245,"экспертизу":10246,"увлаж":10247,"предотвра":10248,"генераторами":10249,"макроклиматических":10250,"шаги":10251,"##ереда":10252,"распространяющими":10253,"соблюдая":10254,"защищаемые":10255,"ведения":10256,"изолированных":10257,"медным":10258,"плотного":10259,"эмс":10260,"турбина":10261,"шарнир":10262,"диапазона":10263,"включаются":10264,"смазка":10265,"торцевой":10266,"нагнетании":10267,"ремонтопригодным":10268,"политики":10269,"свободный":10270,"балл":10271,"легко":10272,"вычислительные":10273,"стойкой":10274,"стойких":10275,"свидетельств":10276,"холодной":10277,"холодным":10278,"переходных":10279,"контейнера":10280,"контейнеры":10281,"контейнеров":10282,"трансформаторных":10283,"трансформаторная":10284,"дуговых":10285,"четкость":10286,"козырьки":10287,"контура":10288,"автономными":10289,"погружных":10290,"железнодорожные":10291,"перемещать":10292,"особо":10293,"9454":10294,"обоснованные":10295,"отказе":10296,"электростанция":10297,"замыканиях":10298,"10495":10299,"другое":10300,"сжижен":10301,"дзш":10302,"отметке":10303,"галере":10304,"наземных":10305,"рекомендаций":10306,"передачу":10307,"водоем":10308,"плитами":10309,"сметная":10310,"освоения":10311,"решеток":10312,"буквы":10313,"счетчик":10314,"обечай":10315,"контроллера":10316,"сумма":10317,"оперативного":10318,"бумагой":10319,"концевые":10320,"звуковой":10321,"торможения":10322,"вторичных":10323,"вторичного":10324,"жизнеобеспечения":10325,"прекращение":10326,"начале":10327,"стационарные":10328,"коммутационных":10329,"укладки":10330,"горелочных":10331,"блокировок":10332,"пространство":10333,"##852":10334,"##озаправочная":10335,"испытательного":10336,"головка":10337,"резистор":10338,"загрязнение":10339,"загрязнений":10340,"консоль":10341,"теплотехни":10342,"выбранных":10343,"отработку":10344,"размещаться":10345,"травления":10346,"резиновой":10347,"отражены":10348,"раздельные":10349,"подлежит":10350,"батарея":10351,"противокоррозионной":10352,"сравнению":10353,"обшивки":10354,"обшивка":10355,"реактора":10356,"разрабатывать":10357,"размещаемые":10358,"сертифицированные":10359,"сертифицированными":10360,"трехжильных":10361,"жалюзий":10362,"лидера":10363,"лидерной":10364,"целесообразности":10365,"индика":10366,"##компонент":10367,"артезианских":10368,"кольцо":10369,"конфигур":10370,"раствора":10371,"бурением":10372,"противоаварийной":10373,"стеллажей":10374,"втулки":10375,"складе":10376,"прохождении":10377,"водонепроницаемую":10378,"открывающиеся":10379,"автотрансформат":10380,"беза":10381,"##камерными":10382,"##опроцесс":10383,"негермет":10384,"трещины":10385,"синхро":10386,"уфг":10387,"потребителям":10388,"ошибок":10389,"сторонах":10390,"пломбируются":10391,"энергорайоне":10392,"индустриальных":10393,"слесарных":10394,"инфракрасный":10395,"расцепителями":10396,"футля":10397,"подвеш":10398,"траншеи":10399,"траншеях":10400,"заклеиваются":10401,"электрохимического":10402,"усилие":10403,"усилий":10404,"запроект":10405,"сибири":10406,"привязки":10407,"преграда":10408,"ударами":10409,"микропроцесс":10410,"бронированные":10411,"сбрасыванием":10412,"барьерной":10413,"головки":10414,"доводчики":10415,"неотъем":10416,"газопроводов":10417,"перевооружения":10418,"равномерно":10419,"проработки":10420,"11447":10421,"металлопрок":10422,"exdii":10423,"косвенным":10424,"оребр":10425,"шпунт":10426,"автотранспорта":10427,"заявленной":10428,"многолетнемер":10429,"совмещенная":10430,"вступления":10431,"греющий":10432,"##спеш":10433,"рулонный":10434,"пластиката":10435,"ключом":10436,"аиискуэ":10437,"впадин":10438,"зонирования":10439,"щелевых":10440,"строений":10441,"28919":10442,"пусконаладочные":10443,"своевременное":10444,"выгрузка":10445,"взрывонепроницаемая":10446,"минпромторга":10447,"разграничения":10448,"брутто":10449,"жёстко":10450,"кусн":10451,"мотопом":10452,"сэкв":10453,"эллип":10454,"##ертиза":10455,"зарубежных":10456,"прогонам":10457,"оттяжек":10458,"выгружать":10459,"деэтанизации":10460,"1311500":10461,"межгосударственный":10462,"-,":10463,"284":10464,"466":10465,"700":10466,"724":10467,"ed":10468,"ral":10469,"апр":10470,"анод":10471,"вп":10472,"вент":10473,"грав":10474,"дб":10475,"ду":10476,"дата":10477,"дгр":10478,"дубли":10479,"жгу":10480,"зр":10481,"иллю":10482,"керами":10483,"лин":10484,"лнд":10485,"левым":10486,"муль":10487,"мотор":10488,"нит":10489,"очи":10490,"ожи":10491,"пир":10492,"тсп":10493,"ттр":10494,"тая":10495,"тэс":10496,"удерж":10497,"фир":10498,"фона":10499,"хор":10500,"цп":10501,"шсв":10502,"эт":10503,"эсн":10504,"яр":10505,"яв":10506,"яче":10507,"яру":10508,"##рно":10509,"##раты":10510,"##ронных":10511,"##аэ":10512,"##бе":10513,"##кса":10514,"##кционно":10515,"##дер":10516,"##екции":10517,"##шу":10518,"##чное":10519,"##варий":10520,"##нной":10521,"##39":10522,"##щенных":10523,"##уд":10524,"##йчат":10525,"##говой":10526,"##гаться":10527,"##глик":10528,"##200":10529,"##65":10530,"##жать":10531,"##жду":10532,"##ol":10533,"##100":10534,"##ag":10535,"##овке":10536,"##носу":10537,"##енности":10538,"##чены":10539,"##орная":10540,"##ерн":10541,"##одшип":10542,"##атные":10543,"##левые":10544,"##нам":10545,"обест":10546,"общим":10547,"##рай":10548,"##лин":10549,"##ливе":10550,"нару":10551,"напол":10552,"набивки":10553,"##отных":10554,"##отдели":10555,"приготов":10556,"приям":10557,"##ляемого":10558,"##лятор":10559,"##онной":10560,"раму":10561,"зави":10562,"завар":10563,"захв":10564,"##опреде":10565,"##опогруз":10566,"##ланы":10567,"изобра":10568,"проуш":10569,"покр":10570,"##менными":10571,"отстрой":10572,"относится":10573,"отлича":10574,"##оксид":10575,"##истент":10576,"##товать":10577,"##обыва":10578,"##обированных":10579,"метана":10580,"условных":10581,"##изол":10582,"системное":10583,"##вал":10584,"##ваемых":10585,"спец":10586,"проектам":10587,"##даления":10588,"предустанов":10589,"предлага":10590,"##окую":10591,"осевых":10592,"подб":10593,"подряда":10594,"подроб":10595,"подрай":10596,"##щено":10597,"изготовлена":10598,"изготовленным":10599,"стока":10600,"стено":10601,"электрона":10602,"табло":10603,"##ольного":10604,"##полном":10605,"перера":10606,"авар":10607,"объё":10608,"полным":10609,"полам":10610,"полям":10611,"установив":10612,"установками":10613,"закрыв":10614,"частями":10615,"##чиками":10616,"определены":10617,"определении":10618,"сви":10619,"трубные":10620,"поставочного":10621,"##прием":10622,"строительными":10623,"##ивающие":10624,"кажду":10625,"##гам":10626,"##гами":10627,"##елям":10628,"промышленность":10629,"##нятия":10630,"##онтакт":10631,"необходимыми":10632,"автоматы":10633,"сиф":10634,"транспортного":10635,"транспортировки":10636,"парафи":10637,"основному":10638,"122":10639,"12000":10640,"газоконденс":10641,"перевод":10642,"водогре":10643,"водовод":10644,"155":10645,"1500":10646,"клад":10647,"квар":10648,"значении":10649,"падения":10650,"исчис":10651,"макетов":10652,"кабельное":10653,"охлад":10654,"стальными":10655,"учет":10656,"сигнализ":10657,"112":10658,"сварная":10659,"сварочная":10660,"посторон":10661,"##ехнадз":10662,"решению":10663,"частично":10664,"частицы":10665,"зазор":10666,"проводимые":10667,"выполняет":10668,"данной":10669,"внутренним":10670,"термической":10671,"1400":10672,"устройствам":10673,"заземлены":10674,"современ":10675,"допускаемое":10676,"противопожарном":10677,"ростехнадз":10678,"высокую":10679,"помещениям":10680,"процессор":10681,"покрытые":10682,"триэтилен":10683,"вентиляционной":10684,"блоком":10685,"##катов":10686,"воздействиям":10687,"2285":10688,"порош":10689,"механическому":10690,"показывает":10691,"открытие":10692,"открывание":10693,"знаков":10694,"междуфазных":10695,"климатической":10696,"активное":10697,"сеном":10698,"фактических":10699,"упаковочный":10700,"упаковываются":10701,"примеси":10702,"запора":10703,"изоляцию":10704,"постановлений":10705,"графит":10706,"электрооборудовании":10707,"электрооборудованию":10708,"герметиков":10709,"расчетах":10710,"резервная":10711,"резервное":10712,"тремя":10713,"силовыми":10714,"выходом":10715,"выходящими":10716,"##ющимся":10717,"средствах":10718,"программные":10719,"606":10720,"60204":10721,"угроз":10722,"проектируемые":10723,"трансформатором":10724,"сохране":10725,"выдержку":10726,"парка":10727,"##302":10728,"809":10729,"##ждением":10730,"государственного":10731,"8713":10732,"передви":10733,"канал":10734,"канализа":10735,"оболочку":10736,"жила":10737,"одноряд":10738,"одноцеп":10739,"обязательно":10740,"приводить":10741,"приводится":10742,"повышенным":10743,"подразделами":10744,"санитарных":10745,"образца":10746,"образцах":10747,"закрывании":10748,"информационный":10749,"цельно":10750,"сохраня":10751,"ппд":10752,"холлах":10753,"погрузке":10754,"175":10755,"допустимым":10756,"допустимый":10757,"периодических":10758,"периодическое":10759,"сооружениями":10760,"смещения":10761,"моделей":10762,"распределение":10763,"служа":10764,"изменяться":10765,"коррозионного":10766,"коррозионное":10767,"положению":10768,"заданный":10769,"заданным":10770,"рамное":10771,"трехобмоточного":10772,"массовой":10773,"массовая":10774,"трактор":10775,"нанесенным":10776,"маркировочных":10777,"присоединением":10778,"чешу":10779,"идентифици":10780,"дополнительным":10781,"дополнительному":10782,"длину":10783,"принципами":10784,"обмотками":10785,"3423":10786,"тару":10787,"цнсз":10788,"детализации":10789,"сдво":10790,"напоре":10791,"напором":10792,"имеющего":10793,"избыт":10794,"относительной":10795,"относительное":10796,"последовательно":10797,"огнеуп":10798,"физической":10799,"пластовых":10800,"извещателям":10801,"центральный":10802,"пище":10803,"охлажда":10804,"ограждающим":10805,"многоэлемент":10806,"заполнить":10807,"поставляемое":10808,"общества":10809,"совместной":10810,"теплообмена":10811,"добычу":10812,"ответными":10813,"компрессорные":10814,"организацией":10815,"постоянных":10816,"обслуживаемой":10817,"##110":10818,"затраты":10819,"объедин":10820,"этапа":10821,"этажа":10822,"регулирующей":10823,"уплотнениям":10824,"##ителями":10825,"изготавливаемые":10826,"крышек":10827,"предусмотренных":10828,"пробным":10829,"огнестойки":10830,"##варных":10831,"расходов":10832,"молниеприем":10833,"складирование":10834,"присоединяются":10835,"567":10836,"фиксатором":10837,"##коподшип":10838,"оснащен":10839,"болтовых":10840,"прямоугольный":10841,"предотвраща":10842,"оценкой":10843,"проплав":10844,"потолкам":10845,"ударным":10846,"вычислений":10847,"любое":10848,"территори":10849,"территорий":10850,"видам":10851,"перекрытий":10852,"коммуникациями":10853,"фазного":10854,"методикой":10855,"медных":10856,"плотностью":10857,"уклона":10858,"шаровых":10859,"питьевой":10860,"##вязи":10861,"торцевые":10862,"торцевое":10863,"вспомогательное":10864,"продольная":10865,"продольном":10866,"магистральной":10867,"усиленная":10868,"перегородках":10869,"613":10870,"жестких":10871,"тонн":10872,"вычислительных":10873,"шпс":10874,"стойках":10875,"шинами":10876,"исключает":10877,"первичного":10878,"клапанам":10879,"горячедеформированные":10880,"автопогруз":10881,"##равнивание":10882,"экономической":10883,"тяжелыми":10884,"дымовой":10885,"дымоу":10886,"автономная":10887,"погружной":10888,"подземной":10889,"подземная":10890,"диагностики":10891,"перемещением":10892,"модельный":10893,"9493":10894,"##ated":10895,"обоснование":10896,"повторных":10897,"приведенное":10898,"увеличить":10899,"оптими":10900,"графики":10901,"учёта":10902,"сжига":10903,"предохранительных":10904,"генераторного":10905,"транспортируемая":10906,"водогаз":10907,"модификационный":10908,"протекающий":10909,"счёт":10910,"неиспользу":10911,"формула":10912,"планов":10913,"сметной":10914,"первую":10915,"входящего":10916,"подключенной":10917,"концентрация":10918,"отсека":10919,"резьбовым":10920,"управляющих":10921,"владель":10922,"##ess":10923,"инвентарные":10924,"аналогично":10925,"аналогичных":10926,"##хождения":10927,"##льтерн":10928,"##спределения":10929,"возникающих":10930,"диспетчерское":10931,"ограждений":10932,"магнитному":10933,"динамические":10934,"уборочного":10935,"исполнительных":10936,"оптимальным":10937,"дальнейшая":10938,"выступа":10939,"разъемы":10940,"недопустимо":10941,"комбинированными":10942,"институ":10943,"дозирования":10944,"консоли":10945,"консистент":10946,"упоряд":10947,"размещением":10948,"кровельные":10949,"нагревательные":10950,"аккумуляторной":10951,"##чивание":10952,"##страции":10953,"##ораспределитель":10954,"регулировке":10955,"надземной":10956,"односторонним":10957,"катало":10958,"подшипникам":10959,"батарей":10960,"сравнитель":10961,"проволок":10962,"размещаемого":10963,"кронштейне":10964,"комфортабельной":10965,"главная":10966,"лампами":10967,"разрабатываются":10968,"взаимодействие":10969,"кустовой":10970,"кустовых":10971,"рнм":10972,"раствор":10973,"электроосвещения":10974,"электроосвещению":10975,"противоположных":10976,"нержавеющие":10977,"трехфазной":10978,"ветв":10979,"кантовать":10980,"глубину":10981,"декоративно":10982,"декоративным":10983,"сопровождение":10984,"долей":10985,"негабаритных":10986,"симметричным":10987,"бетонные":10988,"тупиков":10989,"обороны":10990,"команде":10991,"создаваемые":10992,"аэрод":10993,"близости":10994,"броня":10995,"копия":10996,"серийно":10997,"##остойких":10998,"подогревом":10999,"энергорайона":11000,"защищенными":11001,"грунтовых":11002,"низконапорные":11003,"низконапорного":11004,"штабел":11005,"градостроительный":11006,"манжеты":11007,"футеров":11008,"токсичности":11009,"вентилятором":11010,"уплотняемой":11011,"эстакадах":11012,"герметизирующего":11013,"отапливаемого":11014,"печи":11015,"рециркуляции":11016,"сибирского":11017,"вторая":11018,"шарикоподшип":11019,"заделаны":11020,"ревизию":11021,"ростверка":11022,"высоконапорные":11023,"подвергают":11024,"одинарным":11025,"товаросопроводительную":11026,"сплошными":11027,"сменных":11028,"западно":11029,"взлетной":11030,"прокладываемых":11031,"рукава":11032,"растрескивание":11033,"гардер":11034,"делитель":11035,"рыча":11036,"уложены":11037,"заливкой":11038,"подпиточной":11039,"продукты":11040,"охраной":11041,"термостойкими":11042,"сжатым":11043,"кислот":11044,"рукоят":11045,"абразивные":11046,"токоведущих":11047,"электроприводом":11048,"вытеснителя":11049,"подаваемой":11050,"электроотопления":11051,"16962":11052,"миннеф":11053,"поправок":11054,"предупреждению":11055,"стрелкой":11056,"электросетевого":11057,"извлека":11058,"катод":11059,"соотно":11060,"створ":11061,"менеджер":11062,"теплопереда":11063,"магнито":11064,"вместимостью":11065,"наконечник":11066,"дезинфекции":11067,"блуждающих":11068,"змн":11069,"пэвм":11070,"специфики":11071,"51320":11072,"наличием":11073,"адгезии":11074,"ситуациях":11075,"вестибюлях":11076,"##abl":11077,"отсоединение":11078,"регенерации":11079,"статьи":11080,"электрогенераторные":11081,"индекс":11082,"транспози":11083,"теплоустойчивых":11084,"безаварий":11085,"металлопроката":11086,"4666":11087,"edition":11088,"апробированных":11089,"венткамер":11090,"жгуте":11091,"иллюстрации":11092,"хорош":11093,"покрова":11094,"стенок":11095,"перераспределения":11096,"закрываться":11097,"каждую":11098,"водогрей":11099,"триэтиленглик":11100,"22853":11101,"чешуйчат":11102,"34233":11103,"дымоудаления":11104,"гардероб":11105,"теплопередаче":11106,"%-":11107,"050":11108,"025":11109,"350":11110,"71":11111,"720":11112,"],":11113,"cabl":11114,"dat":11115,"el":11116,"met":11117,"tин":11118,"аут":11119,"альтерн":11120,"бс":11121,"вли":11122,"воду":11123,"включением":11124,"введ":11125,"встра":11126,"гт":11127,"гж":11128,"гара":11129,"дон":11130,"дней":11131,"днс":11132,"довзрыв":11133,"жен":11134,"иност":11135,"иного":11136,"иными":11137,"кав":11138,"крем":11139,"ложного":11140,"нового":11141,"оф":11142,"окис":11143,"петель":11144,"рщ":11145,"рпн":11146,"сла":11147,"сде":11148,"суль":11149,"тз":11150,"тест":11151,"укры":11152,"успеш":11153,"флюс":11154,"фаса":11155,"хлад":11156,"цех":11157,"шах":11158,"штор":11159,"шаг":11160,"эмуль":11161,"ят":11162,"ячей":11163,"##рв":11164,"##рного":11165,"##оки":11166,"##оход":11167,"##аш":11168,"##бран":11169,"##топ":11170,"##тное":11171,"##тера":11172,"##татных":11173,"##дить":11174,"##елки":11175,"##лого":11176,"##лые":11177,"##ьев":11178,"##штатных":11179,"##ида":11180,"##илен":11181,"##инитель":11182,"##инены":11183,"##ились":11184,"##содержа":11185,"##чные":11186,"##чок":11187,"##вид":11188,"##уре":11189,"##уров":11190,"##фаль":11191,"##целесообраз":11192,"##ъед":11193,"##hf":11194,"##жной":11195,"##il":11196,"##sul":11197,"##th":11198,"##57":11199,"##ac":11200,"##ёк":11201,"##ёмкости":11202,"##qu":11203,"##ниру":11204,"##овид":11205,"##нород":11206,"прерыва":11207,"##енному":11208,"##ендов":11209,"##ентами":11210,"##орез":11211,"##одор":11212,"##одеж":11213,"##атного":11214,"##атических":11215,"##кит":11216,"##ледствие":11217,"##ета":11218,"##нами":11219,"обер":11220,"обоб":11221,"общем":11222,"обрыва":11223,"##остного":11224,"##отказ":11225,"причи":11226,"раме":11227,"заложения":11228,"##ностях":11229,"##едение":11230,"износу":11231,"прос":11232,"проф":11233,"проник":11234,"прогрева":11235,"##щин":11236,"отме":11237,"отстра":11238,"##ельного":11239,"сосед":11240,"неу":11241,"неопреде":11242,"нештатных":11243,"нецелесообраз":11244,"##дены":11245,"##оконтакт":11246,"##озвуков":11247,"##невая":11248,"##езд":11249,"выработ":11250,"конеч":11251,"конца":11252,"##оскит":11253,"##водительность":11254,"метров":11255,"метано":11256,"условием":11257,"опо":11258,"опорам":11259,"опроб":11260,"безотказ":11261,"разм":11262,"разности":11263,"разъед":11264,"##рового":11265,"системный":11266,"метода":11267,"проекте":11268,"##ительном":11269,"осрв":11270,"##аккумуля":11271,"подд":11272,"подуш":11273,"поднима":11274,"##душ":11275,"##хода":11276,"##лоны":11277,"было":11278,"##жений":11279,"стяж":11280,"защитить":11281,"защитную":11282,"перпен":11283,"производителя":11284,"экспертиза":11285,"матем":11286,"1079":11287,"полиэти":11288,"установления":11289,"типовая":11290,"оснований":11291,"строго":11292,"##онанс":11293,"работой":11294,"работать":11295,"##сср":11296,"определенном":11297,"федеральному":11298,"кап":11299,"##евое":11300,"промышленные":11301,"заводскими":11302,"транспортно":11303,"##дикуля":11304,"провести":11305,"комплектной":11306,"актов":11307,"##0000":11308,"котлы":11309,"составлении":11310,"##алист":11311,"##ались":11312,"допу":11313,"воздухоза":11314,"воздуховод":11315,"элементу":11316,"производственная":11317,"переключение":11318,"перечис":11319,"приведенные":11320,"протяж":11321,"##ованная":11322,"##ованном":11323,"##ованную":11324,"##ункта":11325,"##ливания":11326,"расплав":11327,"вследствие":11328,"меня":11329,"использованы":11330,"однос":11331,"кабельную":11332,"вводного":11333,"вводное":11334,"вводится":11335,"следующего":11336,"снижа":11337,"снизу":11338,"единым":11339,"применяемым":11340,"закону":11341,"1100":11342,"металло":11343,"определяемого":11344,"токовые":11345,"свариваться":11346,"осуществлении":11347,"горении":11348,"входным":11349,"проводит":11350,"проводниками":11351,"проводятся":11352,"качественных":11353,"опорно":11354,"опорная":11355,"##ильных":11356,"##итационный":11357,"возможные":11358,"изготовителями":11359,"потребляемая":11360,"размещены":11361,"грани":11362,"технологичность":11363,"##озахв":11364,"##ентное":11365,"информацией":11366,"146":11367,"1484":11368,"##никовые":11369,"сове":11370,"2351":11371,"##ываемого":11372,"допускающими":11373,"132":11374,"139":11375,"соответствующему":11376,"специально":11377,"специалист":11378,"высшего":11379,"грузозахв":11380,"черный":11381,"серой":11382,"установлена":11383,"масел":11384,"корпусах":11385,"вентили":11386,"межсет":11387,"трендов":11388,"устанавливаемое":11389,"всегда":11390,"2479":11391,"металлическим":11392,"милли":11393,"нефтяные":11394,"собира":11395,"смр":11396,"16371":11397,"16110":11398,"показатель":11399,"3076":11400,"30852":11401,"открытого":11402,"упакованы":11403,"отдельного":11404,"наружном":11405,"объемных":11406,"объемный":11407,"листу":11408,"значениям":11409,"значениях":11410,"чисел":11411,"##сурсов":11412,"тсн":11413,"фактического":11414,"упаковывать":11415,"доступном":11416,"##ерметр":11417,"обеспечивающего":11418,"15140":11419,"2510":11420,"предназначенными":11421,"выходные":11422,"выходными":11423,"зданиям":11424,"расположенной":11425,"площадкам":11426,"фланцевыми":11427,"низких":11428,"низко":11429,"давлениях":11430,"минимума":11431,"315":11432,"3183":11433,"жидкое":11434,"габаритам":11435,"отопительных":11436,"проектируемой":11437,"сохранения":11438,"2155":11439,"коэффициентом":11440,"паровая":11441,"подразряда":11442,"##20302":11443,"401":11444,"двухфаз":11445,"охрану":11446,"передава":11447,"совокупного":11448,"состояний":11449,"однофазных":11450,"приводит":11451,"приводами":11452,"функциональному":11453,"подраздел":11454,"подразделений":11455,"надреза":11456,"образной":11457,"цветных":11458,"цветовой":11459,"требуемые":11460,"несущему":11461,"свето":11462,"светозвуков":11463,"единица":11464,"руководства":11465,"руководящие":11466,"освещению":11467,"допустимую":11468,"смены":11469,"##ологическим":11470,"базового":11471,"непред":11472,"коррозионных":11473,"коррозионные":11474,"направленной":11475,"измерительной":11476,"трехфазных":11477,"##нгенци":11478,"остальные":11479,"277":11480,"27577":11481,"кровля":11482,"нанесен":11483,"нанесенных":11484,"нанесенной":11485,"локальных":11486,"подтверждать":11487,"уставками":11488,"относящие":11489,"прямолиней":11490,"сроком":11491,"муфтами":11492,"муфтой":11493,"профильный":11494,"профильное":11495,"клея":11496,"тактов":11497,"непосредственной":11498,"##отехнических":11499,"пожаротушение":11500,"земля":11501,"гидрост":11502,"модуль":11503,"модули":11504,"мерз":11505,"верхний":11506,"последовательного":11507,"огневых":11508,"лестницами":11509,"пластиков":11510,"апк":11511,"##ырёк":11512,"принимаемых":11513,"пуске":11514,"сопротивлением":11515,"резьбой":11516,"многожиль":11517,"многоцилинд":11518,"многообразия":11519,"заполнением":11520,"поставляемой":11521,"блокирования":11522,"общественного":11523,"механизмом":11524,"ротору":11525,"роторов":11526,"совместная":11527,"радиограф":11528,"преб":11529,"запорные":11530,"крепежными":11531,"теплообменной":11532,"горизонтальном":11533,"ответного":11534,"ископ":11535,"аварийном":11536,"кондицион":11537,"вертикали":11538,"чувствительного":11539,"##гистр":11540,"проходящего":11541,"устойчивы":11542,"##вижу":11543,"закрепленного":11544,"объединены":11545,"разрешен":11546,"разрешенных":11547,"горячей":11548,"электромагнитных":11549,"дверного":11550,"горючей":11551,"регулирующих":11552,"регулирующие":11553,"второго":11554,"крышка":11555,"12969":11556,"инвестиционного":11557,"мпс":11558,"предельных":11559,"волок":11560,"прямошовные":11561,"##строя":11562,"скоррект":11563,"обратный":11564,"временных":11565,"секция":11566,"заземляющая":11567,"подъемом":11568,"экранирован":11569,"грунтом":11570,"болтовым":11571,"040":11572,"трассам":11573,"пропор":11574,"пропус":11575,"электроэнергет":11576,"хозяйственного":11577,"козырёк":11578,"теплоизоляционные":11579,"защищаемых":11580,"изолона":11581,"изолирован":11582,"фазных":11583,"концах":11584,"штангенци":11585,"признается":11586,"недр":11587,"элементам":11588,"элементах":11589,"цилиндрическая":11590,"свайные":11591,"свайный":11592,"негорючими":11593,"предохраня":11594,"эффективной":11595,"протоколом":11596,"полити":11597,"эвакуационным":11598,"естественной":11599,"естественного":11600,"удобных":11601,"614":11602,"жесткие":11603,"позиции":11604,"легированные":11605,"емкостей":11606,"задаются":11607,"зажима":11608,"##ографии":11609,"дистанционная":11610,"розетку":11611,"непрерывно":11612,"доборных":11613,"холодно":11614,"искусственной":11615,"компенсаторы":11616,"немагнит":11617,"приварной":11618,"крайних":11619,"рассматривать":11620,"твердые":11621,"##лойным":11622,"автозаправочная":11623,"затвора":11624,"козырьку":11625,"агрегатом":11626,"наибольшей":11627,"кратности":11628,"кратность":11629,"компоновке":11630,"приёма":11631,"диагностика":11632,"дренажные":11633,"шаблона":11634,"сертификатов":11635,"дифференциальной":11636,"обоснования":11637,"обоснованных":11638,"продолжения":11639,"шину":11640,"понижения":11641,"столовых":11642,"повторного":11643,"увеличению":11644,"ведомственные":11645,"резервуарного":11646,"растяже":11647,"графиков":11648,"ограничива":11649,"ограничивать":11650,"фундаменте":11651,"гидравлического":11652,"оказаться":11653,"дисков":11654,"топливного":11655,"водоотвод":11656,"последующих":11657,"коллекторов":11658,"счита":11659,"пересечение":11660,"клапаном":11661,"перекрытиями":11662,"сальниковым":11663,"проложить":11664,"проложены":11665,"предоставляющих":11666,"предоставляемой":11667,"стойкие":11668,"принципиальных":11669,"гидроаккумуля":11670,"пбв":11671,"управляющие":11672,"демонтаж":11673,"отводом":11674,"оконного":11675,"несанкционированных":11676,"обработку":11677,"назначенного":11678,"двойных":11679,"располагаемых":11680,"21150":11681,"энергоснабжения":11682,"всасывании":11683,"углеводородных":11684,"съемными":11685,"закладные":11686,"коммутации":11687,"централизованное":11688,"металлоконструкциям":11689,"исследовательских":11690,"агрессивной":11691,"агрессивность":11692,"метрологическому":11693,"образует":11694,"свободному":11695,"оптимальную":11696,"номенклатурного":11697,"номенклатурных":11698,"вращающихся":11699,"##остойким":11700,"разъемом":11701,"исключена":11702,"сечений":11703,"результатах":11704,"турбогенераторами":11705,"турбогенераторах":11706,"недопустимых":11707,"комбинированным":11708,"этажах":11709,"вахтера":11710,"включении":11711,"теплота":11712,"текущих":11713,"аккумуляторная":11714,"сепар":11715,"полосы":11716,"полосами":11717,"клетках":11718,"поворота":11719,"собранного":11720,"нагнетательных":11721,"нагнетательный":11722,"надземных":11723,"вакуумом":11724,"ворота":11725,"существующих":11726,"котельной":11727,"редуци":11728,"токопроводящих":11729,"токопроводящей":11730,"##агрессивной":11731,"дросселиру":11732,"##ity":11733,"прошедшие":11734,"исходных":11735,"исходные":11736,"терминалов":11737,"санузле":11738,"санузлом":11739,"ответвления":11740,"лопаст":11741,"целесообразного":11742,"##орегу":11743,"процентное":11744,"разрабатывается":11745,"подключаемая":11746,"органами":11747,"границы":11748,"направлениях":11749,"нарушение":11750,"высоких":11751,"высоким":11752,"поршневой":11753,"поршневые":11754,"газообразных":11755,"нержавеющей":11756,")),":11757,"выявления":11758,"универсальные":11759,"сертификатами":11760,"55990":11761,"завершения":11762,"многогранных":11763,"напольного":11764,"туннелях":11765,"пружинных":11766,"белый":11767,"зимний":11768,"натяж":11769,"приточно":11770,"забивки":11771,"забивном":11772,"водяных":11773,"утратившим":11774,"алюминиевой":11775,"команд":11776,"эксплуатироваться":11777,"деформацион":11778,"лебедкой":11779,"копией":11780,"кнопок":11781,"подрядчик":11782,"размещенную":11783,"пломбиров":11784,"газоуловителя":11785,"кратковременную":11786,"платформе":11787,"сжиженного":11788,"сжиженных":11789,"манометров":11790,"пользователей":11791,":**":11792,"frhf":11793,"##лемой":11794,"присутствия":11795,"заготовка":11796,"заготовок":11797,"выдав":11798,"ускоря":11799,"подвески":11800,"заклеиваться":11801,"граничных":11802,"однотипных":11803,"однотипности":11804,"герметизирующие":11805,"лопаток":11806,"препятству":11807,"печей":11808,"обмена":11809,"опорожнение":11810,"крупно":11811,"энергосберега":11812,"вложена":11813,"шнура":11814,"ревизии":11815,"объёма":11816,"гидрогенерат":11817,"процедур":11818,"товаросопроводительная":11819,"принудительной":11820,"типоразмера":11821,"жаропр":11822,"пролеты":11823,"западной":11824,"##осодержащие":11825,"##осодержащих":11826,"вибро":11827,"декларация":11828,"индикатора":11829,"круглые":11830,"рубашки":11831,"третьей":11832,"сочетании":11833,"тамбур":11834,"тамбура":11835,"торфя":11836,"эффекта":11837,"водоотведения":11838,"небольшим":11839,"неразрушающий":11840,"укомплектованы":11841,"амперметр":11842,"почвы":11843,"быстрос":11844,"водорода":11845,"нумерации":11846,"00220302":11847,"глухих":11848,"инфраструктуры":11849,"одинаковой":11850,"обезжиривания":11851,"змеевики":11852,"президент":11853,"гильзы":11854,"луча":11855,"мембран":11856,"происхождения":11857,"среднеагрессивной":11858,"газопотребления":11859,"пороговый":11860,"низколегированные":11861,"хроматографии":11862,"полупогружных":11863,"ригелям":11864,"ослабления":11865,"резинотехни":11866,"чердак":11867,"крыльца":11868,"газоанализаторов":11869,"последствий":11870,"обручами":11871,"##опроизводительность":11872,"общежитий":11873,"буроопускном":11874,"облада":11875,"предшествовать":11876,"ориент":11877,"14693":11878,"надлежа":11879,"попутного":11880,"интерфейсу":11881,"умываль":11882,"силиконовых":11883,"высоковольтных":11884,"ультрафиолетовой":11885,"insul":11886,"снимаемые":11887,"наледи":11888,"покупные":11889,"минимизации":11890,"трамбованием":11891,"предотвращению":11892,"сжиженный":11893,"негерметизированные":11894,"запроектировать":11895,"неотъемлемой":11896,"оребренных":11897,"зрительных":11898,"мульти":11899,"таянии":11900,"приготовления":11901,"заваркой":11902,"спецодеж":11903,"аварии":11904,"объёму":11905,"огнеупорные":11906,"тоннельного":11907,"оптимизации":11908,"институтов":11909,"консистентной":11910,"упорядоченное":11911,"триэтиленгликоля":11912,"data":11913,"elect":11914,"аутенти":11915,"женщин":11916,"иностран":11917,"кавитационный":11918,"кремния":11919,"офис":11920,"флюсом":11921,"шторками":11922,"ятпр":11923,"##топлив":11924,"неопределенности":11925,"перпендикуля":11926,"полиэтилена":11927,"23518":11928,"30765":11929,"относящиеся":11930,"пластиковые":11931,"гидроаккумулятор":11932,"резинотехнические":11933,"спецодежды":11934,".%":11935,"330":11936,"550":11937,"581":11938,"eth":11939,"of":11940,"rj":11941,"sc":11942,"vol":11943,"аку":11944,"бан":11945,"бур":11946,"бочки":11947,"бочек":11948,"вект":11949,"вест":11950,"вмя":11951,"ветра":11952,"гм":11953,"деле":11954,"дорож":11955,"движу":11956,"ей":11957,"етт":11958,"ио":11959,"ие":11960,"иным":11961,"ков":11962,"кас":11963,"лого":11964,"лент":11965,"мх":11966,"мы":11967,"мере":11968,"мяг":11969,"оде":11970,"оча":11971,"озна":11972,"пле":11973,"пет":11974,"пас":11975,"паль":11976,"пдз":11977,"пись":11978,"рк":11979,"рм":11980,"рh":11981,"сл":11982,"соп":11983,"сда":11984,"сменя":11985,"ссср":11986,"тали":11987,"тяжения":11988,"тяжением":11989,"тогда":11990,"ун":11991,"ули":11992,"уполном":11993,"фер":11994,"фит":11995,"ху":11996,"ходу":11997,"цели":11998,"цемент":11999,"чёт":12000,"шов":12001,"ще":12002,"элект":12003,"эрозион":12004,"##рд":12005,"##ря":12006,"##рных":12007,"##рое":12008,"##ада":12009,"##бид":12010,"##баз":12011,"##тора":12012,"##кле":12013,"##дцев":12014,"##есурсов":12015,"##ьют":12016,"##шта":12017,"##шир":12018,"##ший":12019,"##шиваемые":12020,"##мы":12021,"##ииз":12022,"##сt":12023,"##сос":12024,"##скую":12025,"##чата":12026,"##чными":12027,"##вом":12028,"##выми":12029,"##ящая":12030,"##ящему":12031,"##нными":12032,"##300":12033,"##332":12034,"##уются":12035,"##фуз":12036,"##зп":12037,"##зх":12038,"##зного":12039,"##зовые":12040,"##церог":12041,"##гно":12042,"##гмент":12043,"##гружа":12044,"##генного":12045,"##гба":12046,"##гове":12047,"##22":12048,"##279":12049,"##283":12050,"##жей":12051,"##женных":12052,"##if":12053,"##el":12054,"##tp":12055,"##as":12056,"##нику":12057,"##овор":12058,"##овывать":12059,"практ":12060,"провар":12061,"##чено":12062,"##четов":12063,"##орас":12064,"##оды":12065,"##лед":12066,"##гос":12067,"##циаль":12068,"##циден":12069,"##реж":12070,"##релей":12071,"##регистр":12072,"обоснов":12073,"обсад":12074,"##рава":12075,"##лиш":12076,"##лижения":12077,"##литу":12078,"наме":12079,"настрой":12080,"##кан":12081,"##отол":12082,"прич":12083,"прила":12084,"примет":12085,"##руд":12086,"##спубли":12087,"##ляемый":12088,"зарегистр":12089,"закан":12090,"##таз":12091,"##оповка":12092,"##лано":12093,"##лавлива":12094,"износа":12095,"излиш":12096,"прочие":12097,"прояв":12098,"прогно":12099,"##еход":12100,"##менную":12101,"##щиков":12102,"отчетов":12103,"соос":12104,"##задерж":12105,"неота":12106,"неоснов":12107,"нелег":12108,"##дению":12109,"##озат":12110,"##аваться":12111,"##ивая":12112,"##ивших":12113,"##ирки":12114,"##езда":12115,"##товые":12116,"выреза":12117,"выдава":12118,"##тье":12119,"##осут":12120,"##осварных":12121,"##анур":12122,"республи":12123,"##имыми":12124,"опр":12125,"устране":12126,"##очному":12127,"разного":12128,"разным":12129,"разбивки":12130,"##истемы":12131,"системного":12132,"безопасных":12133,"##ванию":12134,"##раншей":12135,"##луч":12136,"подключением":12137,"изготовлен":12138,"была":12139,"методическизх":12140,"сту":12141,"стоп":12142,"страны":12143,"стес":12144,"стирки":12145,"##метрах":12146,"##орачива":12147,"##полииз":12148,"первая":12149,"раск":12150,"расстр":12151,"произвед":12152,"производимых":12153,"инер":12154,"инциден":12155,"##фид":12156,"##ственную":12157,"полю":12158,"полная":12159,"компет":12160,"компьют":12161,"установлено":12162,"частности":12163,"частях":12164,"##денциаль":12165,"определенной":12166,"определено":12167,"насосное":12168,"свеч":12169,"пожаро":12170,"трубу":12171,"трубный":12172,"строительную":12173,"##иваемой":12174,"##гах":12175,"##гается":12176,"заводами":12177,"необходима":12178,"необходимом":12179,"##одукция":12180,"автоматическими":12181,"силы":12182,"##ийной":12183,"техногенного":12184,"транспортным":12185,"транспортиров":12186,"##чающие":12187,"##чаемой":12188,"таблицам":12189,"основное":12190,"##ативный":12191,"составлению":12192,"оконных":12193,"доход":12194,"##ализации":12195,"трубопроводную":12196,"газоне":12197,"##крытия":12198,"##управ":12199,"продуть":12200,"производственному":12201,"местные":12202,"местной":12203,"местного":12204,"местное":12205,"перегрева":12206,"болота":12207,"водный":12208,"водоснаб":12209,"размере":12210,"размерности":12211,"резины":12212,"резонанс":12213,"материаловед":12214,"вскрытия":12215,"послойным":12216,"##окания":12217,"##горесурсов":12218,"взрыво":12219,"падающей":12220,"исключение":12221,"вводах":12222,"охв":12223,"согласование":12224,"блочные":12225,"блочном":12226,"приемочных":12227,"##лым":12228,"##веш":12229,"##ющегося":12230,"испытаниями":12231,"##гуна":12232,"маршей":12233,"инструкций":12234,"воздействовать":12235,"определяемой":12236,"определяющая":12237,"теплый":12238,"колпа":12239,"##тую":12240,"токоотвод":12241,"свариваемых":12242,"регламентироваться":12243,"постов":12244,"##остойкости":12245,"осуществление":12246,"##щаются":12247,"узле":12248,"узлами":12249,"назначением":12250,"входов":12251,"входами":12252,"сетки":12253,"сетками":12254,"сетевого":12255,"сетями":12256,"данный":12257,"район":12258,"рулет":12259,"##лоты":12260,"потребителем":12261,"внутренними":12262,"технологию":12263,"технологией":12264,"нормативный":12265,"видны":12266,"видим":12267,"фаза":12268,"газах":12269,"140":12270,"014":12271,"иметься":12272,"допускает":12273,"специальное":12274,"грузовой":12275,"грузовых":12276,"череду":12277,"покрываются":12278,"серосодержащих":12279,"сердцев":12280,"масло":12281,"арматур":12282,"1966":12283,"энергоресурсов":12284,"##никам":12285,"порш":12286,"##оопасность":12287,"механическая":12288,"показателю":12289,"расчетную":12290,"открытия":12291,"открытая":12292,"открытый":12293,"химическому":12294,"упаковано":12295,"междуфаз":12296,"климатическому":12297,"объемах":12298,"листами":12299,"представлено":12300,"абонент":12301,"электрообогрев":12302,"принятому":12303,"упаковочные":12304,"упаковочному":12305,"доступности":12306,"ресурса":12307,"изоляторов":12308,"автоматизированного":12309,"питающие":12310,"питаемой":12311,"графита":12312,"15156":12313,"используют":12314,"люки":12315,"центрирующая":12316,"центровке":12317,"обеспечено":12318,"несъем":12319,"силовым":12320,"выходного":12321,"асфаль":12322,"минстроя":12323,"1006":12324,"расположена":12325,"расположенного":12326,"площадку":12327,"программным":12328,"##ционально":12329,"6059":12330,"60332":12331,"стенде":12332,"углов":12333,"##рованная":12334,"унифици":12335,"отопительные":12336,"проведенном":12337,"группам":12338,"проектируемым":12339,"количеству":12340,"выдержками":12341,"##ждение":12342,"двухт":12343,"двухобмоточного":12344,"двухкомпонент":12345,"53279":12346,"канализацию":12347,"жилищ":12348,"однократ":12349,"обязательным":12350,"приводы":12351,"приводов":12352,"повышенных":12353,"функциональных":12354,"функциональное":12355,"надписями":12356,"работающему":12357,"образцы":12358,"электродвигателем":12359,"крр":12360,"оговор":12361,"патч":12362,"##нителей":12363,"##нители":12364,"требует":12365,"требуют":12366,"требующие":12367,"требуются":12368,"требуемая":12369,"несущего":12370,"энергия":12371,"аналого":12372,"светлых":12373,"единицах":12374,"руководителя":12375,"погрузки":12376,"1703":12377,"периоде":12378,"тому":12379,"смещений":12380,"контролируемых":12381,"##орожно":12382,"частотного":12383,"частотный":12384,"частотное":12385,"распределенных":12386,"служб":12387,"положений":12388,"положительных":12389,"положительного":12390,"заданными":12391,"направленная":12392,"рамном":12393,"осторожно":12394,"шкале":12395,"332":12396,"##ющееся":12397,"1994":12398,"каждые":12399,"каждому":12400,"##рик":12401,"##ризации":12402,"присоединить":12403,"локальной":12404,"локальный":12405,"подтверждены":12406,"запасной":12407,"идентифициру":12408,"защищено":12409,"уставку":12410,"относя":12411,"различные":12412,"различной":12413,"профиль":12414,"взаиморез":12415,"34283":12416,"##260":12417,"такие":12418,"такими":12419,"непосредственного":12420,"релейный":12421,"имеется":12422,"извещения":12423,"компрессора":12424,"отделы":12425,"модульных":12426,"модулях":12427,"модульном":12428,"##тепровод":12429,"выключателями":12430,"выключателем":12431,"верха":12432,"верхних":12433,"участок":12434,"приложениях":12435,"физических":12436,"лестница":12437,"пластины":12438,"пластика":12439,"температурные":12440,"температурный":12441,"структурой":12442,"##ящихся":12443,"извещателем":12444,"принимают":12445,"карбид":12446,"токовую":12447,"ограждающей":12448,"сопротивлению":12449,"512":12450,"многоуров":12451,"многотоплив":12452,"заполня":12453,"утеплитель":12454,"бурения":12455,"механизмах":12456,"чугуна":12457,"длительность":12458,"запорное":12459,"##невую":12460,"горизонтальная":12461,"горизонтально":12462,"компрессорный":12463,"акб":12464,"подшипниковые":12465,"аварийной":12466,"постоянной":12467,"достигается":12468,"влажностью":12469,"распределительная":12470,"распределительную":12471,"чувствительностью":12472,"собственности":12473,"независимого":12474,"293":12475,"стандартной":12476,"нужды":12477,"смесью":12478,"009":12479,"проходные":12480,"проходного":12481,"проходящий":12482,"статических":12483,"обогревателями":12484,"конкретной":12485,"комплектуется":12486,"комплектуются":12487,"рассчитано":12488,"автомобильных":12489,"равном":12490,"дверью":12491,"дверцы":12492,"горючая":12493,"повреждении":12494,"регулируемыми":12495,"топливе":12496,"фикса":12497,"второе":12498,"операторной":12499,"углеводородный":12500,"крышей":12501,"отверстие":12502,"предусмотренного":12503,"предусмотренными":12504,"учитывается":12505,"лента":12506,"терморас":12507,"энергетики":12508,"варианту":12509,"##ённых":12510,"атмосферу":12511,"получен":12512,"полуму":12513,"нижних":12514,"отделку":12515,"факельного":12516,"волн":12517,"волны":12518,"расходы":12519,"молниеотвод":12520,"присоединяемые":12521,"566":12522,"5481":12523,"метрологической":12524,"метрологических":12525,"обратным":12526,"сблоки":12527,"секционных":12528,"экраном":12529,"температурам":12530,"рисунку":12531,"рисунках":12532,"оценке":12533,"оценку":12534,"щиты":12535,"щитов":12536,"щитков":12537,"взрывоопасности":12538,"заглушенными":12539,"подклассам":12540,"потолка":12541,"потолками":12542,"##охран":12543,"ограничений":12544,"позднее":12545,"хозяйственной":12546,"теплоизоляцией":12547,"защищает":12548,"защищаемой":12549,"3612":12550,"ведение":12551,"изолированный":12552,"эстакаде":12553,"»),":12554,"методик":12555,"методикам":12556,"5286":12557,"лакокрасочного":12558,"лакокрасочное":12559,"двигатели":12560,"контакты":12561,"контактами":12562,"эпоксид":12563,"чертежах":12564,"газоотвод":12565,"смазочного":12566,"законодательных":12567,"рядом":12568,"продольных":12569,"позволяет":12570,"индивидуальной":12571,"магистрали":12572,"магистральные":12573,"эвакуационного":12574,"достаточной":12575,"удобного":12576,"удобства":12577,"61000":12578,"агентом":12579,"тросом":12580,"53316":12581,"легких":12582,"оптический":12583,"стойкам":12584,"задач":12585,"задании":12586,"исключающих":12587,"исключающую":12588,"оповещателя":12589,"первичный":12590,"свидетельством":12591,"розеточной":12592,"обвязкой":12593,"выводов":12594,"холодиль":12595,"искусственно":12596,"искусственного":12597,"переходные":12598,"компенсатора":12599,"деревянной":12600,"диффуз":12601,"лотке":12602,"приварки":12603,"готовых":12604,"четкой":12605,"линейные":12606,"предпроектная":12607,"обеих":12608,"автозаправочных":12609,"козырьком":12610,"неизол":12611,"неизменными":12612,"стыки":12613,"компоновки":12614,"углеродный":12615,"плати":12616,"вещество":12617,"восстановлены":12618,"железнодорожных":12619,"327":12620,"328":12621,"регламентом":12622,"этапов":12623,"дренажную":12624,"сертификатом":12625,"модельного":12626,"дифференциальных":12627,"тяги":12628,"панд":12629,"увеличива":12630,"4000":12631,"горловиной":12632,"резервуары":12633,"ограничитель":12634,"вкладывать":12635,"ключи":12636,"минерализ":12637,"закрытый":12638,"диска":12639,"микро":12640,"топливный":12641,"рассматриваются":12642,"большим":12643,"транспортирующих":12644,"транспортирующие":12645,"пусковые":12646,"цилиндрических":12647,"цилиндрические":12648,"компримированным":12649,"оцинкованного":12650,"протекания":12651,"шайбой":12652,"плита":12653,"первый":12654,"решетчатой":12655,"счетчика":12656,"полимерного":12657,"окраску":12658,"стойким":12659,"находились":12660,"находящихся":12661,"управляемыми":12662,"замкнутом":12663,"оперативных":12664,"концевыми":12665,"полезных":12666,"винтовой":12667,"винтового":12668,"предъявляемым":12669,"газотурбинные":12670,"звуковых":12671,"##rom":12672,"обработка":12673,"обработке":12674,"приточная":12675,"##ющемся":12676,"возникновение":12677,"вместе":12678,"вместимости":12679,"своем":12680,"грузоподъемность":12681,"поперечного":12682,"пенополииз":12683,"закладным":12684,"аппаратами":12685,"коммутационные":12686,"торцового":12687,"централизованного":12688,"пространстве":12689,"##855":12690,"реконструкция":12691,"реконструкцию":12692,"магнитного":12693,"буквенные":12694,"динамических":12695,"уборки":12696,"##агрег":12697,"оптимального":12698,"дальнейшей":12699,"испытательный":12700,"испытательное":12701,"##ernet":12702,"прилагаемому":12703,"прилагаемую":12704,"комплектовочная":12705,"последней":12706,"плавный":12707,"мфто":12708,"##фтя":12709,"конфиденциаль":12710,"загрязнения":12711,"включены":12712,"дозиров":12713,"текущего":12714,"нефтепродукты":12715,"интервалы":12716,"фундаментам":12717,"стыковых":12718,"снег":12719,"травер":12720,"##кидной":12721,"нагнетательного":12722,"exch":12723,"валом":12724,"отражать":12725,"котельная":12726,"редукционно":12727,"23166":12728,"отсутствуют":12729,"батареи":12730,"реактор":12731,"раскатку":12732,"кронштейнах":12733,"кронштейнам":12734,"санузла":12735,"санузлах":12736,"ответвлений":12737,"подключается":12738,"трудно":12739,"анализу":12740,"взаимодействия":12741,"кольцами":12742,"кодексом":12743,"удельные":12744,"обручи":12745,"нарушенные":12746,"находящегося":12747,"электроосвещение":12748,"поршневого":12749,"металлорукаве":12750,"автоцистерн":12751,"газообразная":12752,"несоответствие":12753,"нержавеющих":12754,")).":12755,"сырой":12756,"выявленные":12757,"универсальный":12758,"трехфазные":12759,"импортное":12760,"лаборатория":12761,"лаборатории":12762,"лабораторий":12763,"канцерог":12764,"начального":12765,"отображения":12766,"контролируемое":12767,"многогранной":12768,"глубины":12769,"понижающего":12770,"целостность":12771,"сопровожда":12772,"сопровождаться":12773,"бирки":12774,"долгове":12775,"натя":12776,"стандартам":12777,"стандартах":12778,"водяного":12779,"энергией":12780,"ресиверах":12781,"нормируется":12782,"дизельное":12783,"уфоф":12784,"обороне":12785,"инструменту":12786,"деформации":12787,"нижестоящей":12788,"блокируемого":12789,"углеродистые":12790,"символом":12791,"опломбированными":12792,"62040":12793,"гладкой":12794,"ксзп":12795,"замерзания":12796,"прочее":12797,"подогревателем":12798,"стабильности":12799,"стабильность":12800,"огнезащиты":12801,"телефон":12802,"утилизаторов":12803,"платформы":12804,"инфракрасных":12805,"дождевых":12806,"легковоспламеняющаяся":12807,"малой":12808,"присутствием":12809,"износостойких":12810,"износостойким":12811,"подполь":12812,"газораздаточных":12813,"переконсервацию":12814,"токсичных":12815,"рассмотр":12816,"рассмотре":12817,"балансировки":12818,"балансировка":12819,"формируются":12820,"предупредительных":12821,"предупредительные":12822,"бросок":12823,"домов":12824,"отпаек":12825,"отпайки":12826,"утверждается":12827,"построенные":12828,"построенная":12829,"смежной":12830,"направляющий":12831,"преграды":12832,"крупных":12833,"бронированного":12834,"сбрасываемых":12835,"суток":12836,"шнуры":12837,"намокания":12838,"рационального":12839,"подвеске":12840,"записи":12841,"53679":12842,"53678":12843,"однофазные":12844,"высоконапорного":12845,"резистивно":12846,
[...]
